FC
F9
01
08
F9
F8
01
08
00
05
05
01
0B
00
FF
F8
FF
F7
03
06
FC
08
F9
FA
04
F8
F4
08
F7
03
02
00
FA
F3
02
0C
F6
08
FF
F8
F9
03
00
FE
01
06
06
F1
FB
F8
02
FD
FB
F9
F4
FC
F5
FE
F9
02
FF
06
F8
ED
01
03
06
08
06
0E
09
08
05
FC
0C
FC
F5
F7
07
FC
01
01
0A
02
0D
FD
FE
00
FB
FF
FE
04
07
FD
F6
FE
01
FE
FB
07
00
02
FA
F5
FD
00
F7
F8
02
FF
0B
07
FE
0B
04
FF
FD
F2
02
0C
01
00
FC
03
FA
02
FF
FF
04
F8
F9
F3
04
05
04
03
F1
07
01
FA
01
03
FE
08
FF
FA
0B
F9
FE
07
0E
F9
FA
F6
FF
0B
04
EC
05
F8
FB
0B
FB
FD
09
F7
0C
FB
07
03
05
F6
06
07
07
F7
FE
01
00
FF
FD
04
FF
00
08
03
FC
FA
FB
14
F9
F3
09
FE
FA
01
FE
FD
FF
03
02
03
FB
04
02
09
09
FF
FB
F9
FD
F2
F1
F9
FF
F8
0D
0A
FD
F3
FA
EF
07
00
01
FF
09
FE
0A
FE
FD
FB
0B
FA
00
F6
0A
07
FF
FC
F9
FA
05
05
F9
04
FA
0D
08
FA
FE
05
F8
12
04
0B
01
00
FC
01
01
00
06
F7
FF
09
FF
03
FD
FF
11
01
F5
0B
01
06
FC
07
FA
03
0A
01
FA
06
FC
FC
05
10
FD
FD
05
03
06
F2
FE
08
F4
FD
07
F7
00
0B
01
FC
FB
FC
02
FE
F3
FE
F3
05
00
06
FC
08
FB
FF
FF
00
0D
0A
EE
03
FA
F0
07
FA
FE
01
FF
00
00
0E
01
02
F5
01
04
08
F5
03
05
F8
FE
09
FB
04
06
FE
F9
FD
0D
05
0A
05
04
07
00
FA
06
01
05
09
01
0B
0C
03
0A
FF
FE
FA
FD
03
03
0B
FF
FC
FB
0B
01
09
02
06
FA
FC
FF
04
03
00
0A
F4
FE
0C
FA
03
F2
03
04
FC
FA
FD
F7
0A
05
00
05
07
02
FF
0A
FF
FA
07
0B
F6
0B
FC
06
FD
FD
FE
FE
F3
08
01
F9
04
FF
03
07
06
F3
F2
00
03
02
0D
FC
F4
FE
FB
03
FD
FE
00
00
FF
01
00
04
FC
FE
03
F7
02
FB
F5
FC
FD
F8
06
FB
F1
FD
FD
09
FE
FE
0C
03
06
05
05
13
FD
F8
FF
01
00
03
02
0C
FB
05
FB
04
04
01
FA
06
07
06
F2
F3
08
01
FB
FB
03
01
09
01
06
02
FF
FE
02
F4
FD
F5
00
FC
07
FE
02
FD
04
FF
FF
06
09
F9
FC
F6
FF
06
F8
04
FB
FC
FE
FA
03
00
F6
02
FD
F8
FC
04
FF
FF
02
05
FF
FF
03
08
06
FE
FB
0B
FE
01
00
F9
08
FF
F9
03
FD
06
04
04
07
00
FA
FB
00
F7
FE
FA
07
00
07
03
FD
00
02
04
01
08
F5
F4
F9
05
02
FC
FD
0A
FE
F7
05
FF
FD
F7
01
01
05
02
05
06
F9
07
FB
F7
FF
F7
FB
F8
05
FE
01
01
05
FC
FB
FC
03
01
08
FF
02
F2
04
04
FC
05
FD
F2
F6
FE
05
FE
FC
05
F4
FF
FB
0B
03
F6
0A
02
FE
03
FB
02
06
01
FE
01
F5
FF
00
F9
07
01
F9
04
FC
05
0A
05
02
F5
FC
FD
F9
F3
F5
01
03
FB
07
03
FD
FB
04
FB
05
02
F2
FD
FB
08
01
FE
03
00
FD
F3
FC
03
FC
01
FF
00
0A
FD
04
00
05
F9
FF
F8
03
06
0A
FD
FE
02
FD
FE
09
F5
08
00
00
FE
F8
0A
06
FF
0E
0A
FD
00
F9
01
06
02
06
02
FA
FF
02
05
02
FB
05
06
02
06
FD
01
FC
03
FB
00
03
FD
F9
00
FD
01
0B
F4
08
02
08
FF
FD
FB
08
00
07
FB
01
04
15
02
FD
F4
F9
04
F4
0C
02
03
F8
FA
01
F2
05
FB
F9
06
08
F2
00
00
0B
0B
FA
04
08
FE
FB
02
09
08
F7
F7
FF
FC
F2
02
0E
F9
0B
FD
FB
F4
06
FB
01
00
06
01
F9
FA
FD
FA
01
01
FE
0A
02
F8
00
FF
0B
FC
04
00
02
06
09
F7
01
00
0C
08
01
02
0A
00
FF
FB
0A
02
FB
0B
03
03
00
04
FC
FB
04
08
08
03
0D
01
04
FF
FB
F6
00
00
FD
F0
01
FE
FC
F9
06
FB
F4
F9
02
FE
05
FE
FF
00
04
FC
F9
FE
07
00
FD
FD
06
04
FE
02
F8
07
FB
FC
0A
01
FD
04
09
01
02
FD
F3
FB
0B
02
05
FF
04
05
FD
FE
FE
02
08
00
FC
F9
07
06
03
FF
F7
FC
FB
0C
FE
02
07
02
FC
02
FC
0A
FC
F2
0E
FC
04
F5
02
01
07
0D
FA
07
FC
09
FC
F9
FB
04
11
00
F6
F3
F9
F7
F3
F1
F5
FB
F7
EC
03
05
0E
F0
FB
04
F0
00
FE
01
02
00
FD
00
02
12
FF
FD
08
11
02
07
05
07
06
00
FF
00
FE
FC
04
FE
F7
02
FD
05
05
06
0B
FC
F4
FE
FC
03
0B
01
09
F7
FC
FC
F7
F3
FF
05
F9
02
F5
02
02
FD
06
F0
08
F9
FB
03
FF
FC
05
06
F7
0D
01
FE
03
0B
F8
03
FD
00
03
FE
F0
0B
F8
FD
00
FE
F9
13
FC
09
FC
03
06
02
F2
FE
07
02
FA
FD
02
FE
F7
02
FD
03
FB
0E
06
FD
FE
F3
07
03
FC
07
01
F6
01
F7
00
FE
09
FF
03
FE
06
03
06
0A
FD
08
F9
FD
F3
FB
02
05
F9
07
0E
FC
F3
FA
F8
0A
02
08
FF
02
02
07
FD
06
06
0C
02
00
FD
05
01
02
03
FE
FB
05
02
F9
FC
02
05
03
F9
02
07
FF
0F
FE
05
07
05
F8
0B
09
FB
04
FB
FA
05
FB
08
02
FF
0C
0A
FD
09
FD
04
01
00
05
FD
06
00
F9
07
FA
05
FD
05
FF
F4
FD
0B
04
FB
00
03
FB
00
01
F5
04
F9
0A
F2
FE
FD
FD
F5
0B
02
FD
01
04
F9
FA
00
01
FD
FC
05
F4
FC
05
00
01
FD
F8
0C
05
03
F4
FA
0C
02
00
07
04
FD
02
00
05
04
FD
0F
FF
01
0B
FC
F5
FE
04
09
F6
FB
FC
01
FA
F8
02
04
01
02
02
FE
02
03
F4
05
04
FC
FB
FF
03
FA
F5
FD
FD
01
FE
FA
F6
F7
FC
01
0E
06
FE
00
FB
03
F8
01
FD
F5
00
FB
08
FE
00
03
04
FC
FE
00
FC
03
FA
06
F6
02
09
01
FB
F9
05
0C
FB
01
FB
FC
0A
FE
00
0F
01
05
0A
F9
F4
03
03
FB
03
FC
04
F8
00
F8
07
09
FA
02
FA
FA
F7
00
F2
00
0B
03
FB
FC
F6
01
06
01
09
06
FE
F9
03
FE
FC
0D
FD
F6
05
FF
FD
F3
02
F5
FA
01
04
05
03
09
F5
08
02
0D
FC
0A
F5
F7
00
00
09
0B
05
F4
03
02
05
06
FA
FB
0B
FE
02
02
FD
03
03
06
04
06
F7
FB
00
FB
F7
FC
07
08
06
07
FB
F3
08
FE
02
09
03
01
09
FA
F9
04
06
00
04
FD
01
FA
08
F9
06
08
FE
FE
00
F7
F8
01
F0
09
09
00
F8
00
FC
0E
08
01
0A
07
FD
02
05
F7
02
0B
FB
FB
FE
FF
FC
F5
03
F8
F9
04
00
0A
03
08
F4
08
08
08
FB
07
F4
F8
04
06
07
FA
0A
FF
00
FF
05
08
FB
FF
09
FB
FF
05
09
F6
01
FC
F8
FD
FA
09
F8
07
FB
F7
FA
0D
FF
F8
FF
06
03
01
FC
FC
F5
06
03
FD
FF
06
F2
FC
F5
01
FC
FE
0E
FA
06
FF
02
04
FF
07
0A
05
FB
01
FC
02
F8
03
04
F8
05
FD
FF
00
04
FB
F9
FE
09
10
00
04
F6
00
FB
FA
EB
F9
05
FA
F1
05
01
FC
F3
05
FB
FA
05
F4
FC
FD
06
FE
01
05
07
F9
F3
02
06
FB
07
06
04
09
03
00
04
00
FD
FD
FF
FC
00
00
F2
01
00
04
F5
FC
FC
08
00
06
03
09
F6
F7
FB
FA
FF
FE
0B
FD
FF
02
FF
02
01
F9
FE
FF
F1
FF
08
FD
00
06
07
FA
06
07
00
07
06
FF
0C
FA
01
FF
F7
FE
08
F7
03
00
01
00
09
05
02
FA
FF
01
F9
02
FB
02
00
00
04
02
07
FA
FE
F9
09
FA
02
06
01
01
F6
00
06
FE
F8
07
FA
F9
F7
FF
FE
09
FF
02
00
00
01
FE
FC
04
07
02
FB
FC
FE
01
01
03
FA
04
FF
05
FB
FE
0C
FE
00
0E
06
02
06
FC
FD
03
FC
03
04
F6
06
FF
FD
F9
0B
01
04
08
03
FA
06
F8
FE
02
06
FE
04
F3
F7
FE
F9
03
FA
04
03
08
FD
FE
FB
01
F7
01
00
03
FB
15
07
FE
FF
F9
08
FE
0E
00
FA
FB
05
F9
F9
07
FC
F8
00
08
F1
01
F8
FD
06
F7
08
03
F8
07
04
FE
07
FB
02
F6
02
F8
07
04
FE
05
04
FA
01
FA
00
04
00
FD
F5
FA
00
FE
05
FC
F9
0B
09
09
FA
08
05
07
00
0C
02
FB
01
05
FD
FD
FB
0A
F9
04
04
00
FE
F9
FD
0D
F9
FC
FC
00
F9
02
00
01
02
FE
02
FC
FD
0A
00
06
01
03
FD
04
05
FC
01
00
F8
F9
03
03
F3
01
FB
07
08
03
01
03
02
F5
F5
06
FE
F6
F6
FB
03
FB
FE
FB
01
05
06
00
02
FB
04
F9
06
05
FA
03
04
00
01
FC
FC
0A
FF
FA
F8
FB
04
02
02
01
FF
04
0B
02
FD
0B
03
0E
FC
08
01
FC
03
06
FE
FE
FC
0A
FE
00
05
01
02
FB
FE
0B
01
FE
FD
FD
FE
0C
FD
06
03
FC
07
FF
FC
0F
FE
08
FF
05
FD
09
07
FD
F9
FF
00
F3
08
03
F9
FF
F6
05
FF
07
00
FD
04
F4
EF
07
FA
FF
FA
FB
03
03
FC
F5
FD
FF
FB
05
07
FF
0A
05
04
F9
FE
F7
FB
04
05
F4
0F
FD
03
F8
F5
FA
06
F3
05
FC
FB
0A
06
03
FE
05
FD
F9
FF
03
08
08
FB
F4
01
FA
08
01
FB
06
03
FD
FB
FA
03
03
00
07
F4
05
F7
FC
FA
05
FF
05
FE
F0
F9
05
FE
03
04
0A
05
0C
05
02
0E
FF
F9
FC
08
00
01
FF
09
FE
07
FF
03
0A
FC
F3
00
0A
02
EE
F8
02
06
FE
FA
FE
00
02
FD
05
11
05
06
00
00
F4
0A
FE
03
03
0B
F9
06
06
01
F5
01
02
08
0A
02
07
FA
FB
01
FF
09
02
01
06
F8
05
02
F9
03
06
07
FB
F6
FE
FE
F9
FC
05
04
02
FE
00
00
09
01
FA
0B
0B
08
03
FF
ED
02
09
02
F8
FD
FB
F8
03
00
F3
01
02
00
FE
05
FF
FE
FF
00
0A
F1
00
FE
FE
03
FC
05
EE
FD
0C
FF
00
05
04
07
02
FD
F6
FB
00
FC
05
F5
01
FF
07
07
FF
02
F7
0A
03
FC
08
F5
02
FF
06
00
03
07
08
05
09
03
00
F4
F6
0A
FF
07
01
05
F8
F6
03
04
00
02
08
0B
F6
02
FE
03
F5
FD
FC
03
F6
00
01
FE
FC
06
07
F6
0C
06
06
F7
FC
FF
FA
FD
07
04
02
0E
0E
00
FD
F9
F7
07
FF
0B
F9
08
FB
FC
02
F9
06
F5
F6
00
0B
F8
00
08
0C
0E
FE
04
05
FB
FD
FB
00
FF
13
02
FA
00
12
F3
05
02
01
02
00
06
03
FE
FD
02
FF
00
05
00
F9
02
06
FD
FE
F5
02
07
05
EE
F1
06
FD
03
00
00
F4
FE
04
02
F6
FE
06
FA
F4
08
FA
FC
FA
01
F9
F3
F6
F3
10
F2
02
FE
01
FC
F5
F9
00
00
05
FA
0A
00
0D
04
00
0D
05
FD
F6
06
02
03
09
10
F7
F7
F6
07
00
05
FB
FF
04
FC
F7
FB
00
03
FF
FA
08
FC
F6
FF
FB
FF
FA
FA
02
09
07
0B
09
01
FF
07
FF
02
F8
05
03
00
FF
FD
FA
05
02
FC
08
F9
06
FE
06
FA
F6
04
07
01
02
FF
FE
02
00
01
01
FD
FE
01
FD
F7
03
01
00
F8
F6
FC
03
FD
F0
02
FD
F7
09
F9
FE
FA
F8
09
F9
01
01
FA
02
05
FA
0A
F9
FC
FF
FF
00
F9
FD
04
01
0A
01
00
FD
03
08
FD
FE
07
FE
FD
00
08
FD
FC
04
01
09
00
03
03
03
04
02
EF
00
F2
FD
F2
FF
FD
03
06
03
FD
F9
02
FD
FA
F6
F9
FE
08
FA
06
02
F9
FD
FA
FB
FF
F9
0C
02
FE
F9
FB
FD
03
02
00
09
F7
09
0A
FF
F9
03
05
09
03
04
F9
05
FC
FA
00
FE
0B
00
FF
0C
FD
FE
FB
FE
FB
FF
FA
08
01
0F
FC
FE
F5
09
06
01
09
FA
F7
F6
0A
0D
00
F9
0F
FF
F7
F9
FA
04
F4
FE
07
03
05
F8
07
03
F7
01
FF
FE
01
10
FD
00
FD
EC
FB
FF
FD
0F
FB
FB
F8
F0
07
FC
09
05
01
FF
0A
09
01
08
00
F9
00
FD
08
FE
02
05
F5
FE
FC
0A
FE
03
F9
08
09
F7
F9
12
F8
FE
00
FC
F9
07
FA
FF
01
00
04
F9
FA
09
FE
0A
F6
FE
04
0F
FC
FC
FB
04
FC
01
03
02
FF
F6
FE
09
FD
03
00
05
04
01
F9
00
FE
F8
FD
FB
FD
F9
08
FD
FB
05
FC
04
05
FC
FF
08
FB
FE
FD
FC
F9
02
04
02
03
FB
01
00
FA
FE
08
F9
FE
0A
05
02
05
FB
FB
FD
F7
FC
05
F9
07
02
FE
F1
07
02
05
03
01
04
03
F7
01
01
04
FC
03
F9
F7
00
F6
03
F8
01
FE
09
FE
F9
FD
03
F9
00
FF
07
FE
10
07
02
06
FC
02
FC
09
04
FD
01
0B
F6
F8
FD
03
01
01
03
F9
02
FA
F6
FE
FD
06
FF
FA
05
FB
02
FC
0D
FD
F8
00
08
F2
05
06
04
01
05
03
FE
FE
F6
06
03
FF
FE
F8
FA
FE
02
FD
01
FA
FD
01
FD
F4
F6
03
07
F5
0D
01
F2
F2
03
01
FE
FD
07
FF
F3
06
FA
FF
FA
FC
F8
F7
FF
F5
04
F3
FC
F8
0B
FA
EC
01
07
0E
03
00
11
0A
06
05
04
11
FD
F4
F2
05
06
04
0A
0A
00
FF
F5
05
03
03
01
FC
FF
07
FC
F4
03
FD
FE
FC
03
FF
FF
F8
08
07
08
09
FF
02
F5
07
F6
FB
03
07
F0
0B
08
00
F4
FE
F9
04
01
04
FC
FD
FD
07
FB
08
FE
07
FF
00
00
FB
06
FC
FD
FC
F9
FF
00
FA
F9
01
08
09
FE
03
00
FD
0F
00
07
04
FE
FF
FF
02
FB
00
F4
04
01
07
02
FF
07
12
FD
FB
0D
0B
FE
FD
03
03
FC
08
08
FA
05
01
00
00
09
FC
F8
FF
09
08
F6
F9
07
F7
FD
01
F8
03
FB
00
00
FC
F9
F7
08
FF
0D
FC
03
F7
F1
FD
03
FB
05
00
FF
00
F9
01
F9
03
05
08
01
04
05
FC
05
F5
F7
05
F6
08
FC
F9
FE
00
FE
FD
04
FE
FF
FB
03
07
04
FF
06
FE
F2
FE
FF
F2
00
FC
F3
FF
09
FC
FC
F9
03
03
FD
FA
FD
FA
0F
01
FB
09
00
00
03
08
06
F9
FC
09
01
FB
FE
02
01
04
0C
FA
FB
F9
FE
FC
F9
FE
F9
01
07
01
09
01
02
04
03
05
02
ED
00
F1
FD
F0
FE
FD
03
07
03
FD
F8
02
FD
F9
F5
F8
FD
08
F9
07
03
F7
FC
F9
FB
00
F9
0E
01
FE
F8
FA
FC
02
03
00
09
F7
09
0B
FF
F8
03
05
09
03
05
F7
05
FC
F8
00
FE
0D
00
FF
0D
FD
FE
FB
FD
FA
FD
F9
09
02
11
FB
FE
F4
0A
05
02
0B
F9
F6
F5
0A
0F
FF
F9
11
FE
F6
F8
F8
04
F2
FE
08
04
02
F4
06
04
02
04
04
FE
0E
FF
07
FC
03
FD
09
FF
01
0C
FB
FA
F9
FD
0B
04
0C
06
F9
00
FB
02
0B
07
09
F7
00
02
06
F8
06
08
06
FF
FD
FF
FB
F7
FE
00
FC
FF
FE
04
F6
08
FC
F9
0A
00
00
0E
07
F5
01
04
FB
F3
EE
07
FA
F9
00
03
FF
FF
F4
02
03
07
FD
F7
04
FE
FB
04
FF
06
FD
FB
02
F6
FF
0A
02
FA
08
01
08
FC
00
FD
01
FE
FF
FC
03
04
F9
03
01
F5
08
FC
03
06
05
00
FA
FA
FC
0A
01
0C
07
07
FD
0B
FE
FA
FE
F9
02
F7
02
02
05
F9
FC
F8
00
FD
11
05
FA
00
FF
F9
06
F5
FB
0A
0A
F6
02
F9
FC
FD
03
FE
06
04
03
FA
FB
08
06
ED
F2
FC
00
FB
FF
F9
04
02
FD
FB
0A
08
04
F8
FF
06
FF
F7
01
05
FD
F6
FF
07
F9
00
FB
FC
0B
FB
0A
FF
FD
06
FC
02
F8
11
00
06
09
05
01
01
09
FD
FC
09
04
FC
04
06
05
FB
00
F9
FF
FB
07
05
FD
FB
FF
FB
12
08
FA
FA
FF
00
F8
10
FF
FB
F5
FD
09
F7
02
FD
FD
05
09
00
FD
FA
03
0A
02
01
06
00
FD
00
F9
03
FC
F4
01
FE
0B
FD
FB
0F
0A
08
01
04
09
FD
FC
FE
03
FF
0C
FC
00
00
F8
FD
FF
FE
01
F8
03
04
0A
03
FC
09
FE
02
FC
F9
02
00
02
03
FC
FD
FD
04
01
04
F3
FE
FD
FB
F8
FF
FD
0A
FE
FE
04
02
FC
FA
01
FA
07
FF
08
FF
01
07
FB
01
01
F5
02
FC
F5
05
01
FC
01
00
01
FD
00
09
05
02
01
02
06
FD
01
FF
F8
04
00
F8
06
04
00
FD
FE
07
03
FD
FE
FD
FE
0C
F8
00
03
03
05
03
0B
00
FF
FB
07
01
FA
02
01
03
FE
03
03
FE
FC
09
FE
F9
F6
FD
02
05
FF
08
F9
07
02
FE
FD
01
F2
01
01
06
FB
04
04
FB
01
FD
04
FC
05
FF
F7
02
F9
FE
05
FA
05
FD
FE
FC
F9
01
02
01
F7
07
FB
FA
F6
FD
FD
03
FF
00
FE
02
0D
03
01
FC
02
FC
00
07
FA
01
01
F3
FC
05
FE
FA
06
04
15
FA
FF
09
06
F8
FE
0A
10
00
FA
F9
02
0A
01
0B
03
01
FC
F9
04
06
01
04
01
F9
03
01
F2
03
F4
FC
02
00
03
FE
F9
F4
0A
0A
05
FF
06
EF
01
F2
F6
FA
08
02
0C
06
F8
F6
FB
F4
15
0B
03
0B
0B
FF
02
FD
FC
FC
10
00
01
F5
0E
F9
05
02
09
FF
01
FF
F6
FD
FA
07
FE
05
04
03
F4
0F
06
08
0B
FD
01
0A
02
F9
00
0B
FD
F7
EE
FE
FE
F1
08
F8
FC
05
FB
01
09
14
F5
03
05
06
F2
07
FC
01
03
03
01
FD
00
03
00
F5
0F
07
07
FC
06
FA
FC
09
04
01
FD
FD
05
00
01
F9
E7
F5
01
0C
F9
05
FF
03
FC
FF
03
0D
F6
F7
FD
F2
07
02
FF
F9
FA
03
06
06
06
F8
06
FD
FD
FE
05
01
0D
FD
FF
06
08
FC
F9
FC
04
FD
0E
04
FD
03
FD
03
F8
07
11
04
07
FF
FC
09
F7
07
0D
FC
FF
0E
FB
04
FD
0A
05
F9
06
FE
04
FC
0C
FA
FD
03
FE
04
F9
FC
09
02
FA
07
FE
FC
F7
05
FD
04
FF
04
03
FA
F7
FC
00
F6
0C
05
F7
00
07
00
F8
03
F9
07
FD
01
FA
FA
06
02
00
00
03
04
08
FB
FB
04
09
10
FF
05
FB
01
06
06
FD
03
04
09
04
01
0B
FE
FC
F9
02
0A
01
FD
FF
00
02
04
FA
0A
04
07
04
FB
FD
0F
FE
0A
06
02
03
0E
03
FD
F1
FA
FE
F4
0B
FF
FB
F7
F6
06
00
0B
F8
FB
00
02
EF
00
00
05
02
FA
05
06
FD
F7
FF
05
00
05
FE
01
FD
07
ED
05
F9
03
F7
FC
FE
07
00
FC
FE
FF
05
02
F7
F9
F8
01
08
F9
FE
04
FB
F9
F6
F5
02
F9
07
01
FE
F8
F9
FF
FF
FE
01
07
F6
01
09
02
F9
FD
01
FE
02
01
F7
05
FC
F6
FF
01
05
02
01
05
01
FD
FA
FD
FA
FC
FB
04
07
0D
FB
FD
F6
09
04
04
0D
F9
F7
F4
0A
09
02
04
0D
F8
F9
FC
FB
03
F5
FD
05
08
00
FE
08
F7
02
01
04
FB
FF
FE
FC
01
01
FF
F8
FF
05
F5
FE
0A
F8
06
FE
F4
FA
01
F6
04
02
04
F7
F9
FA
F8
FC
06
0A
03
00
F2
07
01
01
08
0A
05
05
F9
F4
02
01
FF
03
FE
FA
FC
F6
F6
06
02
F6
FF
02
FE
06
00
F0
FD
FD
02
F4
F8
05
FD
F8
02
FB
02
F6
FB
FC
F8
0C
F3
0D
01
03
00
F6
FD
0A
04
F8
F5
FC
FF
09
01
FD
0F
03
F9
08
FC
09
FC
01
FE
02
F9
07
03
0C
FA
01
F6
03
FE
02
FE
F9
03
03
06
01
FC
EF
0A
FE
07
FE
FD
06
01
FC
0F
FE
F7
FE
03
06
FF
F1
04
FC
00
01
FC
FA
FE
FF
02
FA
00
FE
FA
FD
03
08
01
FE
F1
FF
01
08
FE
F8
00
00
03
FD
EF
03
FA
00
FD
FB
01
FC
FB
F7
07
F6
03
11
FF
05
00
FF
F2
FD
07
FF
F6
FD
FF
07
FA
FF
00
03
FB
08
03
07
FC
FF
02
FA
F9
04
01
03
FF
0A
00
02
00
FC
FC
FE
08
01
06
00
02
F9
00
F9
05
FE
FC
03
FA
04
06
04
F5
07
00
03
05
F6
02
F7
FE
FF
F8
00
FE
FD
00
F4
00
F9
FB
00
07
FB
02
08
F3
06
04
00
FD
F4
08
FE
FB
FC
F6
00
06
FF
08
FD
FC
F6
00
02
0D
02
FD
00
F9
05
04
03
F7
06
05
FB
F1
FC
03
00
FB
04
04
FF
FC
F9
F5
FA
FC
F6
00
09
02
0A
03
01
00
03
07
FC
F4
02
06
03
FF
02
07
01
00
07
06
FA
FD
FB
FC
06
02
06
01
F8
00
03
03
03
04
02
FD
FB
01
05
F8
FA
04
06
FD
F9
F8
00
07
04
F4
01
00
00
0E
F7
03
FC
F7
08
FF
0A
FC
04
01
05
FC
07
F7
02
05
04
00
F8
04
FC
07
06
04
F9
F9
02
13
F6
F5
09
04
04
00
07
00
FE
FF
04
04
00
FC
FC
03
01
FC
FD
05
FB
FE
F2
F5
FC
FD
03
09
FD
F8
FB
ED
05
01
01
01
0A
01
0D
02
F7
FE
08
03
01
FC
06
01
01
02
F4
FC
FF
0B
FA
05
FB
0D
0A
FD
FC
0E
F7
05
06
08
FF
02
FB
FB
01
05
08
FC
FD
0D
03
05
FD
FB
07
03
FA
04
FF
05
FB
03
FC
09
FF
FF
F7
09
FA
FF
02
0B
02
01
FD
FB
FF
F8
FC
02
F6
FA
09
F8
FF
00
02
F7
F6
00
F9
F8
0A
00
FD
FA
07
FE
F3
05
F6
FD
FD
0A
F7
FB
0C
06
FC
07
01
02
04
F4
F9
F4
10
0A
02
FE
F9
01
03
FD
04
08
05
09
03
FF
10
F4
F9
FC
07
01
F8
F8
FD
01
FF
01
FA
09
05
0B
FD
FB
07
04
F6
09
05
FE
0A
08
01
FC
ED
F4
02
FD
0A
F8
FE
F7
F8
01
02
0B
F8
FA
F9
10
EE
FD
04
03
0C
FA
06
03
FD
00
FD
FC
F8
F6
FF
00
FD
FF
09
04
09
03
F8
01
07
05
05
F5
03
01
01
F9
01
FC
04
02
08
07
FD
04
FB
04
FD
FB
06
01
03
05
05
FF
02
00
06
FD
F9
03
00
02
F8
05
02
02
F8
FE
01
0A
04
EC
00
01
F9
0D
FB
02
F5
F8
05
FB
06
FC
FE
05
03
FF
0B
FB
00
06
FC
05
FA
00
02
04
05
01
FD
FE
06
0B
FF
F9
08
FD
00
03
08
FF
00
FD
00
F1
06
FC
F2
FC
F9
00
0C
06
09
02
09
FB
FE
05
F7
FD
FE
0B
FD
01
03
01
0B
02
FA
06
F2
01
04
FF
06
F3
09
FF
FB
FE
05
02
04
08
02
FF
FC
FC
02
F4
F7
FF
01
FE
F3
F8
FA
FC
FE
F8
FC
07
01
07
F8
FC
FF
F2
F9
07
04
FA
02
07
02
F8
FA
FE
FE
08
03
F8
FD
FB
05
06
08
06
F8
F7
FE
0D
FD
FB
06
FC
06
FD
07
FC
00
08
03
FB
F9
04
03
07
02
03
FA
FC
0A
F7
F5
F4
03
F6
0D
03
01
F4
F9
EE
0A
01
01
04
01
00
04
03
FB
F7
07
F3
FF
FE
07
03
FD
F9
F7
FE
FD
05
F9
02
F9
08
09
FC
FE
05
EE
0B
01
07
FE
FD
FD
FD
FC
FD
00
F6
02
02
02
00
F8
00
10
F8
F8
07
06
01
F8
06
F6
03
08
06
FA
09
02
F9
07
0E
01
FE
05
03
07
EF
FE
09
F9
F6
08
FB
F7
07
FB
01
FC
FA
FC
03
09
03
FF
FD
08
06
FF
08
F7
FD
04
04
FC
FE
08
03
FD
0B
05
03
FC
F6
00
02
01
09
02
FD
FB
05
03
FB
04
07
0B
FE
05
FF
0B
F2
FA
FD
04
FB
02
F8
F9
FE
02
05
F5
0A
FF
0C
FA
F9
FC
04
02
03
04
07
03
13
07
FB
F9
F2
03
F3
10
FE
FF
FA
FE
FC
F8
06
F9
F7
03
09
F1
00
03
0C
0C
FD
0D
0B
F6
FD
00
F8
05
08
F8
0C
05
03
01
07
02
00
04
FC
F9
09
FF
05
01
05
09
06
F8
FB
06
00
FC
FB
EE
04
10
05
FB
F1
FF
FE
05
04
01
06
FE
00
07
F1
0B
00
F2
09
FC
01
F4
F9
04
0B
08
F6
06
FF
05
00
FC
F9
FD
08
00
F6
F7
FE
FA
F9
F9
F8
FA
F9
F2
05
03
0A
F2
F8
0A
F2
06
FF
01
00
FE
FD
FD
FF
17
FF
01
0C
0C
03
01
05
03
06
06
FE
01
F9
F8
FC
F6
FF
FB
09
02
03
F8
F0
FD
02
FC
FD
FE
02
F9
F1
05
03
FF
05
07
02
08
02
F4
F7
02
FD
05
FE
02
FF
01
FC
F6
01
FA
0D
FD
06
FF
FC
09
FF
01
09
F5
F5
01
05
F6
FF
FB
F8
FF
0A
FF
F8
FD
05
04
04
FF
FE
06
08
01
01
04
FE
F9
02
02
09
F7
01
FD
07
FF
FF
02
07
04
10
F4
F7
FD
F3
FA
FC
FD
F7
06
01
00
07
FC
F9
FF
FD
FE
FC
01
F2
FA
F8
01
0A
FF
FF
FE
FD
FC
FF
01
06
02
08
FB
F6
08
02
06
F6
F9
FA
0D
10
04
FC
F6
FE
FF
01
05
00
02
00
FA
01
0B
FA
FF
01
0C
FC
05
01
01
09
03
00
00
02
0C
04
FF
00
02
02
01
04
0C
FE
0A
01
01
05
03
FE
06
01
0A
FE
FE
07
FB
03
02
06
FC
01
FD
05
F7
FD
02
01
FF
FD
FB
00
FD
FC
FF
09
08
F7
F7
FE
FA
F4
02
0E
F8
08
FF
FC
F6
08
F9
00
00
07
00
FA
FD
FC
F7
03
03
00
08
01
F5
FE
01
09
FC
03
04
00
07
03
FB
03
03
0B
0B
01
04
05
FC
FF
FC
08
FF
FB
07
03
01
FF
00
FD
FB
05
08
07
04
0D
FF
02
FE
FB
F5
01
02
FC
EC
FE
FD
F7
F8
03
FE
F3
FB
FD
FE
05
01
FF
FF
06
FF
F8
FC
09
04
FD
01
07
03
00
02
01
F8
F6
0B
07
08
F9
0A
F3
02
F7
F2
FD
0C
FC
11
06
FB
EF
F9
EE
13
08
06
03
09
03
0B
02
FC
04
0D
06
FF
FD
0D
FB
04
04
04
F8
02
04
F3
FF
FD
0E
00
00
04
0A
F5
0F
05
0C
0E
F9
00
07
02
FE
04
05
F6
FE
FB
00
00
F8
07
FE
FE
06
01
00
05
0C
FB
05
FD
05
F1
0A
FD
03
03
07
05
F7
FB
06
03
F4
04
07
03
FC
04
F0
F9
07
01
0B
FE
FC
02
02
0B
06
F6
FF
07
0E
01
03
FA
06
02
01
00
0A
FF
F7
00
01
00
00
FF
FA
04
0E
FA
04
00
FF
01
03
00
01
05
03
09
FE
09
FC
07
FA
FB
FC
02
FF
0B
FC
F8
F8
01
08
F6
0B
04
03
03
FA
FA
08
FE
05
00
07
FA
17
07
FD
F8
FE
04
ED
0D
FC
05
F6
06
F6
F9
06
FC
F7
00
F7
FB
0A
FE
0B
01
FB
02
0B
F6
FF
FE
F2
FF
FE
00
F7
FB
09
0A
01
0A
03
0F
FB
00
FB
00
F8
08
05
FF
06
01
01
06
FB
F6
0F
F5
07
01
08
FD
FA
FF
09
FB
FB
FA
03
06
01
FE
F8
FE
01
02
F5
F5
00
00
FF
FD
F6
FB
F9
FA
FF
05
01
FE
02
F2
FD
FC
F8
07
FE
06
05
FF
01
05
F1
0C
F4
FF
FF
0C
FD
F6
01
01
05
11
04
FD
FA
01
02
F7
03
03
05
00
FB
0B
00
F7
04
01
03
F8
F7
03
FD
F8
FA
00
00
02
06
F8
05
03
FE
00
F5
04
05
01
FB
FF
FE
F8
01
05
02
0C
FC
F6
FB
FC
07
02
FF
F9
05
FA
FB
01
FD
FD
09
00
FE
09
02
01
07
08
FF
02
F5
00
0A
FE
F0
07
F3
FA
0B
FB
FD
04
FF
0F
F6
03
06
FF
FE
05
05
0B
F7
FF
FF
04
06
F9
04
01
FF
05
01
FF
FF
FE
0E
F9
F6
01
FF
F7
FF
FD
FD
FE
01
03
F6
01
05
01
04
F9
0D
F9
04
07
00
05
F0
FF
06
FF
01
04
00
0C
04
FF
07
00
03
03
FB
EF
07
0A
02
F8
F3
FF
F9
03
FA
FA
09
02
FE
F9
EF
04
FE
F0
06
03
04
F6
F9
00
02
07
F4
05
07
07
F6
FF
F9
F7
0C
FD
F2
04
F4
F8
F7
FD
F2
F6
F6
02
FE
06
09
FC
FE
04
01
FF
04
FE
F8
01
00
05
07
0C
FD
FF
10
0F
02
00
03
05
05
FC
02
FA
04
03
FD
01
03
08
03
07
01
FF
0A
0A
FE
FF
FE
03
00
FD
00
03
F9
07
05
00
01
FF
FE
04
0B
F9
FF
04
03
00
05
03
FE
02
FF
04
01
01
FC
04
FB
FD
FF
06
FF
01
FA
F8
00
01
FC
FC
05
FD
07
FD
FB
F8
FE
04
01
02
09
FE
0E
0A
00
08
FA
01
FA
09
01
FE
FF
06
FC
FF
04
FD
FB
04
FE
F7
05
00
FD
FC
FF
07
02
F9
FE
01
0A
00
02
04
03
05
01
ED
FF
F2
FD
F0
FE
FE
03
08
02
FC
F8
01
FD
FA
F5
F8
FD
09
FA
08
03
F7
FC
F9
FB
00
F9
0E
02
FE
F7
FB
FC
03
04
00
0A
F7
09
0A
FF
F8
03
05
09
03
06
F8
04
FC
F9
00
FE
0D
00
FF
0D
FC
FE
FA
FE
FA
FE
F9
09
02
11
FB
FF
F3
0A
05
02
0A
F9
F6
F5
0B
0F
FF
F9
10
FF
F6
F7
F8
04
F2
FE
08
03
04
03
FE
0A
FD
08
02
07
F5
F4
FD
F2
FF
FE
FF
01
FF
0D
F9
F7
04
00
04
0A
00
01
08
F5
FB
F8
02
F6
0F
FD
03
F5
03
FA
02
00
01
01
FF
FA
F8
FE
F7
00
09
FD
FC
FA
FC
10
05
01
06
0F
F8
07
0D
F6
02
02
04
00
F6
05
FA
F7
0F
FB
F1
08
F9
09
03
07
F9
FF
10
06
FA
05
F3
FA
03
09
FD
FE
09
04
FF
01
09
05
F4
FD
08
FE
00
07
05
07
00
F8
FC
08
F2
FC
F1
FC
04
03
FF
06
F7
04
FE
FD
02
0C
FA
FE
FA
FF
03
FC
FB
FC
FB
FC
00
02
05
F8
01
F7
FC
FA
03
05
02
FE
FD
03
FF
F5
06
FF
FE
FC
04
FB
F9
FB
F4
14
F4
01
0C
FD
06
FE
01
0A
FA
06
FF
FE
FD
07
FA
03
01
0E
FF
F5
04
04
03
09
0A
F8
F2
F8
05
07
02
FC
01
02
F7
FF
FF
FD
F8
FE
FE
07
02
FF
00
00
F7
00
FA
FE
FF
0C
FA
07
FB
F9
F4
04
FC
03
04
05
05
FB
F8
FA
FD
00
07
FE
07
FF
FE
02
FB
00
00
F9
02
02
F6
03
FB
FC
02
04
09
FD
FD
0E
02
04
FB
02
04
FC
0A
03
FB
FD
06
F1
FC
09
00
02
05
07
0A
F7
FB
FD
F9
00
F9
FC
FD
FE
FF
02
01
04
01
F5
04
FE
FC
00
02
01
FD
0B
0A
F7
FD
0E
02
FF
FA
00
04
05
01
00
0D
F5
F6
FA
00
F8
FE
09
FA
05
06
FB
F1
00
FD
F7
00
0A
F5
FD
FA
F8
F9
FB
F6
0A
03
03
F0
F5
03
FD
FD
0C
FF
03
03
F9
F9
06
01
0E
06
09
09
F9
F7
F9
FE
07
F8
F9
FF
00
F4
FC
FE
00
FC
07
04
F7
07
0D
F8
08
02
01
FA
FF
02
FA
F0
01
F3
F8
F9
FF
FB
F6
03
FF
0D
00
02
05
F8
02
02
FD
FE
F9
FA
FD
02
02
02
08
05
01
09
FD
05
FE
FD
FA
00
FD
F6
02
07
FE
FA
01
FE
05
FE
00
01
09
FE
01
FA
FE
FB
FE
02
03
FA
FE
03
05
FC
01
05
F4
FD
03
0A
01
F5
05
02
FC
02
02
FE
05
FE
01
05
FD
02
F8
FC
07
07
FD
06
F4
08
0A
06
02
F4
FD
FE
F9
F3
F7
FC
FE
F4
05
04
01
FC
FB
FC
FC
00
FA
02
01
05
01
FE
FA
05
04
F5
03
05
FA
FF
00
01
06
00
08
0B
F6
05
FD
FE
FB
F9
FE
EE
01
FD
FE
FB
0A
00
FB
FB
02
FE
07
FF
FB
F3
03
02
FF
04
02
EF
FA
FD
04
FE
FE
0E
F6
05
FA
09
03
FF
09
05
06
04
FD
FA
01
FC
03
06
FD
FE
FF
FA
08
FE
02
04
FA
0E
0C
01
08
EB
01
FD
F7
ED
FE
02
00
F0
0A
00
FB
F7
03
FD
FD
07
F2
FC
FF
08
05
FE
FB
07
03
EF
FC
05
FB
04
05
01
0B
FF
0A
02
F3
08
FA
03
F6
04
FD
F9
03
FC
04
06
00
03
FF
FF
FA
F9
F8
06
04
FE
01
02
07
0C
03
F2
03
06
11
00
07
05
FB
07
02
FF
FE
FE
0B
F9
03
08
01
FE
00
00
0D
FE
FC
FF
08
03
03
FD
05
03
02
0A
05
FB
0C
FC
03
05
01
FB
02
07
00
FE
01
FF
F8
00
09
F5
06
F5
02
FF
01
04
02
04
F8
F3
03
FB
F7
FA
FF
05
01
FF
F6
01
04
FC
01
12
FF
FD
03
F8
F4
06
02
03
05
09
FE
FF
FD
00
FD
04
0A
07
0A
F6
0A
FF
F5
03
FC
FF
FE
F7
0B
FB
FE
04
F4
FC
01
10
FE
F1
FF
03
F9
01
FF
04
09
03
FA
08
FA
00
FA
03
09
09
FA
FC
F3
00
0C
04
F8
FC
F7
F8
02
F5
F3
03
02
01
FC
0B
FD
03
01
FC
0A
FA
F6
FC
FC
05
FA
04
FA
FC
07
F7
02
04
FD
06
05
FB
00
01
FF
FD
FF
07
06
0C
FC
09
F9
01
F5
F9
FB
06
F8
0C
0D
FB
F0
F6
F1
0F
04
09
03
04
04
08
00
03
06
0D
04
FE
FC
09
00
02
05
FE
F9
03
04
F7
FD
FF
0A
01
FB
00
0B
FA
0F
00
06
07
02
FD
0A
04
FC
05
FF
F9
03
F8
05
FF
FD
0B
05
FE
04
FF
00
02
06
01
01
02
00
F4
0A
FD
05
FF
06
02
F4
FB
0A
03
F4
03
05
02
FD
03
F2
01
F8
02
09
FD
FD
02
01
0D
04
09
07
0A
0B
10
02
F7
05
FD
05
05
0D
FD
03
0E
01
F7
FE
F4
02
11
0C
FD
F9
08
06
F8
FC
06
0A
04
05
00
F9
FC
F6
03
F5
FD
FF
05
FB
01
FA
F6
F8
09
00
FF
0A
07
FC
FF
02
FA
F4
FF
07
03
02
FD
09
07
00
03
03
04
FC
06
F8
02
02
06
01
FD
05
F7
F3
06
FE
FA
06
02
FF
FD
FD
05
00
FB
01
FD
FB
FB
06
09
FF
09
06
02
F5
08
F8
02
01
0B
F5
0C
02
03
F3
FC
FC
06
03
0A
F9
FA
07
FC
06
07
06
03
FB
00
06
02
01
02
01
FF
FB
01
F9
F3
04
FD
01
00
FA
00
03
F9
0C
F9
02
03
03
FF
07
01
FA
FD
F9
FA
FD
02
05
03
05
0B
01
02
04
0F
02
FD
01
03
01
02
08
FB
09
07
FC
01
09
01
F0
00
0A
08
F4
F7
07
00
F9
FE
F7
04
FA
07
F9
F7
FC
FE
FB
03
0A
F8
00
FA
F0
F6
FD
02
04
FC
00
F5
F2
02
F6
03
FE
02
08
0A
06
F4
01
02
F9
01
00
0A
01
FD
FD
F8
FF
FE
0E
FE
07
02
05
FF
F9
FC
10
F6
FD
FF
03
F3
FC
FC
FC
FF
08
03
F6
FD
0B
FC
05
FE
FC
00
0C
FD
FD
FD
00
F7
03
FF
03
FA
F5
03
06
07
01
04
0B
FE
04
FE
FF
FD
F2
FA
FB
FE
F8
06
04
00
00
09
F9
05
00
03
02
F8
FE
F3
FC
F9
FB
FB
07
08
F9
FC
00
FC
06
00
F3
FC
FF
FF
01
FE
06
F5
FE
F7
F4
FF
FC
15
FB
FF
F4
0A
00
02
02
04
08
FD
FD
F9
02
FC
00
05
02
FB
FD
F4
FE
FF
02
FF
FB
08
07
FC
01
EA
FF
FC
F7
F1
FD
00
FE
FB
0B
00
05
F5
00
00
FD
10
F2
05
FC
09
07
FC
F8
13
05
F2
F5
03
FF
05
00
03
0F
02
FA
0B
06
FA
FB
FC
08
FA
04
04
04
06
FF
07
07
F3
03
FB
08
FF
0B
00
FF
05
08
FB
FB
F4
02
05
FF
FE
F2
09
FE
01
F6
08
FC
04
0A
FB
01
FA
FE
FD
ED
02
01
FF
FA
F9
F4
F3
F6
FB
09
F6
06
07
FC
02
FF
FF
F8
F0
0C
FD
FA
F9
05
05
00
FA
09
FF
01
FE
FC
00
08
0A
FC
FA
FB
00
FB
04
01
00
01
FA
F6
02
FE
03
F9
00
08
FF
06
05
05
02
FE
FF
FE
F1
FC
F5
02
00
09
FC
FE
FE
FD
FF
05
06
11
F4
F7
F5
F8
FC
F8
FF
FE
FC
F7
FB
FE
FE
01
FF
00
FC
F9
01
00
FC
02
06
01
02
FD
02
01
00
F9
0B
FC
FD
FF
F8
03
00
FA
05
FA
07
02
08
03
FF
FE
02
02
FA
F6
FD
08
02
0A
FE
FA
FB
FE
04
05
0D
F2
02
FA
05
06
F8
FD
0C
00
F9
01
F6
FE
F6
01
01
0B
06
FB
0A
FC
F2
FE
01
FA
05
12
F6
03
FD
F1
F4
02
FB
0E
FB
02
FD
F6
FD
FA
09
FB
01
02
09
08
00
0C
00
00
01
FD
05
00
00
0B
F5
FE
00
0A
01
05
FC
0A
01
F9
F9
10
FF
FE
03
FD
F9
01
FF
FC
03
05
05
FD
FB
0B
FE
09
FF
FA
00
10
FD
FB
F8
05
FE
04
04
00
FB
F2
00
09
01
07
FC
03
01
03
FD
FC
FD
00
FB
F8
FB
FD
08
00
04
FB
00
02
F9
04
FE
03
FD
09
02
FD
F6
ED
FE
01
02
0C
FD
F9
F9
EB
07
FE
07
06
08
00
07
04
FD
FF
05
F5
02
F9
0A
01
02
00
F4
FF
00
08
F9
04
F6
09
0A
FA
FB
0C
F1
04
03
03
FA
03
F9
FC
FE
05
02
F9
FB
05
00
05
F7
FA
0A
0A
F7
01
FF
04
FA
06
FE
04
02
FC
FD
0B
FA
FE
04
0A
05
06
FE
FD
03
F4
00
02
FA
F6
0A
FB
FC
FC
06
08
F6
00
FF
01
07
0E
01
06
0C
00
F8
06
F7
02
05
09
06
08
F6
FB
01
00
FB
01
F3
FF
0B
09
FA
FC
FE
02
FB
04
FF
07
FB
05
09
F5
0C
FE
FF
00
FA
00
F8
FA
06
FE
05
F5
03
04
FF
05
FC
02
FB
FF
00
01
01
00
FE
03
FA
07
01
F4
F5
FC
FE
FA
02
FB
05
F1
04
FE
FE
04
FC
F8
FD
01
07
00
03
15
0A
FE
05
08
FB
05
00
FA
FA
F5
07
FB
FD
FE
08
F9
0B
01
06
FF
04
F9
03
F6
05
00
FD
FF
07
0A
FE
FB
FC
0B
02
02
FC
FE
06
0B
FE
0A
F6
FB
00
05
04
FE
F9
00
FB
01
08
FB
F9
01
08
02
FD
FA
00
03
03
FB
07
FF
FE
01
F7
02
FF
FA
0A
FC
09
04
08
F8
06
FA
0B
F2
01
01
0B
00
F5
09
F3
09
0F
04
FC
FC
02
05
F1
FF
06
02
00
FF
08
FE
FB
F6
F8
01
F9
0F
FC
FA
02
0D
F9
02
04
FD
06
06
04
FC
FF
FC
07
FD
03
04
FA
FC
05
FA
FE
03
F5
00
09
07
F6
F9
02
05
F5
0A
FF
FA
F7
01
06
F2
FD
08
FE
F5
03
F8
FE
F8
01
00
F8
FD
FA
06
F4
02
FE
08
F8
EE
FB
02
11
03
06
11
0E
0D
01
FE
13
FD
FB
F4
0E
02
05
08
09
04
01
FA
01
02
04
FE
FE
03
09
05
F8
02
FF
02
FA
FF
00
0C
F4
F2
04
FF
FE
F7
03
F7
07
04
F5
11
10
09
FF
F8
FC
00
04
FE
04
0C
FC
06
0C
FB
06
FA
FB
FB
05
11
08
FF
FB
FF
0C
02
04
02
01
05
F5
FC
06
FE
03
07
0D
FE
FE
FC
02
12
11
F5
FE
02
01
07
04
0B
FD
FA
06
00
08
FC
01
FD
0A
0B
05
00
05
01
FC
0A
FC
0D
F7
01
F6
00
FC
FA
07
0A
F4
F7
03
FC
FE
04
00
FE
00
F6
00
01
04
04
FD
F9
F9
09
EC
06
FF
05
01
FA
FE
04
FC
F5
03
05
04
08
F5
FA
F5
FE
FE
FE
F8
05
F8
F5
F3
F5
00
02
FF
FE
FC
F7
F8
04
FC
FF
02
08
FB
F6
07
FE
FA
FC
FE
F5
FD
FC
F1
06
FC
F5
FD
02
FE
FD
04
03
05
FE
FE
02
FB
F9
FE
FE
07
05
F6
F8
FA
07
00
06
0F
F9
FF
F3
0A
07
FF
05
09
F6
FA
FF
FA
FF
FC
FD
03
0C
FD
04
F5
F4
05
FD
05
FD
07
F6
FD
FA
F8
09
07
01
09
F6
01
FB
03
00
02
01
01
F5
09
07
06
00
F8
04
03
0B
04
01
00
01
00
01
06
FC
08
FC
F8
06
08
01
F8
03
0A
00
06
04
00
0E
07
F3
02
02
02
0C
FE
02
F6
00
06
FE
0D
00
05
05
04
03
10
FD
04
04
07
05
F9
07
FF
03
06
05
FD
03
00
02
FC
FC
03
FF
FA
02
00
FF
FB
F8
00
FF
00
F7
03
04
FE
FA
0C
FC
07
00
FF
04
03
04
01
FA
FD
08
FD
02
0B
03
FF
0B
FD
FF
FF
FD
00
FC
03
02
02
FF
04
FF
05
FF
0D
02
00
04
03
F8
05
FD
F6
06
08
FB
FE
FC
FD
01
08
F4
05
07
FC
FF
00
0A
01
F3
F4
FD
FE
F8
FA
FC
06
FF
F7
FA
09
06
FD
FA
FE
FB
FD
FA
01
09
FD
F6
00
05
FC
01
FE
FC
09
FF
0D
02
FC
02
03
FF
06
FB
F8
FD
00
FC
00
0E
F3
00
F5
F2
F6
01
01
08
FB
FF
F9
F3
FF
F5
06
FC
06
04
0D
06
F8
07
FF
FC
02
FD
0A
03
FE
00
F5
FC
01
0B
FE
08
FE
09
03
F9
FD
10
FC
FE
FF
03
F5
FD
FB
FA
01
09
07
F7
F8
0F
00
07
FE
FE
02
10
FD
FF
02
06
FC
02
03
04
FA
F7
06
05
01
03
03
0A
00
02
FF
FD
FB
F8
F5
FC
F9
FC
07
02
FF
FE
FF
0D
FC
04
03
09
FB
05
FE
F4
FB
F6
00
FF
00
0F
FC
F6
FC
F4
09
01
06
05
07
FC
03
01
04
02
06
F5
03
F6
07
01
03
FF
F6
00
04
FE
F9
03
F5
04
0A
F8
FC
04
F9
09
FF
FF
FC
0C
F2
04
06
FF
02
F7
FA
08
FD
0A
FA
00
0F
10
F8
03
02
08
FF
01
04
03
09
00
00
05
F4
FD
04
09
04
FD
FF
04
01
F6
01
01
F8
FD
05
FB
FF
F8
04
09
FF
03
05
FF
06
FF
0B
05
14
0A
00
F7
FD
01
04
09
04
10
F6
01
07
FA
EB
FE
F7
FF
13
03
FD
FD
FB
0C
F0
04
FE
07
02
01
FD
F5
07
F8
02
FB
FA
FF
02
F6
08
03
FE
F3
05
01
0B
04
FE
F4
FB
FF
0A
F4
02
00
02
09
FF
F7
03
FB
FE
FC
00
00
03
F0
06
FD
01
FF
0A
04
FB
F5
FA
F5
03
09
04
0A
00
01
04
02
F7
03
01
F5
FF
00
01
01
01
09
03
00
05
F7
FB
ED
FE
FC
0A
04
00
F9
F6
F4
0F
FD
09
05
01
07
FF
05
FE
04
03
F2
02
FB
0D
FF
FD
FC
00
FD
01
FF
FA
05
F8
02
FE
FC
FC
08
F3
05
FB
FE
F9
01
FB
05
FE
00
FB
F7
F7
FE
F7
02
F9
FC
07
09
FD
FA
05
FE
FF
08
02
01
FF
FD
01
07
02
FD
04
07
02
FE
FF
04
02
F3
06
01
07
F9
03
00
02
FD
05
06
F9
FA
FE
06
01
0E
FA
05
03
00
01
04
F9
04
FD
04
02
06
FB
F8
09
FF
00
00
FD
04
05
0E
F5
F8
05
FE
02
FE
00
02
FE
03
01
00
02
00
FF
FB
00
FD
FE
02
08
F6
F9
F7
F9
03
FB
00
02
04
01
FB
F8
01
FF
06
00
03
FB
13
04
FC
01
05
01
FC
0B
FF
FE
F9
0D
FE
FD
04
FD
FA
04
00
FD
00
F9
00
FA
F9
00
00
FE
06
00
01
08
F5
06
00
05
FF
FA
FD
F3
FC
F8
F7
FA
05
0A
FA
FA
01
FA
02
01
F1
FB
00
FF
04
01
08
F2
FF
F6
F6
FC
FD
15
FC
FF
F5
0A
FF
02
05
07
0A
FC
00
F5
02
FB
02
06
02
FD
FD
F4
FA
04
01
FB
FC
09
07
FC
01
E8
FD
FB
F9
ED
FB
03
FC
F8
0A
FF
08
F3
01
FD
FA
10
F2
07
FE
09
07
FC
F7
12
06
F1
F3
04
FD
09
01
02
10
FF
FB
FF
FD
05
FD
FD
00
0C
FE
FE
01
FE
02
00
FC
FD
03
03
04
01
04
01
F8
00
03
00
02
09
FF
02
08
F9
01
FF
FB
02
FD
F3
FD
0F
F9
FF
04
06
F7
06
06
FA
0C
07
FE
0B
F7
FE
FF
FB
F9
09
F9
FD
03
FA
01
00
FA
01
F4
FF
03
F6
08
01
FC
05
F8
07
04
0A
FC
F8
FA
07
F9
03
06
00
F9
FD
02
FC
02
F8
03
00
FB
07
FE
F6
07
FF
FD
FD
02
07
FD
FF
FF
0C
FE
0C
05
0E
0A
04
FB
FB
FD
05
06
01
08
03
06
03
03
F6
01
FE
FC
09
08
FE
0A
FD
08
F5
00
FE
05
0A
FF
FB
FD
04
F5
08
FB
F8
03
08
FB
06
F9
FD
F8
07
00
08
02
FB
FB
F8
02
02
F6
05
FD
03
09
FE
00
09
F9
02
F1
05
FA
0D
F8
FA
00
FA
00
07
09
FA
F1
02
FE
F3
06
02
09
02
FC
0E
04
F4
FD
00
0E
FC
F7
08
04
05
F2
FE
FD
FC
06
F8
0B
FE
FE
04
FD
04
FF
03
FC
FA
FD
F6
01
03
FC
0F
FE
FC
01
FB
13
FB
03
00
07
01
01
FE
FA
01
07
06
FF
03
10
02
05
FF
02
0D
03
0A
0A
07
FA
09
F8
F8
FF
09
09
07
0A
08
F8
01
04
F5
F6
02
06
FB
FF
01
FC
F8
08
FC
FE
F9
FA
FC
03
00
FD
FF
FA
01
FE
FB
03
FB
03
FF
07
FF
FA
FE
03
09
FD
FD
F7
04
00
F7
02
EF
FF
00
01
F8
00
03
FA
FD
02
F9
06
F7
F1
FB
F6
FB
07
02
03
F3
FE
FC
FB
00
06
05
02
00
F4
FC
03
05
07
01
0E
05
F7
FA
F8
FC
05
03
FF
F6
01
EF
03
FA
01
04
04
08
F6
01
0F
F6
08
04
04
FA
06
03
FF
FF
0B
F5
F8
FD
02
FD
FE
0F
F9
08
FC
06
0C
FA
F8
09
02
F9
F4
F5
FC
FD
00
00
09
00
FB
FA
FB
FC
FA
FB
01
07
FC
09
02
08
07
03
00
F8
F9
00
08
01
08
02
0A
02
FC
00
04
FB
FB
03
FE
06
06
06
03
EE
FD
02
05
04
03
FE
FC
FC
FC
08
F3
FC
02
0B
FA
FF
F6
FC
01
04
FC
01
02
04
06
F5
FE
01
F6
08
02
0B
03
0A
00
05
FE
09
F7
04
02
0E
FC
FB
08
FB
07
06
06
F7
F6
01
0D
F0
FA
09
04
00
FC
05
00
FB
FD
02
00
00
FA
FF
08
07
F9
0C
FD
F8
F4
F6
FA
F9
FF
0A
0A
FB
F8
FB
F3
09
FC
04
FE
06
04
09
00
FC
03
0C
01
FF
F9
0F
02
FE
03
01
FA
07
05
FE
FF
00
10
FC
01
00
09
FF
0F
06
08
04
F9
02
06
03
01
06
02
FD
05
F5
00
FF
F7
02
03
F8
03
F4
02
02
0B
F9
FE
01
F4
FA
04
01
08
00
07
FB
FC
06
05
00
FD
07
02
FE
00
04
FA
01
04
F8
FE
01
04
FF
FD
FA
FD
06
FB
EF
FA
07
F8
09
00
00
F7
FC
EE
06
03
FE
05
09
FF
0C
FE
F7
F5
08
FE
03
FF
02
07
01
F8
F4
FF
FE
0B
F6
03
00
06
0D
FD
03
06
EF
04
02
0F
FF
FB
FB
F9
FE
06
04
F6
02
07
09
02
FE
01
10
FD
FC
0F
09
02
F7
02
FB
09
04
08
FB
08
FC
FB
05
0D
01
06
FC
FC
06
EE
F6
07
F4
F5
08
F8
02
F2
08
FC
F9
01
F8
04
08
03
04
FD
03
F4
FF
09
F9
02
FA
06
FB
FF
08
02
09
0A
00
01
F3
01
01
FC
07
F1
07
FC
0A
F7
07
FF
07
08
00
01
FA
FC
FB
F6
F8
03
FE
FF
F1
FA
FC
FB
FF
FC
FD
09
03
01
FC
04
FC
F1
EC
05
FC
EF
FF
05
FD
FA
F4
03
02
0D
FC
F9
01
FA
03
02
FF
03
FD
FC
01
0A
02
FD
FF
F8
0C
FE
0A
FB
05
06
00
03
FE
FF
02
07
07
FB
02
F2
F1
F7
00
0D
FB
FB
08
02
FB
FE
04
0D
F8
F8
FC
EE
00
01
04
FB
FF
FC
09
05
00
FB
04
01
FA
FE
08
FC
05
FD
02
00
07
03
F9
FE
08
FC
0E
0B
FF
07
02
F6
05
03
0A
FE
06
01
05
00
FC
00
0C
FC
02
FC
FA
09
01
05
06
03
00
F8
05
FE
06
FB
0A
06
FE
05
F5
FC
0D
03
00
02
FB
00
F5
03
00
03
FE
FC
F8
FD
FB
00
FB
06
0B
FA
05
F6
04
F9
FB
01
FC
01
01
02
FC
F7
0F
0D
04
06
06
06
FD
F8
03
FC
0D
04
02
F9
F9
01
01
01
02
02
06
FB
FC
00
04
F9
FC
FE
05
FE
FB
FE
FF
00
02
03
FA
0A
05
09
F3
FB
FE
FA
FE
06
06
FF
11
0A
00
FA
01
F3
05
06
0D
FD
FE
FF
F4
09
00
07
F7
FB
01
0B
F0
FF
08
05
0D
FD
0A
00
FB
F9
04
04
04
05
FD
00
FB
FD
FD
F6
F4
FC
08
08
F8
FC
FB
05
FD
03
05
0F
F9
02
F9
F3
FF
FA
02
F8
FF
F8
0B
0A
00
FB
F8
FA
F9
03
06
00
FC
00
03
FC
07
FD
00
FF
06
FA
09
FF
01
FE
FF
05
04
FE
0C
F8
02
02
0A
03
FE
03
07
FD
01
FA
F8
06
F9
03
04
FE
07
F6
03
00
02
FD
03
06
FF
02
F7
01
04
02
FF
0A
FE
FA
F3
02
01
04
04
03
00
F5
FB
01
00
F5
03
09
FB
06
F4
F7
FB
FE
04
02
01
FF
FE
F0
FE
FA
00
FD
06
04
10
04
F6
03
00
07
01
02
03
06
FF
04
F5
FB
FF
0E
FC
06
01
0D
04
FF
00
0D
FC
FD
06
0B
FC
F6
02
F6
FB
09
05
FC
FE
0C
0B
FE
01
00
FF
04
00
02
02
FF
F9
01
FD
09
F8
FB
FB
09
02
02
00
07
00
06
FD
F7
FF
FA
F5
00
F9
FB
08
FA
02
FA
06
0C
F8
F9
FF
0A
FB
07
F5
02
08
FE
FB
02
F7
08
01
02
0A
11
F3
FA
03
F5
FF
FD
F7
05
09
0A
F8
F8
01
FE
FB
FA
F6
06
00
00
02
F6
03
FE
FC
01
02
FF
FB
FB
0B
FC
00
F5
F8
0A
01
FB
07
FD
FF
FE
FF
01
03
01
01
FF
FB
07
FA
FC
05
08
03
01
08
FB
05
FD
0D
FE
FE
00
01
FE
FE
00
0B
FE
FA
0E
FD
F9
F8
00
FF
0A
02
FD
00
01
01
02
00
FD
03
FC
FC
03
03
07
F8
F9
FF
00
04
07
09
0C
F4
F9
FC
F6
FC
FC
06
FC
08
02
FB
04
FD
FB
F8
02
F1
01
07
F9
FF
FD
09
F8
04
0A
FE
0A
07
F9
10
FF
04
FF
FF
F7
10
F5
FE
FD
FC
04
0A
FA
08
F3
02
03
FA
F6
FC
02
04
FB
05
06
04
F9
FE
FC
07
F9
06
06
FF
FC
F6
02
09
FF
FE
0D
FC
FF
F9
01
FD
07
FC
05
F8
03
FF
02
00
FB
01
04
05
06
F9
0E
08
FE
04
FC
06
00
05
FD
F8
F9
FE
FE
01
FE
05
FC
01
01
F7
00
02
02
FB
0F
FD
FC
FA
FE
06
01
02
FB
03
05
01
03
03
FD
03
00
02
0A
03
F2
00
F9
F8
09
01
FA
03
01
12
FA
02
08
00
00
02
07
08
FC
FC
F9
FE
03
05
FE
04
FD
00
00
01
FE
00
04
05
FC
07
05
F6
06
F9
01
FE
FE
04
F9
04
02
00
FE
FA
03
FF
00
08
04
01
01
10
09
F7
05
F8
02
03
09
04
0C
07
09
FE
F8
F3
02
07
FF
04
FA
0A
FC
FF
F2
0C
08
06
07
F7
01
F3
FA
FB
F4
03
03
02
FD
F4
F9
F9
FA
06
05
FA
08
0A
F7
02
09
FC
F2
F3
07
FD
F5
FE
FE
04
04
FC
09
04
05
FD
FE
02
0C
02
01
F6
FF
00
F8
08
03
FE
FE
FD
F8
04
01
04
F8
03
01
FB
03
F4
10
06
0D
09
0A
F8
F8
08
F7
F9
03
03
FC
08
07
04
F7
02
F9
05
03
03
08
03
F5
FE
FB
0F
FE
FB
F9
FF
FB
FF
0A
FF
F9
FC
FD
05
F4
FF
01
F5
06
0D
00
FC
F7
02
10
05
FF
06
07
FC
FE
FA
FC
FE
FA
03
FC
03
FD
F7
06
0D
FF
FC
08
09
00
01
06
FF
01
0D
06
FC
01
F5
F6
03
03
04
F8
05
06
06
00
02
0A
FC
03
00
F8
FF
0D
03
03
00
02
FD
F7
FD
01
00
07
07
0D
FD
00
F6
00
01
07
01
07
FC
02
F6
08
FB
F4
05
F5
02
FA
FF
0D
FB
04
F5
04
05
FF
01
04
FB
08
0D
F7
0B
FC
03
01
03
FB
05
FA
00
FB
07
07
FF
00
FE
FD
05
01
0C
06
00
02
FD
06
FA
FD
03
04
F2
FB
00
F0
01
FE
05
FB
FB
F5
F8
04
00
F7
FC
00
F9
01
FF
0A
02
FD
00
08
FC
FE
00
03
06
00
FC
07
05
FD
FA
05
F8
07
00
03
F5
08
00
FF
01
09
0E
09
EE
F7
FD
FB
FF
F9
FA
03
08
05
F5
00
FA
FD
01
05
01
05
FC
FC
05
F7
0E
02
F8
0D
FF
03
F7
FA
13
07
0C
FB
03
FC
0A
F8
FA
FB
05
0C
05
00
FF
F9
00
00
F1
F6
FD
FC
F8
08
01
05
F3
00
04
F8
08
F8
00
02
01
FC
FB
FD
15
FD
FB
0F
02
01
FE
08
01
06
02
06
FF
03
02
07
07
00
F1
FC
F7
F8
F3
FB
FE
FC
0A
0A
FD
F4
00
F6
00
FC
FD
FD
08
FA
08
02
FC
FD
05
FC
FE
FA
0B
04
FF
FE
F7
F9
02
04
FD
05
F6
0F
0D
FE
F9
06
00
11
05
08
FF
05
FE
FB
02
FB
0A
FE
00
0D
00
00
FB
FD
05
FB
F4
0A
00
0D
FC
02
F5
07
09
02
FE
01
F8
F8
07
11
00
F7
0D
02
FF
F8
FA
06
F1
FD
0A
FC
FF
F8
05
07
02
FE
02
04
01
02
03
03
05
05
0B
03
FF
FF
01
02
01
09
FB
FB
08
FF
F9
02
F2
06
06
06
FB
F1
06
04
03
FD
05
FF
05
03
01
FB
F9
00
FE
F9
FA
FF
00
FE
FB
FE
F6
FB
FF
FF
FC
09
04
FC
00
00
FA
F7
F8
06
00
FC
F8
01
03
00
04
09
FC
FE
FA
FC
03
04
0A
FC
02
FC
02
FF
02
F7
08
07
01
F7
FE
03
05
FC
FE
08
03
FE
09
FB
03
F9
FD
FD
F4
FF
01
08
07
00
FF
FD
FE
F4
FD
07
FB
09
F8
FF
F7
FF
F5
04
FD
01
F4
F2
02
FC
FE
0C
FE
FB
03
F7
02
07
F7
09
FF
04
06
F4
FD
00
FF
FD
F7
F7
FA
FD
F5
03
00
FC
FE
F9
03
FF
0C
03
F9
02
FF
01
FA
EE
02
00
FD
05
F7
F9
F6
00
FD
07
06
F9
0A
F9
06
04
FB
FE
03
FD
FA
F4
F9
FE
02
FD
01
09
03
0B
FA
F5
0B
03
05
F7
00
F8
FD
01
F4
05
09
01
09
03
FB
F5
00
F7
06
08
FD
02
0A
FD
0C
FF
F9
00
06
0F
00
FF
04
FD
08
06
FF
FB
FE
05
F7
00
FD
0A
03
03
02
06
01
07
07
0D
0F
FF
02
02
03
FC
07
0C
FD
05
02
FF
02
FB
FF
FA
02
07
00
05
03
02
FA
0B
FC
08
F4
06
F9
00
00
03
06
FA
FB
00
FF
FD
FF
05
FD
00
04
F4
02
FB
FE
F5
02
02
F9
FC
0B
F6
07
FC
01
00
01
01
00
FC
FD
08
F9
00
0E
07
FF
09
03
01
03
F9
FA
F9
09
05
03
FB
00
FA
00
FE
0F
03
FC
07
FE
F9
08
F8
F8
07
0B
FD
FB
F8
FD
02
03
F9
03
08
01
01
FA
05
01
F2
F6
FF
01
F7
01
FF
05
FE
F9
F6
0A
0A
04
FA
FA
FF
FA
FE
04
0A
FB
F6
FF
0B
F3
FF
FF
FA
0A
FC
0C
FD
FC
02
01
0B
06
FC
07
F9
03
F6
02
00
FF
0B
06
10
07
FC
FB
FD
00
02
FC
06
FA
00
FD
01
F6
00
08
FF
FC
FF
FF
0F
FC
0F
F8
FF
0A
00
FF
03
FB
09
01
FE
0A
FA
00
FC
02
04
03
FC
FA
01
03
04
01
05
00
FC
0A
03
04
0A
FD
06
01
0A
F8
FE
0B
03
FA
03
FA
F0
FE
04
F9
06
FC
FB
00
03
02
FB
00
F5
F6
04
FB
F8
F3
FF
04
03
F9
FC
FD
F7
FB
09
FE
02
05
05
0E
FD
0C
FD
0F
07
05
FC
FF
05
04
FF
09
09
FF
09
0D
FA
F9
03
F2
00
16
0C
03
FE
02
06
F2
01
02
0D
02
FF
05
EB
FE
FA
00
FD
FA
FD
02
F9
02
07
01
F7
0E
01
03
0B
03
FB
F5
01
FB
F1
06
03
08
04
0B
03
01
FA
07
F9
07
04
0A
F5
04
00
FA
0A
06
07
F4
F4
02
FC
FB
06
0C
10
06
00
06
03
FA
F9
FB
F9
FC
FE
05
F5
FE
08
0A
FC
03
FD
0C
FB
FE
F9
02
FA
09
FE
FC
FF
07
01
03
FC
FB
0F
FE
02
FE
09
FE
05
FC
08
FB
FE
F8
00
07
FC
FF
FA
00
02
07
F9
F7
FE
02
03
02
FA
FB
FA
FA
05
03
02
FD
04
F4
FA
FB
00
09
FD
07
0B
04
07
06
F2
0C
EF
01
FA
12
FD
F4
01
FC
05
0D
06
FE
FC
00
FE
EF
05
01
05
02
FA
0E
04
F5
FC
FF
09
05
F2
FC
FC
FB
F6
FE
07
FA
09
FC
00
FB
08
FD
F6
FF
06
FB
F9
01
FF
F5
04
04
02
09
00
EF
F8
00
09
FD
05
02
00
08
FD
FC
05
FF
0D
05
06
07
FC
FD
FF
FF
07
FC
F7
02
06
FF
FE
FE
FE
FB
09
06
04
01
0C
FE
03
01
FE
F5
00
06
FD
F4
FF
FC
F5
F8
08
F9
FB
FC
FD
FF
00
01
01
00
07
FA
F9
FB
FE
FF
FC
04
05
02
01
01
0A
01
02
04
02
05
02
EC
FF
F0
FD
F0
FF
FD
04
06
02
FC
F8
02
FF
F9
F5
F8
FD
09
F9
07
03
F6
FB
F8
FB
00
F8
0F
00
FE
F7
FB
FD
02
03
00
0A
F6
08
0A
FF
F8
03
06
08
02
04
F7
06
FB
F8
01
FE
0D
01
FF
0D
FB
FE
FB
FC
F9
FE
F9
09
02
12
FB
FE
F4
0B
05
03
0C
F8
F6
F4
0B
0F
FF
F8
11
FE
F5
F7
F9
04
F2
FE
08
05
01
F7
0A
04
F6
03
02
01
0C
0A
FC
FB
08
F7
F9
05
FA
0A
FC
03
FF
02
05
FD
07
05
FB
01
F8
03
0A
07
03
F8
01
FC
06
FD
02
08
03
04
05
FB
06
FC
FE
FF
F8
FA
FC
02
FF
02
FF
F4
02
05
FC
0C
04
FC
00
01
FA
FC
F1
08
FB
FB
FE
0C
FE
F6
ED
00
03
02
04
F6
05
EF
01
FF
FF
08
FA
F8
FF
FF
02
06
00
07
0D
FA
05
03
00
03
00
FD
FB
F9
0A
00
FE
05
02
F7
0D
01
02
FE
0A
00
04
FB
02
FD
06
03
05
10
FF
FF
01
01
FB
05
02
FF
01
08
FF
04
FB
F7
02
09
06
FD
F6
F7
FA
FF
FC
01
00
04
02
FF
FD
01
05
02
0B
01
09
FE
FE
FA
F9
0C
FE
F4
07
F9
03
FD
03
F1
03
FD
0B
FB
07
07
01
04
F9
0D
F3
08
04
FE
FE
FC
07
01
FA
FD
02
03
05
02
06
01
01
F9
03
02
07
F9
FE
F9
03
F3
08
08
FC
0A
07
FF
FD
FC
FD
03
03
01
FD
FC
FB
FE
00
F9
F9
07
0A
05
FB
07
03
0F
FC
0D
FC
FE
02
08
FB
FE
FD
07
01
02
07
04
FD
FC
FE
0C
FF
FD
02
FF
FE
02
04
FF
FF
01
04
FF
02
0E
06
03
03
07
FB
00
06
FB
FA
FC
FA
F7
02
02
F5
FB
F8
06
07
07
FD
FE
FF
F9
F3
00
FE
02
F7
FD
02
03
FE
F9
00
0B
02
00
01
FF
04
00
F2
FE
ED
FC
F3
01
FD
03
04
03
FB
F9
01
FF
F9
F8
F9
F9
0B
FD
09
00
F5
FE
FF
03
02
F8
0A
00
FF
FB
FC
FC
05
04
FD
09
FD
06
06
FE
FD
03
08
05
02
08
F9
05
FA
FC
07
02
0B
00
FE
10
FD
02
01
FC
FC
04
FA
09
03
0F
FE
FD
FC
09
02
03
07
FC
F8
FA
07
0E
FE
FB
0B
FE
F7
FB
F8
01
F2
00
04
03
FF
07
F7
07
10
02
00
04
F8
F6
07
04
02
0D
09
FC
03
FA
05
FD
07
0A
01
07
F8
05
FD
F5
01
FB
07
02
F1
0A
FA
00
FC
00
FB
FF
0A
FD
F6
FC
05
F7
00
02
07
09
05
F8
0E
FE
02
FC
06
04
0B
F7
F9
F6
FE
07
07
F7
0B
F4
FA
0A
F8
F4
04
05
0B
F9
09
FB
04
01
FE
09
FC
F7
FC
FA
03
F7
05
FA
FE
06
FB
07
FE
01
04
06
FA
FE
00
07
02
F8
FA
F9
01
00
F8
04
ED
01
F9
02
F9
08
00
FB
FB
00
06
05
F3
F6
FC
F1
0A
03
04
04
F5
01
FC
04
05
FD
03
01
01
FF
FA
01
07
00
FF
0E
00
01
00
FE
FD
03
0B
00
00
07
FA
FE
FD
FD
07
0A
06
02
FB
0D
03
03
09
FC
FA
06
FD
03
05
0C
FF
FE
FE
09
FC
03
0D
00
FF
FE
02
08
FF
03
0A
F6
F9
02
F5
FE
F6
02
04
07
01
05
FE
09
FA
05
03
FE
FB
FC
F4
FB
FE
06
F7
F8
00
08
00
FF
07
06
F4
FC
FE
F0
06
FC
07
F9
06
FF
05
04
FF
F9
F8
08
F6
03
F9
FB
05
FC
03
FF
02
0B
07
FE
02
FB
0C
09
06
06
00
01
02
F8
07
01
01
F9
08
07
0E
FF
05
03
0B
FF
F5
08
05
03
00
00
06
FE
08
FF
01
01
00
01
FE
07
F7
00
0B
FD
06
0C
F7
02
ED
01
03
00
FE
FA
FE
05
FB
F6
F5
0E
F5
06
04
06
08
F6
FC
03
FB
F6
08
02
0A
09
F6
05
FB
F6
01
05
F1
05
FD
FD
FA
F9
00
03
F7
FB
F9
03
F9
02
FB
F4
FF
06
F9
FA
02
FF
F8
FC
FE
F6
01
FC
F7
06
01
F4
FE
05
F2
FD
00
FE
11
FA
03
02
02
F5
FB
F7
10
FC
FC
FC
04
05
FE
0B
05
07
05
F7
04
05
03
0B
05
F6
03
0E
00
00
FC
FF
02
07
FB
03
FC
04
FD
FC
07
02
04
FC
F0
F5
00
09
FD
FF
04
03
FF
FC
00
06
FB
F5
05
F1
05
08
01
FD
FE
08
02
03
04
FD
02
04
FA
FD
01
FD
0B
FB
FE
05
08
FD
FB
FA
04
01
0B
05
FA
04
FC
00
F8
06
0B
09
01
F6
F9
0A
01
05
0B
04
06
12
FF
02
09
02
03
FC
0D
FF
02
FE
0B
00
04
04
FD
06
FB
FA
00
03
FF
03
F9
FD
F9
02
FB
FF
01
03
0A
FE
01
F3
FF
01
F4
04
F5
09
09
01
FC
FE
F9
F9
00
03
FE
09
F3
F9
FA
F8
F6
05
FE
05
F5
FE
F9
02
FE
0E
FD
FA
00
FB
FB
03
FD
04
FF
0B
06
F4
00
FA
FB
02
02
F5
F8
FD
F0
0B
FD
FE
03
00
05
FB
04
0E
01
06
04
08
F8
00
04
FC
02
08
F6
EF
01
05
F8
07
09
FD
05
FA
06
05
FE
F8
FF
00
F8
FA
F4
FA
00
FF
FD
07
01
0B
01
02
04
04
06
03
E9
FF
EF
FC
ED
FD
FD
04
09
03
FB
F7
02
FC
FA
F4
F6
FD
0A
F8
08
03
F5
FA
F8
F8
FF
F6
12
01
FF
F5
FA
FC
03
04
00
0B
F4
0B
0C
FF
F7
04
05
0A
04
06
F6
05
FB
F7
01
FE
0F
01
FF
0E
FB
FE
F9
FB
F9
FD
F7
0A
02
14
FB
00
F1
0C
07
02
0C
F7
F5
F3
0D
13
FF
F8
15
FE
F5
F5
F9
05
F0
FE
0A
05
03
06
01
F5
07
00
01
FB
FC
FC
F5
FD
F3
F7
FF
04
07
05
F9
F6
FB
F4
08
00
FC
03
0B
01
0A
04
F3
FF
06
06
FF
F9
11
F8
02
02
02
FC
FE
08
FA
04
FC
0B
03
01
FC
0B
FE
05
06
06
00
03
FF
01
03
FC
0A
09
FA
08
F8
FF
FD
F4
F9
FE
FD
01
F9
08
04
05
F8
09
FB
00
FA
02
FB
FE
05
08
02
FC
02
00
F9
F8
03
00
FE
FE
05
FD
00
05
FC
F8
FB
FA
FE
FD
01
FA
FD
02
01
0B
01
07
F9
FA
FE
04
09
0A
FA
09
FF
F6
08
01
FD
FD
FD
00
08
10
06
FE
F3
FC
06
0A
00
03
03
FA
F9
03
07
FB
00
01
06
FC
07
FF
05
08
07
FE
01
01
0A
08
FD
08
FF
FD
08
03
10
FD
05
00
01
02
05
02
03
02
07
02
FB
09
FB
07
FF
05
F9
FC
03
09
FA
F4
04
07
01
FF
FC
02
FF
F9
02
03
06
FA
05
F8
F5
05
F5
03
F7
08
FB
FB
01
09
F9
FA
FD
02
01
07
01
FD
F4
06
05
FF
04
02
F3
FC
F5
FF
02
FA
09
F3
FD
FA
09
03
FA
08
02
02
02
F9
02
06
FF
01
04
F0
FC
FC
F3
09
FE
F8
02
00
04
08
FE
02
F7
FC
FC
FB
EF
01
05
FF
FF
05
04
FA
01
09
F6
04
0B
F2
F8
FA
08
00
03
06
FD
FC
EF
FD
01
F7
01
00
00
0D
FD
08
F7
0C
0C
06
0C
04
F7
F6
07
FC
FD
0C
06
F7
07
01
04
F9
FD
F9
03
FE
00
08
FC
F8
04
FB
0C
01
F7
04
FA
03
FB
0C
03
F6
FC
FC
02
FC
00
FF
FD
03
0A
00
00
F9
06
09
FF
02
03
03
01
FD
F6
FC
01
F9
05
02
06
FB
FA
10
04
FF
06
09
09
FD
FD
FC
01
04
04
09
FC
FD
F9
FB
01
FE
06
F2
FC
09
02
F9
F7
0A
03
00
F8
F7
FF
F7
F6
03
FF
03
FF
08
0C
F6
0B
F7
0D
FE
FF
FC
00
01
04
FF
05
02
08
11
08
FB
FF
06
F5
FF
0D
03
0A
03
FF
FF
F3
FE
FE
0C
05
FF
01
ED
FA
FD
FF
FD
FC
FF
03
FA
00
05
03
FC
0B
04
05
07
05
FF
F0
02
FD
F1
07
01
09
01
12
FE
FE
F9
09
F4
0A
0C
0D
F7
00
04
F4
0E
08
08
F6
F8
00
04
F6
02
0D
0D
0B
00
07
00
FD
F6
03
FF
02
09
FE
02
F8
04
F8
F8
F9
F6
05
00
FB
FB
FA
0A
FC
00
04
09
FE
09
F9
FB
04
F7
01
F8
FF
F5
0B
02
01
F5
FB
F7
FA
00
04
03
FA
FE
FC
FC
02
FB
06
00
03
F9
00
FF
01
FE
FD
0E
FD
FE
0C
F8
FE
FE
07
00
FE
05
01
FA
0B
FA
F4
07
FE
05
02
03
07
F9
07
06
00
00
FB
FF
02
07
FA
03
03
00
FF
06
01
FC
F2
FC
03
03
FC
03
F8
0F
01
03
09
05
01
FE
09
FC
07
05
01
F8
FF
09
06
FC
FF
FA
04
04
08
05
FB
FD
FD
FC
12
08
FE
03
FD
05
F4
0A
00
03
F9
FE
05
F5
FF
FD
FB
03
06
FC
FB
FB
04
09
03
FA
07
0B
FC
06
FA
FB
FA
F7
01
00
0B
03
FD
0F
0D
06
02
FE
05
F8
00
FD
09
FD
05
00
F6
07
FA
02
FB
FA
03
F4
F8
0A
0B
09
00
03
03
04
FB
F4
03
FC
04
FA
05
F8
F1
04
FD
05
FC
07
FC
F1
01
06
FA
FE
00
FE
FD
FD
09
04
F8
0A
08
01
07
05
F2
00
FA
02
00
F9
0B
F0
FA
FF
0A
FF
F4
0A
FF
00
FE
FF
02
07
FF
07
FD
EE
FE
FC
F5
08
02
F6
FF
01
00
08
FA
01
FD
F9
F9
F9
F2
02
03
F8
00
FC
06
FE
05
08
F3
02
FF
FC
FB
FC
06
00
06
0A
F4
FD
F3
00
06
F6
06
FE
00
05
FE
04
FC
F7
07
F9
FB
02
FE
FF
02
05
FB
03
07
FF
00
F4
03
02
FF
00
01
FE
FC
02
03
03
04
01
F6
FF
F9
04
03
04
FE
FE
FF
FA
04
FE
FE
04
FE
03
05
FA
00
04
04
00
01
F5
FC
05
FC
FB
02
FC
FC
07
FC
01
FC
00
07
FA
03
04
FB
01
0A
FF
0C
FB
FF
FB
04
08
F6
06
02
FD
04
FF
01
FF
03
06
F6
FC
FD
FB
FA
FE
04
00
FB
03
04
FC
01
05
0B
04
FD
06
FC
F5
08
FF
0C
FF
05
FD
FF
01
FF
01
0A
12
03
0D
FD
02
F8
F7
F7
FF
0A
FB
01
00
FC
FF
FE
F3
FD
07
0F
02
F0
F6
03
F6
FB
FB
00
04
02
F5
04
00
02
F4
08
09
0A
01
04
EA
FE
0D
06
EF
F9
FC
FE
FA
FE
EB
FD
FF
FF
01
09
07
FF
F6
03
08
FC
FC
02
FF
02
F9
00
FA
05
06
FA
07
0A
FE
04
03
00
03
01
FF
07
FE
F5
07
FD
FB
04
14
00
08
00
F6
F3
09
FD
01
04
0A
05
F9
F8
FA
FE
05
01
FE
FF
02
03
03
FB
FB
F9
FD
07
05
02
07
F7
01
06
00
10
FD
F9
10
FD
00
F6
04
02
03
0F
FB
06
FA
06
F9
F4
05
04
0A
03
04
02
FA
F8
FA
F4
FD
FC
F8
EA
FE
FF
05
F1
01
04
EA
01
00
FE
05
FF
FB
FF
08
0D
F8
01
10
0B
01
01
09
08
04
FE
F8
00
07
F8
04
FD
09
04
0C
05
FD
02
F3
FF
07
FE
0B
00
FA
FF
F5
0B
04
08
0B
08
FE
F9
02
0A
0A
FF
F8
00
FA
05
00
03
08
FA
01
02
FA
02
FF
F6
03
03
FB
F9
05
F9
01
05
F8
04
07
F8
06
00
04
FA
FE
F6
FE
00
02
F7
FA
07
11
FC
F8
FA
FA
05
02
06
00
06
F8
FD
06
F4
04
FD
FA
08
05
FA
01
04
08
0D
FE
05
03
04
FC
FE
03
F9
FE
09
06
08
00
02
FA
FF
FC
F3
06
FF
F8
0C
FC
03
00
F9
F9
05
F0
00
04
FF
03
0E
FF
FD
02
F5
FB
FF
FB
09
0A
F9
F0
06
F9
05
06
03
01
04
06
FE
06
06
FF
08
02
FC
06
F8
F1
04
FB
F7
08
00
F9
01
02
FD
F8
FD
08
FB
05
06
06
0A
FC
FF
06
01
01
FD
FC
0B
F7
04
00
03
02
FB
FF
02
05
FC
EF
F9
03
05
FE
F9
05
05
F5
FD
F5
05
07
FD
01
09
F8
0E
FD
FF
F2
06
FF
08
02
FE
FA
FC
F6
0F
0F
05
08
00
04
FA
06
FF
FE
0C
FE
FF
00
06
F4
04
09
07
FE
F9
FE
F7
FC
F9
06
FD
04
00
04
EF
06
03
02
0B
FB
06
03
FD
FA
F9
0C
FF
F0
F9
FB
FF
F2
06
F0
FD
FC
00
FB
05
12
F8
FF
FD
07
F2
0A
06
02
FE
FF
03
03
FD
00
06
FA
0B
04
08
FA
08
FB
00
F5
06
00
FA
F6
FC
09
FE
07
FF
05
0C
F6
F9
00
FC
FB
06
07
04
09
F5
FC
06
F4
F9
0A
F2
0B
01
05
FA
F6
02
05
FD
FB
F7
04
00
01
FD
F6
01
07
FB
F9
FA
FF
FA
FF
02
F7
00
F7
F4
03
04
FA
00
00
F5
FE
FE
FB
05
FE
06
01
FC
FF
FE
F2
0A
00
FC
01
05
FF
FA
00
09
05
0C
FF
FE
00
FF
02
04
FD
FF
09
FE
FB
02
FE
FF
09
04
F9
FC
FE
FF
0D
02
01
02
FF
09
FC
FE
F3
FB
03
06
07
01
FC
06
F8
02
08
05
01
03
FB
F9
03
0C
00
04
FB
FB
FA
03
FF
FD
0B
FE
FB
02
F5
03
FF
F0
13
04
05
F7
FE
FE
0F
10
FF
0C
FE
0B
FB
FB
F9
FD
0C
03
F8
00
F6
F9
F5
02
EF
F3
FC
FB
00
04
14
F1
FD
06
FB
F3
09
FE
FF
FF
02
00
02
0D
FC
04
0A
0E
08
00
01
08
FC
00
04
F8
07
FC
0D
06
FF
FB
FE
01
FB
FB
05
F7
FC
04
07
04
FC
0A
FC
F6
01
02
F8
06
F8
03
F9
0F
00
02
03
FC
FB
F6
0C
FB
04
F6
FB
08
F6
03
FF
F8
12
0B
03
FA
F9
0B
12
10
07
09
FE
08
F7
FE
FF
FE
FF
08
02
0E
F8
FF
05
0C
F7
F5
07
03
01
01
0B
FD
FF
0A
FF
F8
08
FB
00
FD
03
FD
00
0D
FC
08
10
00
0A
F4
03
03
F7
FA
01
00
10
FD
FE
04
09
FB
04
07
00
06
04
01
FB
FC
00
04
03
FB
FF
FE
FD
02
05
F7
FF
FA
FC
09
FF
FA
F7
00
06
F8
0C
05
F6
F5
04
03
FD
01
02
01
F5
05
F8
00
F9
FB
00
F7
FB
FA
07
F4
03
FA
02
FD
EF
02
05
03
08
FE
10
0A
09
05
01
04
FC
F7
F4
06
FF
08
02
04
00
FE
FB
01
00
01
FC
FC
06
07
FC
FA
03
02
00
FB
00
00
08
05
F3
09
FC
FA
FB
F6
FE
F9
07
FB
FF
FE
05
02
F3
FE
04
FC
02
FF
FC
F1
04
00
00
07
02
ED
F5
F9
03
FD
04
09
FA
03
F6
07
03
F8
0D
04
06
04
FB
FD
03
02
02
01
F5
FE
02
F9
FF
04
FC
FB
FF
08
08
04
07
F7
FC
FE
FE
EE
F4
08
01
FB
04
FE
FA
F5
06
F7
03
04
F3
02
FB
09
02
FE
01
00
FE
F3
F7
FE
FD
06
03
02
0A
07
FB
0D
FC
FC
FC
F9
FA
FF
06
FF
07
08
F1
F6
FD
FC
05
00
01
F9
FC
01
03
FE
FF
F9
03
05
04
F7
FB
08
03
FC
06
01
F6
FE
03
FD
01
F4
0D
00
FE
03
02
01
FE
FB
0B
F6
FB
02
FB
F8
05
04
FB
02
F7
00
00
07
08
FD
02
FB
FC
FA
F7
FB
FB
F3
FF
FB
FF
FB
FF
F9
FB
F9
05
07
01
03
05
FD
01
FB
FF
FB
FD
FE
FA
FE
FA
06
02
02
F8
FE
08
00
08
02
07
04
06
02
F6
F7
EF
00
FE
05
0F
FF
F5
FB
F1
0D
FD
07
09
06
FE
03
04
06
05
02
F4
FF
F3
0F
00
FB
03
FE
FA
02
FF
00
FE
F5
0D
08
00
FA
08
F6
0B
03
FC
01
03
FD
01
FE
FF
01
FE
F8
01
FA
00
F5
FA
08
09
F6
FD
FE
00
05
07
01
00
07
F7
FD
04
F8
00
02
05
04
FE
02
04
02
FB
0A
00
FE
FC
06
FB
02
F6
F9
FA
FC
02
FE
06
07
FF
0A
FE
01
F6
03
07
03
FF
02
FD
0B
FC
03
0F
08
FA
05
05
F1
06
07
02
09
FF
00
FE
FC
FB
04
12
FF
FE
02
F0
F9
01
F4
08
FE
00
FB
FF
FB
08
0B
03
0E
FD
05
00
FE
02
F3
0E
F7
F2
09
FD
06
F8
05
F4
FB
F9
06
FD
06
10
FC
01
00
05
F5
11
02
01
FA
FE
05
06
03
F9
0A
0B
0B
06
02
02
07
F9
05
F4
05
F5
F9
FD
FE
FC
0B
08
FE
FC
FE
E9
F6
00
04
08
FC
FB
F2
ED
0D
03
09
03
02
0A
05
08
F9
05
0B
FF
FF
FF
0B
FB
00
05
FD
FF
FF
0A
FC
06
FE
06
FC
FA
FB
13
F2
01
02
00
FA
00
FD
03
02
04
FF
FE
FB
05
F5
06
FF
F8
05
0A
FD
F5
F8
FB
FC
09
02
00
F6
F7
F6
0E
06
06
FD
04
01
04
F7
01
01
F7
04
FC
07
FA
05
FB
03
F0
04
04
F9
FE
FA
09
02
0A
05
FE
04
EA
FB
06
FF
07
01
FE
04
FB
03
06
05
02
03
06
F2
0A
04
07
01
F2
FF
FA
06
F6
FB
0C
FE
00
FE
F6
01
00
F2
07
FF
FF
F3
04
F8
FE
06
F5
FE
07
01
FD
00
FD
F6
05
F9
F7
FF
FC
F9
F7
00
FE
F6
F1
FF
00
01
0A
00
00
FF
FA
FF
0A
00
FC
FF
FF
03
08
06
FD
02
09
0F
FE
02
FC
07
06
FF
FB
00
FC
00
00
07
FB
13
FF
FC
F9
FF
01
00
00
08
05
FE
FC
FA
FA
06
F9
09
FC
00
0A
02
02
01
0C
08
FF
01
FE
0A
03
FE
04
04
FC
09
01
FE
FF
04
04
F6
FE
02
08
00
07
FF
04
03
F6
00
0B
05
05
01
FE
F6
FF
FA
00
06
FC
FF
0E
00
FF
FC
FE
04
05
03
FB
FE
F6
01
03
05
0A
FC
00
FE
FA
00
06
01
FE
03
FF
06
02
FD
FB
02
F8
03
08
F9
F9
FB
03
03
05
FA
00
0A
FB
F7
FB
F8
08
04
04
06
0A
F8
FC
02
F8
FC
FF
03
00
08
09
FE
00
FE
FA
F6
FE
F0
08
04
FD
01
FB
06
F8
01
07
03
04
02
FE
09
FC
03
F9
F8
05
09
F8
03
FF
FA
FC
05
FF
08
F7
00
01
FF
03
F7
FB
04
FB
04
05
0E
F7
FF
FA
04
02
03
07
FF
00
F8
03
03
00
FF
13
02
F9
F7
00
FE
06
FE
07
01
FC
03
FC
05
F5
0F
03
FF
06
01
11
0B
01
FD
03
FF
FD
FE
02
FF
FE
05
00
FD
03
08
FF
00
0D
03
0F
02
0A
FD
00
0A
07
00
00
04
07
FE
F9
0B
FE
FA
FE
06
07
03
FE
FC
04
09
FB
FC
09
02
03
07
04
F9
08
00
06
07
04
FA
0A
0B
02
FB
01
FF
F4
04
01
FC
FF
FC
FE
FE
08
FB
F9
03
F8
F3
05
00
FF
F9
FF
05
03
FA
F5
00
01
01
FB
FC
FD
F3
02
F6
0E
01
0B
FB
F6
FC
0A
FD
F4
02
08
04
FC
FB
FD
F5
08
07
FF
FE
04
F6
F9
F4
FA
FF
FF
05
FF
00
FC
FB
06
FD
05
09
03
FB
00
02
04
FB
01
FC
F2
06
FF
FD
FD
03
F3
F5
06
FE
07
00
01
05
F9
FB
FC
F3
FB
02
FA
FC
FD
FD
FC
F9
08
FD
FD
05
FB
FD
F8
05
01
02
0F
05
F3
FB
07
04
FD
02
04
06
09
04
01
05
FD
01
05
FD
F9
00
F6
01
01
0B
0A
FC
FE
F9
FD
FC
0D
03
12
FF
05
F9
02
F4
F7
02
F6
02
F2
07
05
00
00
F7
FB
00
FF
0F
04
F7
03
07
F5
0A
F8
FC
05
09
F5
06
F9
FD
FB
04
FF
08
00
05
F4
02
07
10
F2
F4
FF
01
FB
FC
EF
00
05
F2
FE
05
02
FD
F2
02
FE
00
F5
07
05
FF
F9
F4
03
01
01
FE
03
04
FD
00
01
00
0A
03
FE
03
05
FB
F9
F9
04
FF
0A
FC
05
FF
FD
04
04
F5
06
FF
02
00
00
02
01
06
06
04
FE
04
01
01
0A
F8
00
06
FB
FE
F8
01
03
00
01
FB
04
FD
FD
00
FD
08
00
01
03
02
F0
F9
FB
F8
0A
F9
FC
04
04
00
FD
F8
04
04
03
FD
01
FD
11
05
FD
06
02
04
FB
0D
04
F8
02
04
01
F5
01
FE
FC
08
06
F3
FE
FA
FF
FB
F6
FF
FD
FF
01
FD
06
F7
F6
00
FC
04
FE
07
F6
FB
FA
FC
0C
04
04
04
F8
00
FC
04
02
FE
01
02
F3
0B
07
03
FD
FA
04
06
0D
07
FF
FC
02
01
01
03
FE
0B
FB
F7
06
08
FE
FA
01
0A
FD
09
04
00
0E
06
F5
FE
03
07
0D
FF
02
F8
01
06
01
12
01
05
08
03
04
0B
FF
04
02
08
04
FB
08
01
05
03
05
FB
00
FF
04
FB
FA
02
02
FB
01
00
01
FB
F9
01
09
FF
F8
05
FF
05
F5
06
00
02
03
00
FF
01
F9
03
03
02
FA
F9
F3
08
07
FF
02
00
05
0E
02
FB
04
04
15
FB
09
FD
01
05
05
FA
FC
FC
09
FE
02
06
06
01
FD
00
0C
FF
FF
04
04
07
02
03
02
FD
01
04
00
FE
0C
06
03
03
06
04
00
07
FE
FE
F8
FD
FA
04
06
F7
01
EF
09
00
05
FC
FF
04
FA
ED
02
01
FD
FC
00
07
00
FC
F0
01
F4
FF
F9
FC
00
F8
00
11
FC
0B
FC
0D
F7
FD
FF
FB
FF
01
05
FC
FD
0F
10
05
06
FD
07
FA
FB
03
FD
0F
04
FF
00
F8
F9
01
07
08
02
FC
FD
FF
F9
06
F9
F7
01
05
00
F6
FB
00
FB
06
FF
03
09
03
FF
F2
02
03
F4
FB
02
04
FB
0B
FF
01
F5
F8
F1
07
08
09
F4
FA
FE
F1
09
07
0B
F6
F5
FF
0B
EF
FF
08
07
10
FA
0D
01
FC
FB
FE
00
F8
01
FC
01
FC
FD
FD
05
0A
0A
FA
0E
09
FF
FF
F6
03
05
05
FF
F1
FD
FF
FF
FE
FD
FC
FC
00
FB
F8
FC
04
07
F3
0D
03
FC
F5
01
01
02
FC
FC
02
FD
03
06
04
F6
F9
F9
FE
0C
02
EC
01
F6
F5
0B
FD
FB
06
FA
12
F9
02
07
00
F7
03
08
0C
FD
F9
FC
F7
04
04
06
06
FF
01
FB
00
FE
02
0E
04
F3
0D
FF
F3
09
FA
FC
02
03
FE
05
FA
F8
03
FC
FA
02
03
FB
FE
FC
FA
FE
01
03
FE
FD
00
00
FC
F8
0F
05
FC
0B
0E
03
07
FA
F5
FD
04
0B
02
F8
02
FC
FE
FA
09
00
02
05
FD
00
06
FB
01
05
06
00
00
F6
FC
05
FD
03
FB
01
FF
0A
FB
01
FB
02
00
FC
02
FF
01
0C
06
FE
03
F7
07
FE
0C
07
F7
03
FB
00
F9
03
FF
FE
03
0B
EE
FE
FC
FF
06
FC
08
00
FB
FD
00
FF
01
09
0D
01
FD
07
FC
F7
09
00
08
FD
08
FC
FC
05
01
FB
03
08
0A
10
FD
0A
FC
F7
FC
FE
09
FF
FF
05
F9
01
FE
F2
00
06
0B
01
F2
F9
02
F7
FB
FC
06
03
00
FB
02
FE
02
F2
07
13
04
03
02
EB
FF
0A
05
F8
FA
FD
F5
00
00
F6
00
FD
FD
FC
0A
FC
03
FB
02
08
F4
FC
F8
FF
02
F9
04
F7
F6
0B
FB
05
0A
FC
06
03
FF
FF
FE
0D
F8
F2
0A
FE
FF
F6
04
FE
04
08
F5
0C
0D
04
02
F6
01
FF
00
FB
04
03
F9
06
08
FF
0B
FE
F7
00
FC
11
01
03
FF
01
07
00
03
00
00
08
FD
FD
07
03
FF
06
08
03
02
F9
02
0C
0A
F6
03
FF
FA
06
05
0A
FC
01
08
FB
05
02
F9
FE
0B
05
04
FB
03
F9
FE
0B
F7
06
F9
FB
FB
01
00
FB
07
05
F4
FC
FE
FE
FB
02
05
03
FC
F9
01
FD
05
01
F4
FC
FB
00
05
07
04
04
06
06
04
0A
F0
03
FA
09
00
05
01
07
06
06
FE
FC
F7
FC
08
01
04
FE
0B
FF
F6
FD
0D
03
FF
0B
03
00
FA
FD
04
F1
01
FE
05
FB
FB
F7
F9
FC
05
04
F6
09
08
05
00
FF
FE
FA
F9
0E
04
FE
05
0D
06
01
FA
03
02
FD
07
FC
03
03
01
01
F9
03
F6
F7
03
0C
F4
F9
03
FF
02
FC
02
FE
FF
00
03
F7
0B
FD
03
F3
FD
FF
05
02
01
09
10
FC
FE
FC
FD
FD
02
04
F9
07
F9
FD
03
F9
F1
0C
FD
09
F9
03
00
FF
FF
0F
FD
F5
FB
02
05
01
F7
06
FC
02
06
F5
F8
FC
FD
04
FC
F5
F9
F7
F5
04
04
FE
01
FA
FD
FF
04
00
FB
02
03
02
F6
FB
04
F7
00
00
FA
FC
01
FD
F3
03
01
00
11
01
03
FF
FE
F7
FB
04
FD
FA
FB
F9
08
FC
FD
05
06
F7
09
FA
FE
FC
FF
FA
08
09
FA
00
FC
EE
FB
FE
02
0C
FA
FC
F3
F3
08
FB
0A
02
FE
07
0C
0B
F6
08
04
FC
00
01
0E
F9
FD
03
FE
FC
FB
0F
FB
03
00
05
FF
FC
FB
12
F3
FD
FE
FF
F5
00
FE
00
03
01
04
FB
FA
07
F5
06
FB
F9
FD
0B
FD
FB
FA
02
FC
05
01
01
F5
F8
FE
08
05
03
03
07
02
FD
F9
04
FB
F1
FD
FA
03
F6
06
00
01
FE
F9
F6
03
01
FE
F8
0A
03
0B
05
F5
03
0E
05
05
FC
FF
FC
01
F4
06
04
06
05
08
02
02
02
FC
02
03
02
05
02
03
00
07
05
FF
FE
03
05
F4
FD
00
08
FE
05
04
06
F3
FF
04
0F
0D
EE
00
FE
FB
09
01
05
F9
F8
06
FE
03
F7
FF
FF
03
05
05
FF
00
07
F7
07
FC
04
F9
08
FF
02
FF
FE
06
09
FD
F9
08
F9
FE
08
02
FB
05
F8
03
FE
06
F7
F9
06
05
F2
09
FF
02
00
05
04
F2
F7
FE
00
FF
0E
F8
FD
FE
FC
00
00
F2
02
08
FB
01
F5
0A
03
FC
06
F7
08
00
FA
FF
03
00
0A
07
FD
0B
00
FA
03
05
FF
00
02
00
00
FB
F4
08
00
FB
01
01
F9
10
00
F6
02
03
04
03
F7
03
02
F1
FC
FA
07
FC
F5
FF
F6
FE
FE
0C
09
FA
FF
F4
00
FF
00
01
F9
FE
01
04
FD
FE
04
00
06
FB
FF
06
06
09
01
FB
F6
F5
F3
F0
FE
00
FF
0E
06
FB
F1
FC
F6
07
FC
00
FF
0C
FF
09
FF
FA
01
07
00
01
F4
0F
01
FE
FC
02
FA
07
01
F9
05
FA
0B
04
00
FF
05
02
10
03
09
02
00
FC
03
05
FF
07
02
FA
08
F7
00
01
FA
05
02
F8
08
01
09
03
08
FB
05
05
02
00
00
F9
FD
04
0D
00
F8
09
04
FD
F5
01
05
FA
FF
04
FB
03
00
02
FD
0A
F8
01
00
00
FB
04
08
0E
F9
FF
F5
00
FF
08
FA
00
02
FE
09
01
F8
F4
07
02
09
00
04
01
0E
F7
11
F8
F6
FE
0B
FF
FC
F3
FD
FC
03
FF
01
00
FC
FC
07
03
FD
02
F9
00
0B
0B
FD
FE
F4
FC
06
05
05
09
FF
03
0A
FC
F2
04
F7
07
FA
FD
FA
04
01
F3
0A
F1
0A
0B
01
01
FF
03
F2
F5
03
FD
05
F8
FD
05
FF
FC
F8
FE
F7
06
05
FA
FD
05
FE
13
06
02
00
07
06
03
FE
FE
05
FF
04
FB
05
00
F8
0C
FD
F6
07
FC
00
08
0B
02
F8
04
06
00
02
02
02
03
00
06
01
02
FB
06
FA
F5
FD
03
03
FE
00
F7
FA
01
FA
FD
0C
03
02
00
FA
FB
FB
F9
07
02
02
FE
10
06
FD
F9
FE
FF
FD
06
F7
01
F4
06
00
07
09
F9
FA
FD
FB
FE
08
03
FD
FF
FD
06
FF
FA
03
FF
FC
00
FF
F7
00
FB
F9
04
FE
09
05
0A
0B
FD
FA
F9
F9
02
0F
03
0B
F7
05
00
F9
F4
FF
FC
F9
04
F6
06
00
02
06
EA
06
FF
FF
FF
04
FC
FF
02
F8
0C
F7
FC
02
0D
F6
00
FA
FE
02
02
F5
07
FE
01
02
FB
FC
0D
F7
07
02
09
05
07
F6
01
04
04
F9
00
02
05
F5
03
01
03
FF
0C
06
F7
F8
F6
0C
FD
FA
0A
04
FB
FF
FD
FF
FD
06
FB
FF
00
0B
F7
02
02
06
02
04
04
FA
0B
03
FB
04
F6
04
04
08
00
02
03
03
03
09
FB
FE
F5
F8
0F
FF
02
FD
01
FF
F4
08
05
FE
FE
07
0B
F5
05
FE
02
F4
FE
FB
FF
F5
01
00
FD
F6
02
0A
F7
0B
00
04
F9
F6
03
FC
FD
07
00
0A
0C
0D
01
FD
F8
F9
01
FB
09
F9
09
FA
FE
FF
FA
02
F7
F8
FF
05
FB
04
08
0B
0A
01
05
04
F9
02
04
FB
01
08
FF
FC
F4
06
F6
03
FE
05
07
F7
F9
FF
F8
03
06
02
0B
0B
F4
02
F7
FA
02
FA
FE
FF
01
00
FC
01
FD
FA
FA
F7
F2
0A
02
FE
F8
FB
07
F9
FC
06
07
07
FC
FC
04
F9
08
F8
FB
09
08
F0
03
FA
FB
04
04
FF
0B
F8
FB
FA
FB
F4
F3
FD
01
FF
02
FF
04
FD
02
01
02
FE
FC
FD
05
01
FD
04
0A
FB
FB
15
04
FC
F5
00
03
06
00
FC
FF
FB
08
FA
02
06
FB
F4
01
FD
04
FA
09
00
07
FE
01
F3
05
06
00
0C
02
F3
FE
05
F5
09
01
00
07
01
02
07
00
F4
04
0B
FF
FD
FB
F4
F4
07
F8
FF
01
FE
FA
00
F8
08
00
02
06
09
04
02
08
F6
FD
0A
FB
FB
03
03
05
FB
00
F1
FD
FF
0C
06
FF
03
F9
05
FA
0F
F7
0D
03
F9
02
07
05
F8
04
01
01
FD
00
05
FE
FD
03
FA
03
0A
FB
FB
FE
FE
05
F8
02
01
FB
06
F9
0B
07
06
FE
05
FE
FB
08
FD
FA
09
05
FA
0E
FD
06
01
03
0A
03
13
06
01
F8
01
0B
0D
F7
FF
06
FD
F5
04
FE
07
06
00
00
04
05
06
07
0B
0F
00
FD
02
08
05
06
08
F8
08
0B
06
0A
FF
02
07
03
05
07
07
04
FD
FF
0C
FD
09
F7
0C
F6
04
F8
FF
09
FF
F9
F9
03
04
F7
05
F9
01
04
F0
00
03
F9
04
FD
05
04
01
F9
01
02
FB
F6
FC
FE
F7
08
01
01
F8
FD
F2
FF
FE
01
FD
04
01
07
00
FC
FA
04
FC
01
00
FE
0B
FC
FB
EF
FC
02
04
FC
06
FD
08
0A
FB
FE
04
F9
08
04
0B
FD
FD
FC
FA
FD
06
01
F3
03
08
0B
02
FE
07
10
00
F9
08
0A
02
F6
00
FC
06
06
03
FC
08
00
FC
03
0C
00
00
02
FD
08
F8
F7
07
F3
FB
05
F8
02
FA
F9
FA
04
02
F9
04
FE
05
0D
08
FB
FB
05
01
05
F5
06
01
07
FB
FD
01
FB
02
04
01
FE
05
FC
FB
F7
FB
FE
02
02
00
FB
FF
00
FE
FA
FF
02
FE
FA
07
FF
09
FF
FF
FC
FA
08
05
02
F2
0A
F0
F4
01
F9
09
02
F6
0E
F1
FC
FC
F8
EC
FE
FD
08
FA
00
05
F6
05
FB
04
FF
00
05
F9
05
FF
03
0C
06
F6
04
04
00
05
01
00
04
04
04
FE
01
0A
FB
08
FF
03
F9
FE
FD
F7
01
F9
FA
FD
FD
10
FD
FD
03
00
01
08
00
00
03
F5
01
FC
08
FA
0A
FD
FD
F5
FE
FD
FD
06
FE
FE
FD
FB
01
FA
F8
09
0A
FE
FD
FE
FF
09
08
FC
03
0D
00
00
09
F5
01
00
07
FF
FE
03
F9
F9
0D
FC
F1
03
F8
04
04
08
00
FA
0D
FD
FB
05
F7
FF
01
06
FC
FF
06
02
01
08
08
FE
F3
FD
08
FE
FD
02
F9
FA
FD
03
05
FC
0C
00
01
00
F9
07
04
09
05
FC
01
FD
05
FA
01
FD
06
FD
0A
03
FD
01
03
09
03
06
06
FD
04
07
05
03
00
FE
0D
FA
FD
02
01
07
F9
02
02
00
01
08
07
0C
0B
F2
FE
04
FE
0C
FF
05
F6
FC
04
FE
08
FC
00
07
02
02
02
FF
04
07
FD
02
00
FC
FF
04
FD
06
F9
FC
04
05
04
FB
06
05
03
05
03
03
FD
F9
FE
FD
01
01
06
FC
05
02
0B
FE
FC
FF
02
05
FF
FB
03
00
03
01
FD
06
00
F4
05
FD
FA
06
05
03
00
0E
F8
FF
FF
00
06
FF
F6
FB
0B
FA
02
00
05
FD
06
00
F8
03
05
01
0C
FB
F8
FB
F9
FD
05
01
FF
01
FC
FC
FC
FE
FE
FD
03
05
F7
0D
07
FA
08
FC
05
00
0B
FA
F8
FB
0B
F9
08
05
00
FC
FD
F9
FD
08
F9
FF
FB
FB
07
01
F5
06
00
00
F9
03
08
01
01
03
04
FB
01
FE
FA
04
02
F8
03
04
03
FD
FE
FB
05
FB
01
03
01
01
0B
FC
02
03
FA
03
FF
FB
00
04
F7
FA
04
F9
00
04
FE
FB
03
05
05
06
05
00
04
FC
FC
02
FA
FD
03
F8
FD
03
FA
F9
01
00
06
F9
FD
09
00
07
02
04
0C
F8
03
02
0B
01
FD
01
01
FE
FF
00
00
01
00
FF
F8
03
FF
FC
F9
01
02
FC
FB
FE
FE
FB
FE
08
FD
02
02
02
0A
05
02
04
04
09
FE
00
FD
03
05
06
08
09
F7
F8
06
FD
FD
FE
FC
FD
0F
0C
F7
FF
00
FD
FA
06
F9
03
02
FC
06
F5
0A
F9
00
07
FC
06
02
F8
0E
00
03
FA
05
F9
08
FB
FD
03
FA
01
00
F7
08
F9
00
06
FB
05
00
FC
03
FA
05
02
07
FA
03
F7
07
FC
02
04
F9
F6
FC
03
08
01
03
12
01
FF
01
05
F9
03
F8
06
F3
14
04
06
08
12
F3
FB
07
F5
FA
01
05
03
03
04
04
F6
03
F7
06
03
04
0A
08
F9
F8
FC
0F
01
F7
FB
00
F9
00
0B
02
F7
FB
FF
08
EF
FD
06
F1
FF
0D
FD
FB
F6
04
0B
00
FE
04
0D
F5
04
FA
00
FA
F8
FA
FE
05
FF
F8
09
0E
0C
FF
03
0D
FF
02
01
04
04
0D
07
01
01
F0
F4
03
FF
07
FA
01
05
05
FF
06
0C
01
04
FD
F9
00
04
03
FF
02
03
08
04
F3
00
EE
FB
F3
FF
FA
0A
0A
FD
FB
FB
05
05
F5
EF
FC
F6
06
FE
00
04
FB
04
F4
F8
FF
F7
11
03
FE
F8
01
FC
0A
FA
04
0C
F7
08
00
01
F8
FF
0E
0A
03
02
F6
FD
00
F9
02
00
0A
03
FB
07
F7
FC
FF
F9
F3
FF
FB
03
01
10
00
06
F4
05
05
FB
13
F6
FF
F9
08
0B
FC
F9
1A
00
F5
FE
FE
03
FA
03
05
0C
01
FA
0A
01
02
F6
FA
09
F6
02
FE
02
05
F5
FE
03
FD
FA
FE
02
F9
05
01
FC
FE
03
FA
05
FB
07
F5
FB
FA
F5
01
04
07
F7
00
F8
02
04
FA
04
FE
07
FE
F3
FE
FD
FA
00
F9
F6
F7
F8
F0
0A
FB
00
01
FC
01
FE
00
02
F4
05
FB
FE
F9
FF
01
FB
FF
07
FB
FB
FE
01
FB
05
08
FC
04
F9
08
04
02
FD
00
02
F8
F4
FF
FA
05
FA
02
0A
01
0A
0A
F8
01
F8
FD
FC
F1
02
F2
06
FD
01
F9
03
00
F3
FD
07
FD
06
F6
F7
F0
FE
FF
01
06
01
EC
F3
F9
00
FF
05
05
FE
03
F3
01
04
FF
0B
05
0A
06
F7
FF
00
FE
02
01
F6
FC
03
F1
03
FF
FC
FF
03
0A
FF
05
0D
F8
02
02
00
F3
FB
05
02
FC
09
F7
F6
F7
07
FA
02
0B
F2
03
F9
08
08
FB
01
05
FB
F3
F7
F7
FC
FF
01
01
0C
00
00
04
07
FC
FF
00
F7
0A
01
04
05
0C
0F
04
FA
F7
03
FF
08
FE
0A
FC
02
02
FF
F2
FC
01
F9
09
00
02
04
00
08
EF
05
04
02
01
04
FE
03
07
F5
0E
F7
FE
FE
0A
FA
02
FC
F8
F9
06
FF
00
09
04
FD
01
FC
07
FD
00
08
02
08
02
04
07
02
F8
FC
00
F5
09
F5
03
FC
FE
FC
03
08
F9
F5
FB
FC
F7
06
05
03
FB
FC
00
03
FA
01
01
F1
FE
F9
00
FC
F8
05
0B
FC
0F
02
0F
F8
FE
FC
FF
F9
05
07
00
03
07
0D
03
FE
F9
0A
F7
02
03
FE
07
01
FF
06
F5
F9
FA
07
07
01
F9
FB
FF
FD
04
F7
F7
03
04
FD
FB
F8
FF
FC
00
FE
09
FF
FF
FE
F0
03
03
F0
04
FC
05
FE
07
F7
01
F4
05
F2
04
06
09
F7
F6
04
F7
0A
10
06
FA
F6
FF
0A
F4
FF
07
06
08
FC
0C
FF
FC
00
01
05
FA
00
FD
07
04
F5
07
04
FA
02
F3
08
FD
01
04
06
FF
FE
06
FA
F7
FA
02
F9
09
FE
0A
FD
04
06
02
08
01
FA
FF
0A
FD
06
FA
F7
08
01
01
FE
FF
14
04
05
03
01
09
0B
0A
0D
09
F3
05
F6
00
06
06
03
02
06
0D
F8
03
FF
01
00
FC
08
01
02
05
07
FD
04
03
F9
FE
02
FB
05
FC
02
FD
03
08
FB
03
07
FB
04
F4
02
04
F9
02
02
FF
F9
0F
FD
FF
FB
FB
F3
08
08
03
0A
0B
FD
02
F6
FF
01
02
09
FF
06
F9
03
F6
FE
02
00
FC
F9
FE
07
FD
0A
FD
FB
04
FF
09
00
F2
05
FE
FB
05
FB
FF
05
05
FD
FF
FB
FF
03
04
FB
09
FC
FD
F4
04
09
08
F8
02
F9
01
01
F7
EB
07
08
04
01
00
FC
F9
02
FB
0D
FE
F9
07
FA
03
FC
03
FB
FD
FF
FE
F7
FA
02
03
FE
FF
01
00
0D
02
FE
FE
FB
02
F7
FE
04
F9
0C
00
0B
00
06
F9
01
01
01
08
02
F7
02
FD
FB
05
FC
08
01
FF
09
FB
14
02
05
F9
03
07
09
F8
01
02
02
00
02
02
03
05
FF
FF
04
0B
FD
05
03
07
04
00
FE
01
02
08
09
FE
0D
0C
04
05
05
F9
06
06
01
00
04
01
F3
02
0B
FB
03
FB
04
F8
03
FA
FA
05
FC
F8
FB
FD
08
F7
FF
FA
06
FD
F6
FC
01
FD
FF
06
03
0D
02
01
F6
F2
F2
F8
03
FB
FC
10
FF
FE
F7
F9
01
04
F2
01
F7
02
07
03
01
FB
04
FF
FA
00
FA
12
07
FA
F6
05
FB
0D
FE
FF
09
00
02
F8
FC
00
01
08
0F
FA
05
F8
FA
FC
05
02
03
03
F9
F9
04
F5
00
05
FF
FF
09
FD
03
05
06
02
05
00
FE
03
FB
0C
FA
06
FD
04
0A
FA
F5
0E
09
FD
F5
FF
02
01
02
FD
03
03
02
08
FB
F5
FB
02
FB
04
0C
EA
02
FC
FC
F1
04
FC
08
FB
02
01
FF
F7
F5
03
F4
08
03
0A
04
FA
0B
FF
07
01
FB
05
02
FB
06
FC
FE
05
05
01
06
02
08
FE
FD
FE
09
0A
FF
02
01
F8
FE
00
FC
07
09
06
FF
FC
0E
01
05
04
FC
FB
0F
FD
FD
FD
08
02
01
07
03
FA
F4
07
05
02
07
FC
03
FC
01
02
FB
F9
07
F8
F9
F8
02
04
04
FD
04
FE
FD
FA
06
FD
F6
08
08
0B
0D
04
10
FF
00
FC
F6
04
10
04
04
F3
FD
FE
04
F8
FA
FF
FA
09
FC
F9
05
FD
08
F1
0E
05
FF
FA
02
03
FF
0C
F8
08
02
FA
07
06
F8
06
FC
05
02
0A
ED
0A
F9
F2
07
FE
02
0B
FB
0C
FB
01
07
FA
F9
07
00
F9
F8
FE
FC
FA
FB
03
F5
01
F9
04
06
F9
F1
FD
0A
03
F8
09
0C
FE
04
02
07
FC
04
02
FB
02
FC
08
00
0B
FB
09
F7
02
F9
FF
FD
05
F7
0C
04
FC
F4
F4
F7
0A
01
09
FD
FB
0C
05
04
FB
05
0D
01
FF
07
09
FB
03
03
01
FC
FE
05
F6
04
02
02
FB
FA
00
0B
F8
0C
FB
04
02
FD
00
0A
04
F8
04
FC
FC
02
F5
05
03
FE
05
00
01
FF
FF
01
FB
04
FE
FF
FC
03
F8
08
09
02
01
07
FF
F0
FD
0B
01
EE
FE
03
05
FA
01
F8
FC
02
FD
FA
F5
FB
03
FE
0F
01
F7
FB
05
06
F9
0A
FB
01
01
01
02
00
00
01
04
F9
07
0A
FA
FB
01
0A
09
0A
06
FE
FC
05
03
05
01
05
10
F7
FF
05
08
FC
F4
FC
03
00
07
03
00
05
05
FF
F9
0C
07
0D
FD
FE
F8
04
01
07
0F
FF
06
13
02
FB
FB
FC
04
FF
0A
FD
FE
F8
FF
07
00
0B
F5
FA
FF
04
FB
FD
05
0D
07
FC
05
08
FA
FA
02
08
00
01
03
03
04
02
EF
FF
F3
FD
F1
FE
FD
04
07
02
FC
F9
01
FD
FB
F8
F8
FE
08
F9
06
03
F8
FC
FA
FB
FF
F9
0D
01
FF
F9
FB
FD
02
03
00
09
F6
08
0A
FF
F9
03
04
09
04
04
F9
04
FD
FA
01
FE
0B
02
FF
0B
FC
FF
FB
FC
FB
FC
F9
08
01
10
FC
FF
F4
0A
05
02
08
FA
F7
F6
09
0D
00
FA
10
FE
F7
F8
FB
04
F4
FE
08
03
01
06
09
FF
04
02
01
01
EE
FF
F1
FE
F7
FD
FB
06
06
FE
FA
00
FE
04
FA
F4
F7
00
01
FB
01
04
F5
F9
F8
F5
FF
FB
11
FC
00
F4
02
00
00
05
05
09
FA
00
01
00
FA
01
04
02
FE
FE
F4
05
FE
FD
01
FB
0D
04
01
07
EF
FF
F9
F8
F1
F8
FD
04
FA
11
FD
00
F0
03
04
FF
10
F2
FD
F5
0B
0B
FC
FA
15
01
F2
F5
FF
01
FB
FF
07
0E
FE
06
F9
F9
03
FD
04
FD
FD
F8
F6
FB
F9
09
03
FE
0A
F6
00
FB
03
03
F9
F9
FD
F2
06
06
04
FF
F8
00
FF
06
03
01
01
03
FE
FD
02
FD
07
FF
FC
08
06
01
FC
00
05
FE
08
04
00
0E
FF
F7
00
FF
05
09
02
FF
FB
05
07
FF
0C
01
01
01
00
06
0D
04
00
FE
01
04
FD
06
07
00
06
01
02
08
FC
FF
04
FE
FF
FD
F6
03
F9
00
FE
FF
01
09
00
02
03
03
05
01
EE
FF
F2
FD
F0
FF
FD
03
07
03
FC
F8
02
FD
F9
F6
F8
FD
08
FA
07
03
F8
FC
FA
FC
FF
F9
0D
02
FE
F8
FA
FC
02
03
00
09
F7
09
0B
FF
F8
03
05
09
04
05
F8
04
FC
F9
00
FE
0C
00
FF
0E
FD
FE
FB
FE
FB
FE
F9
09
02
10
FB
FE
F4
0A
06
02
0A
FA
F6
F5
0A
0F
FF
F9
10
FE
F7
F8
F9
04
F2
FE
08
03
05
00
07
FD
F2
F9
FE
FE
FB
11
F2
04
FB
F5
F3
04
FC
06
FD
03
02
FA
F7
FA
03
F6
07
00
06
06
FB
07
FC
FF
03
FC
02
02
FF
07
F1
FF
01
06
00
0B
FC
08
05
F9
FA
0A
03
FC
04
01
F6
01
FD
F6
04
0A
05
FE
FA
0E
06
08
03
FD
02
0C
FB
FD
03
09
FC
00
02
07
FC
F9
07
08
FE
02
FF
06
02
07
02
F6
FC
03
F6
FB
F6
FE
09
02
00
F9
01
00
F7
FA
FA
02
F7
0B
01
0A
05
FB
F7
FB
FF
F7
08
07
08
04
EE
FB
FD
F1
FC
04
F8
08
FD
FD
F8
F8
FD
09
F7
07
F7
02
F2
00
FD
FD
04
06
FB
01
02
00
F8
00
FE
F9
03
FF
F9
F9
07
F1
F9
06
F6
FA
06
03
14
F9
04
05
FD
F3
FB
FA
0D
FF
F5
FD
FD
03
00
01
07
05
0C
FA
02
06
FA
09
0B
F2
06
09
F6
00
F6
FF
06
09
FF
01
03
09
FF
00
04
F7
0A
03
07
0A
0A
15
05
F5
FC
04
04
06
00
0A
F6
F9
03
FC
EE
FE
05
FD
0A
06
FC
03
FC
0E
F3
07
FF
01
FF
FE
FE
03
07
F5
0B
FE
FC
FF
06
FD
07
FD
FB
FB
02
FA
05
03
FD
FC
03
F8
09
01
06
02
00
0D
FF
01
06
04
FC
FC
FB
F4
04
F6
03
FA
02
FA
07
08
FB
F6
FC
F6
FC
08
04
02
F4
00
FE
03
F8
01
FF
00
F7
03
11
00
02
04
06
F7
0B
FE
06
04
0A
F9
04
02
05
F9
FE
00
0D
0C
02
0A
FF
FE
03
01
06
07
FC
0D
F8
03
00
FA
01
05
0A
FC
F6
FC
00
F9
00
01
01
04
04
01
03
FE
FE
F9
09
07
06
03
FA
F4
FA
06
FD
F9
02
FA
FA
06
00
FF
07
FB
05
F2
0A
FD
0B
01
F8
07
F1
02
FD
02
FF
F5
0A
F6
F1
09
FF
04
05
FF
0F
03
F8
F4
01
FA
0A
03
F9
FE
FE
FE
05
FD
04
01
09
09
01
02
F4
FF
FB
0D
FC
0E
00
01
04
02
F4
FE
F5
FA
06
F7
08
F9
07
03
F5
FC
09
FC
07
09
FE
03
FC
FA
08
EC
FC
00
04
F7
FB
F9
F5
FA
FF
FF
FB
0B
09
FF
00
FC
08
F4
F1
0A
03
FD
02
FE
05
02
F5
05
FF
02
00
F5
04
02
07
FB
03
03
FD
F9
F9
05
FD
00
02
F7
00
FE
05
FB
FB
09
00
0B
01
00
05
03
06
00
EF
FC
F0
FC
F0
02
FD
03
06
00
FC
F9
02
FF
FA
F6
F7
FC
08
FB
07
00
F6
FA
FC
FF
00
FA
0D
01
00
F8
FD
FC
04
04
00
09
FA
08
07
00
F9
02
06
09
03
06
FA
03
FC
FB
02
FD
0C
02
01
0D
FA
FF
FD
FC
F9
FD
FA
09
00
0F
FC
FE
F4
09
05
03
08
F8
F8
F7
09
0D
FF
F8
12
FF
F7
F8
FA
04
F5
00
07
03
FD
00
F8
F9
02
FB
06
FF
06
FA
FC
FC
FE
08
04
FF
0A
F5
03
FD
03
05
FA
F8
03
EE
02
0C
00
02
FB
08
FF
02
03
06
01
04
FD
01
02
FC
0A
F9
FA
08
04
00
F6
FE
04
FF
05
05
FF
0A
02
F3
03
04
03
0B
FC
FD
F7
FF
09
FF
0E
03
03
06
02
FF
0F
00
00
02
05
02
FC
04
06
03
0C
04
FD
04
FD
FE
04
FF
05
00
F7
03
00
01
FC
FD
01
09
01
02
04
03
05
02
EC
00
F0
FC
EF
FE
FD
03
08
03
FC
F7
01
FC
F9
F4
F8
FD
09
F9
07
03
F6
FC
F9
FA
00
F7
0F
01
FE
F7
FA
FC
03
04
00
0A
F6
09
0B
FF
F7
04
05
0A
03
05
F7
05
FB
F8
01
FE
0D
00
FF
0E
FC
FE
FA
FD
FA
FE
F8
09
02
12
FB
FF
F3
0A
06
02
0B
F8
F6
F5
0B
11
FF
F8
12
FF
F6
F7
F9
04
F1
FE
09
04
FE
0C
08
F7
0A
F8
01
FC
F4
FC
F3
05
FF
04
FF
03
02
F3
FE
03
FD
08
F9
F9
F2
FF
FD
01
04
03
ED
F8
F7
05
FD
0A
08
FB
04
F5
04
03
FD
07
02
09
03
F9
FD
FE
FC
02
07
F9
FB
00
F7
07
01
01
00
FC
0C
06
02
0B
F5
01
00
02
EF
F8
07
00
FC
0A
FB
F5
F6
08
F9
06
09
F2
01
FA
0B
05
00
F6
04
02
F1
F5
F9
FD
03
03
FE
09
00
05
05
09
00
FF
FF
02
F2
FB
EF
FB
00
04
FA
00
FE
05
FD
FF
07
0F
F5
F8
F7
F8
03
F9
01
FC
FB
FB
00
FD
01
F8
02
FC
F7
FC
03
00
FF
FF
03
00
00
00
05
01
FE
FB
0B
01
FF
FF
F7
09
FE
FB
0A
F9
07
02
05
08
FD
FE
00
FD
FC
FB
F5
06
01
0C
01
FC
FF
FF
07
01
0D
F5
FC
FA
06
09
FA
FD
11
FF
F8
05
FD
FB
F1
FF
00
09
02
06
04
04
01
FC
F9
07
EB
01
F8
04
FD
FD
00
07
FD
FD
FE
01
07
0B
F8
FE
F3
02
05
F7
FE
00
F8
F7
F8
F9
02
F8
05
F7
FC
FA
02
03
FA
00
02
03
FA
FB
09
04
FC
F9
02
FA
00
FC
F7
0B
FD
F7
04
FC
05
05
03
02
FD
FC
FA
FA
F7
F6
FA
04
02
0D
FF
FA
F9
06
03
06
0C
F4
F6
F4
0A
06
00
02
0C
F9
F5
00
00
FE
F8
FF
04
0A
FB
09
F4
03
FF
06
FE
FB
01
08
06
0A
F7
11
08
05
02
FA
06
02
08
FA
F8
FC
FB
04
08
FA
02
FC
02
01
F4
03
01
01
FB
10
04
FC
F8
FF
07
01
04
FA
00
07
04
07
03
FA
02
FF
06
0C
0A
F0
00
F7
F2
0C
03
FF
00
01
15
F7
FE
07
FE
02
03
08
04
FB
FE
F9
F9
07
06
FD
01
FA
FA
00
00
FB
05
09
05
FA
07
09
FB
07
FB
05
00
FB
FD
01
FD
11
FA
00
FE
0F
F5
02
02
FE
04
FF
04
09
F6
06
FF
FF
0F
0B
FB
09
03
00
06
F5
EF
FF
10
02
FB
F9
04
F9
F9
FD
03
08
FC
04
01
ED
FD
00
F4
FC
0A
00
F8
F4
03
02
03
F7
05
0F
F9
00
06
FB
FC
04
FC
F9
06
03
FD
FD
06
03
FB
00
04
07
04
01
02
01
0A
09
03
02
F3
F7
FF
FC
09
03
06
FD
01
0C
08
03
FA
02
04
00
FB
02
03
0C
FB
FF
04
FC
09
0B
06
0A
0C
12
05
FD
F9
01
05
07
00
09
F4
F8
04
02
F2
FD
FB
FE
0C
0B
F7
FF
FF
0D
F4
0A
03
00
FB
01
04
FD
09
F8
07
FB
FC
00
FF
FB
05
FF
FA
F9
04
FD
FE
06
FB
FF
01
F9
04
02
07
02
FE
0F
FB
08
09
FE
F9
FC
FB
F0
03
FA
06
F7
06
F8
02
05
FC
F4
FF
F5
FF
07
04
08
F7
00
04
08
F6
01
01
04
06
F9
FC
FC
00
F3
FC
00
FD
05
05
03
F6
F8
FD
FA
FE
05
F7
FF
F9
FD
F9
F7
F7
06
0A
FF
F2
F3
09
06
FE
0E
F5
05
02
F9
FA
03
FC
0D
03
05
0F
FA
FF
FA
04
04
FB
FB
FC
06
F6
FD
FF
FE
01
04
08
F4
0D
0C
03
07
06
05
05
F9
02
03
FB
00
F4
F6
FE
FF
FC
FF
FD
00
0B
00
00
04
F7
00
FB
FD
01
F6
F4
FD
F9
FF
01
03
06
FA
08
F7
03
FD
F5
FD
FD
FE
03
04
02
EF
FC
00
00
FC
FD
01
F7
FA
09
07
FA
07
FD
02
04
04
F0
F4
07
01
FC
04
06
F2
03
00
03
04
F1
0E
FE
00
01
FD
FF
02
FE
07
F1
F6
02
FD
FC
04
02
FB
FE
F9
00
06
06
00
F8
FF
FA
F6
FC
F1
00
FA
F6
FD
FF
01
F8
01
F8
03
F5
02
08
FD
05
04
FE
05
F8
FD
FB
F9
05
FD
05
FC
07
02
FE
0C
FD
F5
FD
FE
F9
F9
FF
00
FC
FF
F9
04
FC
06
FA
F6
00
06
FA
F7
07
02
F4
08
09
02
08
F6
F0
F1
07
09
02
FF
FE
04
06
F6
00
08
05
0E
01
03
0A
F6
FE
01
04
01
F9
F6
FF
0B
FD
FD
F7
03
FE
0E
02
FC
03
08
FD
04
04
FF
02
05
05
04
F8
FB
FB
F7
00
07
FD
FF
FD
FB
FC
01
00
02
FE
0E
F4
F8
00
FC
03
FD
03
01
FE
FE
01
FD
04
F9
FC
FE
F9
FA
0A
05
06
08
0D
FB
F9
01
F6
FC
03
0A
FD
FF
06
09
FD
06
F8
02
01
FE
FE
FE
04
0D
FA
06
F5
FE
03
07
02
04
FB
06
09
FA
0B
FB
FA
FF
02
03
FE
F4
02
F8
03
03
04
03
FB
01
FA
03
07
01
01
02
00
03
FF
FF
08
F5
F0
EF
04
FA
07
FA
F7
F7
F3
03
05
0B
F9
F4
FF
08
EE
FF
01
0C
09
F9
0C
06
FC
FE
FD
05
FE
0C
01
02
03
0F
EC
FE
FB
FD
FC
01
04
09
FF
01
FD
FA
09
09
F9
FE
FE
00
05
F4
F4
03
08
FF
F4
F6
05
F7
03
00
02
FB
FF
01
03
F1
FF
0A
F2
FC
0A
FE
F7
F8
07
07
00
FC
FD
0C
F8
FF
05
FA
02
03
FC
FE
FD
02
FC
FF
FF
01
FC
05
0A
0E
00
FE
F9
05
0B
0C
0E
F9
F3
F2
07
06
06
FC
0E
FE
FC
FF
01
05
F8
FF
02
06
FE
01
FC
09
F9
FD
FE
0C
F0
04
FB
02
FE
00
00
0A
FC
FC
01
FF
0F
0A
F0
FF
FF
F7
08
F9
F2
03
06
00
F6
F9
04
F8
FA
FF
FE
03
F8
02
05
F0
FF
07
F5
01
08
00
F9
F7
06
01
03
FF
FD
04
FC
F6
04
02
FD
03
FC
FE
0B
FD
02
FD
00
FE
F8
01
0E
0B
FF
00
FC
05
04
09
0C
00
F8
F5
03
04
04
07
10
F3
00
0A
FE
04
F4
FE
05
05
FC
05
F6
03
0B
FF
02
08
F4
FD
07
FF
F3
04
0A
FC
0B
F3
06
FD
FB
FA
03
F3
FB
07
00
00
03
00
FA
FD
EE
F7
00
00
05
0C
FF
EC
FF
FD
02
01
FF
08
FE
FD
04
02
03
FC
FE
FE
FA
04
F6
F9
FC
F9
F3
0A
FD
F6
FE
01
07
FA
FB
0C
00
02
07
06
12
FE
FB
FC
FF
07
00
06
0D
F7
FE
F5
08
06
03
00
03
01
FF
EF
80
F5
06
02
FF
FC
05
02
FA
03
09
FC
06
04
FC
0B
03
06
03
0F
05
FC
FB
FA
0A
02
06
06
0B
F9
02
08
FB
F2
FB
FB
FD
14
06
05
01
FC
06
F4
02
FF
0C
01
FF
01
F7
09
F4
03
05
FE
FF
FF
FA
07
06
04
F3
09
01
08
03
01
F5
FE
02
08
F9
FF
01
FE
02
00
FD
FD
FC
F5
FC
04
03
04
F2
07
F6
FB
02
05
0A
F8
F6
FA
F9
01
08
05
0E
04
FF
01
06
FC
00
FA
05
F9
09
02
FB
FD
0B
F9
04
07
04
FF
08
09
03
FE
F4
07
01
06
03
F9
FD
FF
02
02
FE
F8
00
04
03
F0
FC
03
01
FB
07
01
F8
FD
02
03
F8
00
02
FD
FA
03
00
00
F7
03
F9
FB
FE
FF
FF
FB
FC
F8
07
FA
FC
FC
FD
10
FB
01
0B
00
05
05
00
10
FB
FD
F6
04
05
02
06
09
FA
FC
F8
02
FD
06
04
FF
FE
03
03
FB
02
02
03
FA
03
09
F2
08
F2
FB
FE
F7
FD
04
0D
09
08
02
E5
F8
03
01
FF
02
00
F8
EF
08
07
01
08
FE
09
00
0D
F5
FF
03
FD
FB
04
09
F5
01
0B
FB
01
F2
0B
00
04
F9
06
FF
FF
F5
11
ED
F8
09
FC
FE
00
05
F8
FA
00
FB
08
FD
02
FD
FC
F9
F6
F9
F7
FF
EF
F5
F9
FC
07
F7
03
F3
FA
F1
0C
08
FF
01
00
04
0A
F9
FA
FF
FE
0B
FD
09
FB
0A
00
00
00
01
04
FD
F8
F9
0A
F7
07
FD
01
FD
FA
03
05
F9
01
FE
FE
FF
FE
04
FF
01
03
06
01
FF
00
FA
01
FB
FD
06
FB
03
FA
FF
FC
FD
02
FE
01
FB
05
FD
F9
08
FD
FF
02
FD
F7
F9
FE
F4
0C
F6
FD
04
06
FE
FA
FA
05
01
04
FF
01
00
0B
00
FF
07
05
00
FB
07
07
FB
07
07
01
F7
FA
03
05
06
04
F7
FC
FB
FB
FD
FC
FC
FB
01
03
03
F9
FC
FC
FF
02
FD
FF
04
00
0A
01
06
F8
FB
FB
03
FF
06
FF
06
FC
FF
0D
02
F9
FF
02
FD
02
05
FF
05
07
FA
03
F8
FE
FB
0C
FD
FC
FA
FA
FF
FF
FA
09
01
01
FD
01
FE
02
09
00
08
FE
0D
F8
FB
FC
F8
07
04
F9
0A
F7
01
FF
07
EF
FB
F9
04
F6
01
0B
00
FF
FC
03
F2
0E
0A
02
FD
FD
01
04
00
FB
08
0D
04
01
00
FF
04
FA
F9
09
F9
0B
FC
FF
03
07
F8
01
FA
FF
00
11
04
05
FD
FA
03
00
0B
0D
F1
FC
00
F5
06
FC
F7
FE
08
08
F6
00
06
FF
FB
08
02
FF
FB
00
0C
F3
FF
08
01
FB
01
FE
00
F6
0E
03
01
03
04
01
F9
01
04
06
FF
FD
FA
02
0F
02
0A
07
03
09
00
04
0E
04
03
F6
05
05
06
08
0C
FD
F8
FD
FE
FF
04
FF
08
FA
05
0B
F8
03
F9
06
FC
FE
FF
0D
FA
FC
FB
FC
02
FC
FF
FD
FA
00
FB
0C
03
08
F8
00
FD
FD
06
00
FE
09
00
F9
10
FE
03
F8
FE
02
07
12
09
FD
F5
02
09
05
F9
03
09
FD
F7
04
05
FD
03
00
05
FF
06
01
04
0B
0A
01
F7
02
0A
0B
02
02
FA
08
09
07
0D
FF
09
0A
02
06
04
04
04
FE
08
08
01
09
FA
08
F3
02
F8
FF
07
06
F7
F6
05
07
FD
01
FA
02
01
F4
FC
02
FE
01
0A
0B
0E
05
FE
F4
FC
F6
F5
06
FD
FA
11
FC
00
FB
F9
FE
06
EF
00
01
FD
02
04
01
00
03
F6
F8
FD
F9
10
06
FB
F0
0A
FA
08
FE
04
06
FE
04
FA
03
00
FC
0A
0D
FB
00
F9
F6
03
01
F9
FF
04
FE
FF
FE
F2
F8
FC
02
FB
FE
01
03
04
02
02
09
F9
FD
05
FD
0C
F3
05
FB
04
05
FA
F4
0F
0C
FB
F1
02
06
08
00
FB
05
03
04
07
FB
FD
05
03
F6
05
F4
F2
F8
0A
0A
F3
FE
FB
02
F9
07
02
0F
F8
00
FB
F3
FB
FD
01
F8
FD
F8
11
0A
02
FC
F9
FE
FE
02
08
03
03
00
04
FD
0B
FD
FA
FF
07
FA
09
05
02
01
01
FF
05
06
0D
FB
06
05
0A
02
F4
04
0B
FB
04
FC
F9
04
F3
05
05
03
FF
F5
03
FD
00
FB
04
08
FA
00
F3
FF
04
03
FD
05
00
FC
F9
04
00
04
02
F7
02
02
00
FB
FD
01
08
01
F9
02
02
03
FE
FD
FD
03
04
06
04
08
F9
F4
03
FA
FF
03
06
00
05
0A
F9
FE
01
FB
01
FC
F2
00
0A
F9
01
00
04
F9
04
03
FD
09
04
FD
0A
F7
FD
FF
F8
FB
08
F9
02
03
FA
FF
00
FB
05
F8
00
00
F8
08
00
FC
07
FE
04
06
0A
FB
FB
FC
0D
FB
07
05
FE
FD
FB
02
04
00
FA
07
FC
FA
FF
FE
F9
09
03
00
00
F7
00
04
00
F4
04
FB
00
00
FC
08
F8
F8
01
FC
00
0A
FC
00
FE
F8
FC
FD
FA
01
0E
FA
FC
F6
03
02
FF
01
FA
07
F9
F8
04
FE
00
09
05
FB
0B
02
FC
07
0A
FC
05
FD
FF
07
FB
EE
0B
FA
FB
04
FF
FA
0D
FE
FF
FA
01
03
00
F9
01
06
FF
FC
FE
07
00
F8
FD
FA
03
FA
0B
07
FE
FF
F4
08
00
FD
01
F9
F9
01
FE
FC
FD
06
FF
05
FA
0B
0D
04
00
07
FC
F9
0B
00
07
05
0B
FF
FE
02
04
FC
07
07
06
0F
FC
0B
FF
F3
FC
FA
0B
FF
F9
08
FA
FF
FB
FB
FF
05
07
01
F5
F8
04
F6
FB
FF
08
03
02
F9
05
00
04
F8
0D
0E
05
FF
FD
F1
FC
09
02
F5
04
F8
F7
05
01
F8
01
03
02
F9
09
FB
06
FF
03
0A
F5
00
F7
FD
01
F7
08
FA
FA
08
00
0A
08
01
04
05
FE
F9
FF
09
FF
07
FC
02
03
05
F4
02
F8
04
FC
09
FE
0C
FB
00
02
02
0F
0A
F2
FC
FE
FE
07
F8
F9
FE
07
03
F6
00
03
FA
FC
03
01
02
FA
01
09
F3
05
04
F7
06
08
04
F8
F6
11
05
04
FF
01
05
FE
F9
00
03
05
06
FF
00
04
FB
00
FF
F6
01
FE
02
01
0B
01
FD
FB
06
08
02
0B
F9
F2
F9
02
FD
03
FF
11
F8
FB
0E
01
03
F9
02
01
02
FD
04
F7
0A
02
06
03
01
FF
FE
08
04
00
10
0B
FF
FE
02
04
FD
09
07
FB
03
02
02
FF
F7
FD
FA
0F
04
F8
05
00
FF
F8
06
02
03
01
FF
01
F7
02
F8
00
04
05
03
03
F8
06
04
03
01
0C
FF
01
FE
FD
FB
00
03
02
F8
0C
FA
FF
07
01
FF
00
08
05
FF
04
FC
02
00
09
04
FE
FC
F8
FF
FF
F8
05
FD
05
03
04
09
FE
06
FC
04
FE
FA
08
F3
06
F7
FF
07
00
FC
0B
01
0A
00
04
EA
FB
00
05
09
FD
FD
F9
F3
10
0D
08
07
FC
04
FE
06
03
01
0D
FF
FB
01
09
F6
03
0D
03
FE
F7
03
00
FE
F9
0A
FD
00
F8
0A
F2
07
09
FB
08
02
08
04
FD
F5
FD
0C
00
F8
F3
FF
F8
F2
03
F4
FC
F5
F0
FA
03
13
F5
FC
FD
FA
EE
0D
05
05
FE
00
01
FF
FD
02
01
FE
10
00
09
FE
07
FA
01
06
F6
03
02
08
05
FE
FA
FA
03
F9
F3
04
03
F7
07
03
FF
F9
FD
F3
04
02
FF
02
07
FB
09
F9
FE
F8
06
00
03
FB
FC
0B
00
F9
F7
FD
03
05
FA
00
00
06
0C
FF
03
00
FB
09
03
0E
04
FB
FC
FD
FF
05
01
F5
04
04
08
02
00
04
12
00
FC
0E
09
00
FC
03
FE
06
09
07
F9
06
FA
FC
01
09
01
01
FE
FD
09
F6
F8
09
F4
FB
03
F6
00
07
FC
07
02
07
06
04
F0
FF
F8
F8
EE
F8
FF
FE
0B
07
FD
F3
01
F5
FF
F8
FC
FE
0B
F9
08
04
FC
FD
FE
F7
01
F7
0D
06
FC
F9
F5
F9
05
02
FE
07
F4
10
0E
FE
F9
04
FE
0F
05
08
FA
04
FC
F8
00
00
08
FB
FE
0D
03
FE
F9
FF
05
00
F6
0A
06
0D
FB
03
F6
0A
0A
02
04
00
F5
F6
0B
12
01
FB
0E
FF
FE
F5
F9
07
F0
FB
09
FD
FB
07
FD
10
03
07
07
08
F6
FC
FF
FC
FD
0C
03
04
02
01
01
FD
08
0A
F6
FA
FE
FF
FE
F5
F6
FE
0C
03
F5
F8
FF
FC
03
07
01
F9
FF
FF
07
F3
06
02
F9
FF
04
00
FB
F4
0C
0C
FF
FD
02
05
FE
02
FF
F9
03
FF
01
FC
FF
FF
FC
05
FE
00
FE
06
03
08
00
FE
FA
FF
0F
02
0B
F4
F9
F7
03
00
00
F5
11
04
00
05
FF
07
FC
06
FE
02
02
FB
FD
FC
FE
04
FB
FD
0C
F9
06
FB
0D
FB
F8
F9
FB
04
00
03
FC
FF
0F
10
00
01
FD
01
03
F8
03
FC
12
0E
FC
FF
F3
FB
FE
08
08
02
F9
FF
02
F9
09
FC
FC
FE
08
00
FE
FD
02
FA
06
06
06
08
06
FB
F8
01
06
FC
FF
03
06
FF
11
FE
00
FB
F6
F1
09
05
0F
F5
FE
FD
ED
09
05
0D
F6
F8
FD
05
ED
03
06
0A
0C
FA
06
02
FD
F7
02
06
FF
03
0A
06
06
01
FA
F7
FD
F9
F7
FD
05
FF
07
0B
FB
F2
FE
FA
0B
06
FF
07
07
FC
07
00
FF
00
05
03
FE
FA
0D
F8
03
02
03
FB
FD
04
FA
FF
F8
08
07
02
FC
06
FD
0B
04
02
06
0B
FD
05
05
F5
08
07
FE
03
F5
02
F9
F9
00
FC
FC
07
FC
09
05
05
FA
07
04
06
F9
01
F3
FC
05
07
04
F5
02
07
F9
F9
04
03
FE
FC
05
F8
04
FF
08
FB
F4
FD
01
F8
05
10
F3
07
FE
FA
F4
FF
FC
09
FF
07
00
FB
F7
F5
06
F9
FF
01
0B
05
FF
0D
FA
03
FF
01
01
04
FB
06
F7
FD
00
08
06
03
03
0D
01
FD
FE
0B
07
FC
03
FE
FA
FB
03
F8
00
07
04
FC
00
0B
06
05
00
01
FA
0B
00
FC
FD
02
FC
03
05
00
F9
F3
05
05
02
08
FB
01
FE
02
FE
FC
FB
04
F6
F8
FA
00
04
03
00
FC
FA
00
FA
FF
F6
03
F8
0D
0B
0A
FA
FD
01
01
00
F3
07
06
08
FB
F4
FD
FB
00
06
FF
FB
02
FB
F9
F6
F6
02
02
FA
09
FC
FC
F4
01
FD
02
02
01
FB
03
05
05
FF
FD
F6
F6
04
07
FD
F2
04
ED
F3
0B
F9
FB
04
FB
15
F5
FF
02
01
F5
FB
00
0E
FB
F7
FE
FA
08
02
03
05
01
04
F8
04
04
01
13
09
F0
07
05
F7
03
F9
FB
06
07
01
F7
FD
06
01
FF
F7
0E
FE
07
07
FF
FD
EF
02
01
01
01
02
FE
FC
F7
09
FD
05
08
05
02
FE
08
FF
03
F5
F3
03
F9
0A
FD
FA
FC
00
FE
FC
FE
FD
03
F6
00
04
FF
FC
04
F9
F8
FD
FB
F6
05
FB
FC
FB
04
F7
FA
F5
FE
FF
FE
F8
FF
00
0C
FD
F8
09
FB
01
03
07
03
FD
00
05
01
FD
FC
05
03
07
07
FB
00
FE
FA
04
FC
06
FB
02
05
00
00
01
02
FE
FE
04
02
F9
06
F8
FD
F6
F6
FC
FC
08
00
00
FC
FA
F8
FB
F0
01
FA
02
06
05
06
F9
01
F9
F6
00
FF
08
06
FA
F7
F5
FC
04
04
FE
0D
FE
05
04
FA
FB
07
FE
03
FD
04
F2
FD
FA
F9
FE
07
03
F2
FD
0D
02
02
FE
05
04
08
FD
01
0B
07
F5
FF
FD
07
00
FF
0C
00
02
FA
09
0E
FE
FC
07
00
FD
F3
F5
01
F9
FA
03
03
FE
00
FD
FF
07
00
00
07
00
FE
FD
FA
F5
FA
FE
FF
07
FE
03
FB
FE
F9
09
F7
FF
05
07
03
08
02
FA
03
F8
F9
FF
F7
0E
02
F7
F5
09
FA
04
02
00
03
FE
04
FF
05
01
00
02
FE
FF
02
F7
FD
00
FB
FB
05
FC
FE
FA
01
FD
F7
FC
00
FB
09
01
FE
09
FD
03
06
04
04
FB
FE
08
FA
FF
FD
06
03
00
05
01
01
FB
F8
03
FF
06
FD
FE
05
01
0A
FB
F8
00
FD
FE
F9
03
01
FE
03
F8
02
FF
FF
FE
02
00
FF
FA
F0
08
04
FA
03
0A
02
10
FC
F5
00
03
12
03
01
FC
04
02
FE
FA
FD
01
0C
FD
02
07
01
06
01
02
08
00
F7
01
0B
00
FE
FC
FC
FF
0A
02
FA
FD
0E
0A
01
04
04
05
09
06
03
02
F7
FC
F8
08
0B
F9
01
F5
06
F9
04
FD
02
05
09
ED
FB
FF
FD
F9
FF
FF
FE
00
F4
03
FB
06
08
FB
02
00
07
00
02
FC
F8
05
FC
01
02
F8
10
FA
FC
00
04
06
05
05
03
01
F9
FF
FE
08
05
05
FD
02
F6
01
F7
05
07
01
03
FE
FC
FC
F9
FE
FD
05
FA
00
01
FE
00
FD
F8
03
0F
F8
08
0D
FA
00
02
FD
FE
F5
09
FD
FA
07
0D
FC
00
F8
07
08
01
09
FA
07
FF
FE
04
F6
04
FA
FE
01
FF
FA
04
FE
02
06
FB
FB
FE
02
FF
FF
0D
FD
FB
FE
FA
FE
FF
F5
F9
F5
04
FD
0C
02
08
FB
FB
FD
FF
0B
09
F4
04
FA
F6
0C
FB
01
FC
F9
FC
00
10
06
FE
F6
FF
04
03
FB
02
03
FD
FB
06
02
FD
06
02
04
FB
0A
FF
03
0A
04
05
FE
FC
0A
04
04
06
01
08
09
02
0C
FF
01
FF
01
07
08
09
02
FC
01
0B
FF
0F
02
01
F8
FC
FF
03
03
04
01
F4
FD
04
F7
00
F4
01
01
FD
