FE
FC
FF
01
FE
01
02
FD
FD
03
02
F9
00
FF
FA
FC
FD
02
FE
03
FD
03
FE
03
FD
FE
FF
FE
00
00
00
FE
F7
FE
01
07
01
FE
FF
FF
02
FF
02
FF
05
07
FC
F9
02
FD
02
03
07
00
02
FE
FF
FB
FD
FF
01
FE
03
01
FC
FF
FF
09
FE
04
00
03
00
FC
F8
FF
06
FF
00
03
FD
FA
05
00
02
00
03
01
FF
01
00
FD
FE
01
F9
01
FE
01
02
FE
FA
FD
FC
03
01
00
FA
00
03
02
06
FC
FD
04
FF
F9
02
05
06
02
FA
FE
02
06
FE
FD
06
FE
01
01
FF
FC
FC
FC
FE
FD
04
FA
FC
FC
FF
FE
FE
03
FB
FF
01
01
FB
FE
05
05
F9
00
FE
00
FD
02
FD
04
FE
FA
01
F8
F9
FD
FF
02
FC
04
FB
03
FE
02
02
FE
F9
08
FA
04
FA
00
05
02
00
02
01
03
03
02
FE
FC
01
FE
01
04
03
FE
03
FB
FF
FB
FB
04
FF
FA
02
01
01
FE
FC
FF
02
FD
03
FC
FE
FE
01
FC
FF
00
03
FF
06
FA
02
FF
03
02
00
00
03
FE
FE
F7
01
FD
07
FD
FC
FC
FF
00
03
00
00
01
05
00
FB
FC
FA
03
05
FF
FE
FA
01
01
FF
01
FB
FE
FC
FC
00
FC
03
01
FD
FD
F8
FF
FD
04
03
FC
0A
FD
02
03
FE
01
FD
04
00
03
02
03
01
00
FD
01
01
04
02
FB
01
01
FB
F9
02
01
FE
00
03
FA
FA
00
FF
FE
00
FB
03
FE
05
03
02
02
FD
03
FF
0B
01
01
02
05
04
04
FD
F9
01
01
03
00
FD
00
FC
00
00
F9
FC
FD
F9
00
03
FD
03
FF
F9
00
06
03
01
05
01
02
01
03
FF
04
FF
FD
FE
FF
05
FE
FF
01
FD
FB
00
00
FB
FE
FF
FA
07
02
FB
FE
08
00
FD
FF
FA
FD
FE
FE
00
FE
02
01
FE
08
06
FA
02
FC
FE
F7
FA
03
02
02
FB
FF
00
FC
FA
FD
04
07
FC
FD
04
04
FD
FC
04
03
FB
01
01
FA
01
FE
FF
FF
00
00
FE
FC
06
FD
01
05
00
FB
05
04
03
01
02
06
03
FF
01
09
00
02
00
FC
03
07
01
03
08
FA
FF
FE
02
FD
02
09
FB
02
04
08
03
03
FE
FD
00
02
F9
FD
00
01
01
01
FF
06
F8
FE
FF
FC
FF
09
F9
FE
FE
03
FB
01
FF
03
FB
FC
00
FF
03
01
FE
04
02
FB
FF
01
01
FE
