00
FD
FF
FE
05
FC
FF
03
FF
FB
00
05
02
FD
02
FC
FE
FE
00
00
FF
FC
FA
04
FC
01
00
FE
02
03
FA
04
FB
FE
FC
FD
FD
04
02
04
FC
05
FE
01
FE
00
00
00
03
FF
F9
00
00
02
FF
FC
FB
02
FE
02
01
FD
03
FB
FF
03
01
01
02
05
FC
00
FF
FF
FD
FF
02
FE
FD
FF
02
FF
03
00
00
05
04
FE
FA
01
03
00
03
FC
FE
FF
FB
05
FE
02
00
FB
FF
04
03
03
FE
FD
02
FE
FE
FF
00
FE
02
01
FE
01
FC
FF
00
FC
FC
02
02
05
FE
05
03
01
FF
05
FD
FD
05
02
03
05
FF
FE
FF
00
FE
FE
00
FC
FD
FE
06
00
FD
FB
F7
FF
03
07
FD
03
FD
FD
FF
00
05
03
FF
FE
01
FF
00
FE
FE
00
02
04
01
FC
FE
01
02
06
02
02
05
FA
FE
FF
06
FD
F8
01
00
FF
04
01
FD
FE
07
03
01
FD
02
03
02
00
00
FD
03
01
02
00
FC
F9
00
FE
FF
FD
FB
01
FE
FA
FF
FD
02
FE
FE
01
FE
FF
FF
FF
01
01
FF
00
03
FD
03
03
FC
01
FD
FF
04
04
FA
FB
FD
01
00
02
05
02
01
FD
03
00
01
FC
FC
00
03
F9
03
FC
FE
00
FF
03
FE
FD
02
FE
02
00
03
04
02
03
FB
03
02
03
FF
00
01
FF
FF
04
02
FF
00
03
FE
FF
05
FF
03
00
FD
FF
03
02
01
01
FF
FE
FC
02
02
FE
01
04
03
FB
FF
00
03
FE
03
02
00
02
01
06
05
05
00
00
07
02
FF
FE
07
FB
00
FF
FF
FE
07
02
FD
FF
FE
01
F9
02
05
00
FF
01
FD
03
FC
02
FE
01
FB
FD
FC
03
00
FB
FC
05
FF
FB
FE
FD
FC
FA
FA
04
FF
03
FC
01
FE
FF
01
02
04
FF
01
FE
00
05
04
06
FB
02
FC
01
FE
04
02
FD
FE
FD
FC
FF
00
FE
01
00
FF
03
FF
02
01
04
FB
01
00
01
01
FD
FB
FD
FD
FF
FF
00
02
FF
FE
01
03
02
03
00
03
07
01
00
FF
FF
01
FB
02
FF
FB
FE
04
FE
FB
FD
FC
FD
FE
01
03
02
01
FF
01
02
FB
05
02
FA
FF
00
FC
04
FD
02
FF
02
FC
02
01
FB
04
FE
FD
FF
03
FB
01
01
01
00
FB
04
05
07
01
FE
03
01
01
02
07
FE
09
FF
FC
FE
00
FE
FC
FD
02
06
01
FD
FF
01
01
FF
FD
FE
