0F
0A
09
0A
0D
03
07
09
0D
16
05
11
11
0C
08
0B
01
01
03
05
08
14
0D
04
04
12
00
FC
09
05
FF
14
0A
09
0D
FA
07
15
01
02
09
17
0F
0B
05
0A
03
07
0D
08
00
13
01
02
0C
12
03
02
00
12
05
14
0D
01
08
0E
0D
0D
08
0A
0D
FD
0A
08
0B
08
07
FA
09
0D
08
0C
05
0E
FD
10
FD
05
0E
09
FF
0A
FE
07
0D
05
00
10
07
0C
06
04
02
06
07
06
05
0A
0E
0C
10
0D
0C
11
12
06
09
0E
04
09
11
0F
09
06
07
0A
FE
08
04
03
0B
17
0B
FD
02
0A
04
01
0C
06
02
0F
10
0F
08
0F
0E
11
0C
0D
0E
09
05
0D
0B
0F
08
FE
04
13
0C
FD
FD
0B
0B
09
05
12
07
0A
09
04
04
0C
0A
04
03
0E
06
00
05
0B
0F
0A
0D
03
08
FE
09
0B
08
09
08
07
03
10
13
04
0B
FF
0E
0F
03
15
0B
FF
14
FB
09
05
08
09
0F
FF
16
0C
02
08
0B
10
0A
0A
0E
06
06
0B
07
06
0C
08
14
FA
0E
04
05
05
08
FD
0A
0C
0D
0C
14
0E
0C
13
07
0D
FC
09
05
06
01
07
08
09
