03
17
0D
FE
09
15
09
08
05
19
01
15
05
0F
07
15
14
FC
05
09
01
FD
08
0E
0F
1A
19
21
04
18
F9
FD
0E
FE
0F
0C
03
05
09
11
0D
FC
0E
0D
0B
13
10
06
13
FD
0E
12
06
FB
1C
03
FD
02
FF
0F
14
13
06
12
06
13
10
05
10
10
07
11
03
F4
10
15
09
05
00
05
0D
0D
18
03
05
11
09
0B
FD
FC
00
1A
04
0F
13
16
FD
0C
15
07
06
0B
17
02
08
07
0A
1A
10
09
15
0A
FA
F8
13
13
FE
03
04
01
03
14
0C
FF
03
01
0E
04
0A
FC
18
0D
15
03
18
00
15
05
10
0D
14
04
06
11
02
06
11
04
0C
FE
0F
0C
0B
02
0F
14
0E
FF
10
FF
03
0A
14
03
1E
13
10
F7
02
0D
0F
12
04
07
06
04
0A
17
FF
18
02
00
05
0C
0A
0A
03
06
0B
1B
12
FB
05
0E
0B
FD
0E
13
08
0B
F4
07
08
02
0F
15
06
12
FC
0A
F6
12
10
FD
02
0A
14
FB
10
12
0C
FE
0D
08
05
01
07
10
10
08
FC
17
17
0E
07
00
08
FE
05
11
10
12
0F
FE
10
10
FF
11
14
14
09
0C
FE
0D
0D
17
