F6
02
F6
F9
FC
04
FE
F9
FE
FF
F8
FB
05
FB
00
F7
06
07
06
FC
00
FB
00
FD
06
FE
F3
04
FB
F5
07
FA
FD
02
F9
07
04
FE
08
FB
03
FC
00
FF
00
F5
FB
FF
01
F5
FF
FF
F8
02
F9
FD
FF
07
07
FB
01
FB
FD
06
07
F6
02
FB
00
02
FD
FA
F2
F2
F8
FB
FB
F5
F8
FC
05
FA
FF
FC
07
FD
FB
F9
F8
F9
00
F8
07
08
FD
F8
FF
00
FC
FA
FD
09
02
F9
01
09
03
01
F7
F6
F6
FE
FD
F8
FD
03
FC
01
08
F4
F7
FC
F8
04
04
01
FE
FF
F6
00
FA
FB
F9
01
05
F9
03
02
FD
0B
08
FF
00
F5
07
FE
01
F5
FC
F9
FF
FD
FE
FA
FD
01
FC
08
03
F4
F8
03
07
02
06
F9
09
FD
02
FA
08
00
02
FF
00
FF
01
FB
01
06
FA
FE
F6
00
FD
01
0B
0B
05
FA
FA
FA
FE
F2
0B
02
FA
FC
FE
04
FC
FC
FE
FA
FB
02
FB
FC
FC
FB
03
F8
F8
FE
F9
FC
02
05
FD
F8
F6
F7
FA
FE
02
FF
00
00
03
FC
FE
FF
FD
FA
FE
FE
FF
10
05
FA
02
F4
FF
FF
FE
FA
02
FA
08
F9
05
FE
0B
04
FD
FD
FC
F8
FC
F8
F8
F7
FE
03
FC
03
F1
FC
07
FE
FB
03
F5
04
01
01
FD
00
FC
FF
05
F6
FD
00
FC
F1
01
F5
FE
01
FA
FE
F9
05
FA
FE
F3
01
FE
FE
03
FB
04
04
04
FF
03
02
02
F2
FD
08
FA
05
02
05
FC
F1
FE
F6
01
FA
F7
01
00
02
01
F3
F8
04
06
FF
F9
03
FF
FC
FE
FC
F9
FC
FA
06
F8
FF
F1
09
F8
06
00
F7
FB
FF
F8
00
F7
09
FC
05
F5
FB
FA
F0
00
00
F9
F4
F4
F9
FB
00
F9
0A
F6
F7
FF
04
F4
02
FD
F9
F3
FB
FA
F4
00
F9
01
F3
FF
EE
00
F9
FC
F6
F9
FF
05
F8
04
05
FB
09
00
03
F2
F7
01
02
08
FF
0D
08
04
FB
FA
03
F9
00
F5
02
0C
F9
06
03
FE
FB
00
04
04
FB
FB
FC
00
F2
FC
FD
FD
F5
F3
05
FF
02
FA
FA
F6
F8
FA
04
FB
F0
05
F7
F8
FB
FD
FA
FB
02
04
F4
FB
F8
F1
F7
FF
F2
05
F7
F2
F5
F7
FC
FB
F5
01
FC
FB
FC
0A
01
06
FB
F7
FC
F7
FF
07
FE
FE
F7
F9
FC
F7
FC
F5
FD
FB
F8
09
EF
F2
F8
01
02
F4
04
07
FA
03
FD
FC
F5
FC
01
00
03
03
FC
FC
FD
03
FC
FD
FF
FC
01
FE
FC
FD
FB
FC
01
01
FD
FF
02
FB
00
FE
FE
01
FC
00
02
FD
FE
03
FF
FE
02
FD
02
FF
FD
02
02
00
FE
FC
01
02
FE
FD
FF
FD
03
FF
02
00
FE
FE
01
FC
FD
02
02
00
01
FC
FE
FE
01
FF
01
FD
FE
00
FC
00
02
03
FC
FF
FC
FC
00
FC
FD
FE
01
FC
02
FE
00
FF
FC
02
01
FD
FF
01
00
FF
FE
FE
02
FD
01
FC
02
00
FE
02
FD
FF
FE
01
FE
02
FC
FC
02
00
FE
03
00
FC
02
01
03
02
01
03
FF
01
01
FC
FB
FE
02
FC
01
02
02
02
00
FD
03
FD
FF
00
FD
FD
FF
01
02
FE
01
FF
02
FC
FE
FF
00
FD
FD
FE
01
FC
02
02
01
01
01
FF
FE
FD
FD
FF
FF
FC
FF
FD
FF
FD
FD
FF
01
FC
02
FC
FD
01
FF
FE
FE
FC
FF
FF
FF
FE
FF
FF
FE
FD
FF
00
01
FF
FF
FE
FD
02
02
02
01
FE
FF
02
00
FD
FD
FC
FD
FF
00
FE
01
FE
FE
02
02
03
02
00
00
FD
03
FE
FF
FC
FD
01
02
FE
FF
00
FD
FC
FC
01
02
00
FE
02
FD
FC
00
FF
00
F7
05
FC
02
FE
FA
F9
F6
FD
F7
F4
FF
F9
FA
FA
FC
FF
F8
F8
06
F8
05
FE
00
F8
FD
FF
05
03
FE
EE
01
FB
04
0B
F5
F9
FC
03
EC
04
01
04
F1
F8
FF
FC
02
F8
FD
FF
06
FA
F7
01
08
00
09
FE
FA
01
04
FB
F3
F9
F6
F9
0C
F3
FE
03
00
F9
F5
FB
FB
FB
F9
09
09
FA
07
02
F5
FA
F9
03
FC
03
F9
FF
04
ED
F7
05
F4
FE
F5
FB
00
00
FA
08
06
F4
FD
04
03
F7
F9
F9
FC
F6
FD
F5
FF
02
F1
FB
F0
03
FA
FA
0C
FF
01
0E
02
FB
FA
FA
06
FD
00
02
05
04
FE
03
07
F4
FE
F5
FE
07
FF
08
FA
F0
FB
FB
07
F7
08
F5
07
F7
FB
FC
03
FE
01
00
FE
03
09
F6
F9
02
FB
F3
F5
F1
0D
EE
FD
F6
0B
06
F5
FE
03
04
F4
FB
04
FE
0A
F8
FC
F7
FB
08
F2
03
FA
F8
FD
F4
FB
FC
FA
F5
FD
01
00
07
FA
07
FA
FD
06
F6
F5
FF
05
F8
07
FB
F1
FC
F5
FC
FE
FF
F9
FD
08
FF
FF
0C
FF
FC
F9
FF
FD
F1
09
00
04
F9
F7
F8
FC
01
F8
FD
05
01
FF
FA
FB
F4
02
00
F8
F5
03
FF
FF
F7
00
FA
F7
FD
02
F8
03
00
F2
02
FC
FA
02
02
0A
04
01
F5
E1
00
08
09
0A
FE
DF
02
FF
01
FC
05
05
02
01
F5
F9
02
05
F6
02
00
F8
FB
05
06
FA
FE
07
F9
08
FD
FB
04
03
03
E0
FE
00
FB
FD
FD
FC
04
06
02
00
0A
F7
F9
00
FC
FC
F9
FF
FF
05
00
FA
04
FE
F2
FE
03
FE
FD
FA
FE
03
00
FB
00
F8
FD
FB
FF
07
F7
F9
FD
FE
01
FE
0B
FA
FB
E8
FE
F6
08
F8
FD
01
02
FF
E7
FE
00
00
F8
08
FF
FD
FE
FE
F9
DA
F9
FD
00
07
04
FC
0B
FF
FC
01
F7
03
00
00
F6
FD
04
06
F7
FD
00
FD
FD
FF
FC
00
03
F8
F6
01
FF
09
FB
FB
07
07
FD
FF
F4
F5
00
FE
F1
06
FB
02
05
00
03
04
03
F5
FD
FF
FF
06
01
08
F4
FB
02
FD
FA
02
FD
01
F9
F6
F8
FE
FB
E1
F3
00
E2
F8
FC
F9
09
FD
F2
FE
DD
01
FA
F8
FD
05
FC
03
FD
04
FC
02
FF
FF
04
01
FA
03
06
03
03
FB
FE
FE
04
0C
03
03
FA
06
E3
04
02
04
FF
F6
02
F3
03
06
06
01
FC
F2
ED
F3
F0
F8
FF
0E
F9
FB
F0
03
F0
F5
F1
F7
F0
09
F9
07
F8
06
0E
F8
ED
FA
FF
FE
F9
F4
EE
F7
04
03
FD
FD
ED
FB
FC
0E
F5
F1
F7
EF
F8
F3
09
ED
F4
ED
11
FE
F8
FE
FB
F8
14
FD
F9
00
FA
F8
FB
FD
F7
EF
FA
F9
00
01
02
05
F2
F2
F7
F7
EC
FB
F1
05
07
04
FB
ED
F5
00
F8
FE
FD
F8
03
F5
FB
0D
F4
F8
03
FA
EB
FB
F6
09
FC
EE
01
EE
F6
FB
FB
06
F5
F9
EF
E7
F8
FF
F5
0B
0D
F4
FD
0F
F7
FF
F9
02
F9
F6
FE
06
F5
F8
F4
F9
F6
FA
13
F5
0E
01
00
02
FA
0C
F2
F8
F4
FA
F9
00
F5
F5
03
FD
F9
02
FC
05
FE
F0
F7
FF
F7
02
0B
F0
09
0D
00
FE
F1
F5
EA
F3
F4
00
FE
F5
0E
02
F4
F5
F0
F2
03
F9
F9
F9
02
FD
F1
F1
F5
07
05
F5
EE
FD
F4
F4
F9
F1
06
FB
F7
F7
FD
F3
F0
01
0A
F0
FE
F5
F8
F9
F0
F6
F8
05
FE
ED
FF
00
0B
FA
F6
E7
08
F8
F7
F9
FA
FC
FC
F0
F3
F1
F3
0C
F4
05
00
E7
F7
FA
14
FF
F4
EB
FD
F5
F0
03
06
F3
FD
FF
05
FF
F5
FA
FD
00
FD
ED
FF
FF
09
FD
F9
F9
FD
00
FD
FF
04
EE
00
FD
F6
03
F4
FE
F8
F3
F5
01
F6
F6
F9
FE
F7
FF
04
06
02
03
03
FA
03
03
08
FE
00
FA
05
F2
00
05
FC
FF
F6
F9
F9
FB
FD
01
FA
FD
00
09
FC
05
02
F6
04
F0
01
0B
FF
F8
FF
08
FD
FC
FD
FA
FC
03
06
F8
08
F4
F8
02
F8
04
F2
F3
FF
08
FB
05
FD
F6
04
07
02
0C
00
FA
FD
F5
F6
FA
FB
FF
F9
00
FD
FA
FF
FB
01
00
03
FF
F5
03
0B
F1
08
04
FD
09
00
04
06
02
FD
F7
FC
FE
F3
F5
00
F7
F9
F4
FD
FB
FD
FE
00
F7
09
FE
F6
00
08
FB
02
FB
FC
FF
F8
F4
06
03
05
FA
01
F4
FE
02
02
FE
F7
02
05
FF
FC
FC
00
FF
00
FE
05
FD
F8
03
FF
FA
F8
F6
06
00
04
F1
FC
FE
FA
FD
06
08
FA
00
0B
04
00
07
03
04
01
F5
F2
FA
05
07
07
09
01
01
F1
F8
F4
07
FE
08
FD
FE
FF
FD
F8
F9
07
05
FA
FD
08
02
00
F6
F9
EE
FD
F2
FD
FE
04
FD
02
FD
FA
FA
FA
04
FE
05
F3
06
FC
00
EE
02
F3
FC
01
06
08
03
FC
F6
FE
07
F6
08
F6
FD
FB
FD
F3
FD
01
00
02
E9
F8
FD
FF
F5
08
E7
F5
02
FD
02
FC
FD
FC
FD
F6
F7
FC
FA
01
F4
02
FE
FE
F6
03
01
FF
F8
08
FC
FF
01
01
09
FE
EC
FA
FA
05
FF
FF
02
00
02
F5
FA
F6
F7
FB
FF
F7
F8
F8
05
00
FA
00
04
F7
02
F7
F5
F8
00
01
01
00
02
07
F3
02
F8
F9
01
FA
01
F7
05
FE
FC
FE
FE
F9
00
01
F0
F7
03
FC
FD
FC
FC
F8
10
E8
F9
05
01
F1
07
F7
F8
0C
F6
01
EA
FD
01
FF
FA
FA
FF
FA
05
00
04
10
04
F7
01
02
03
F7
F8
06
FE
FB
05
FE
07
F9
02
00
0C
FF
02
F5
FE
02
06
FE
03
08
01
FC
F7
02
F1
F7
FE
F1
01
FE
08
02
02
F6
0B
F8
02
FC
FA
FD
FE
FA
00
F7
F9
04
01
FF
01
F8
F3
08
F3
FF
EF
F3
F6
E7
FE
05
F7
06
F6
F6
F8
E8
FC
F8
FE
03
01
FC
F4
06
08
05
F7
00
FB
F7
FF
08
00
06
FA
00
F7
F5
00
F7
04
04
FE
01
F1
F2
F6
FB
F9
FE
0B
0A
F4
FF
00
F9
01
03
FB
00
00
03
FC
FA
00
00
FD
01
FF
FF
FC
FC
03
02
FB
FF
03
07
F6
01
04
01
01
00
06
06
FA
02
03
F6
FA
FE
02
FF
FF
FC
01
01
FD
FB
FF
05
04
F9
02
00
03
02
F9
03
03
00
FE
04
FD
00
FA
06
02
FF
04
01
04
FB
FD
FD
F7
00
FD
03
02
F9
FF
FD
02
03
FD
FF
07
02
00
03
FA
05
FF
F6
06
05
F9
FC
FB
FB
02
05
03
00
FF
01
01
01
04
03
FA
01
FB
F9
FC
FD
FE
04
FC
FC
FD
00
FC
03
02
FF
FA
FE
02
FD
F8
01
FD
FF
03
03
F9
02
07
FA
F8
01
FD
FC
01
03
FB
FF
FF
FB
02
05
FE
01
01
FE
FF
FF
00
00
01
FF
FF
04
FE
F9
FF
02
01
FD
02
FF
F7
01
00
FD
03
05
01
FF
FD
03
FD
03
03
02
02
02
01
F8
04
03
00
FE
FD
FB
FE
03
FD
FC
FB
F7
02
00
06
FC
01
04
FE
FE
03
03
03
05
FA
F6
01
FC
07
FD
02
00
FD
FB
FA
FC
02
F6
02
FF
FB
FF
02
FC
05
04
06
04
FB
05
F7
03
FE
FD
FB
FB
F9
FE
FF
FB
FB
F5
FB
02
FE
03
06
FF
05
FA
01
F9
FB
EF
FD
F9
00
03
04
05
07
F9
FB
01
F6
FD
0A
05
05
FA
FD
00
01
FF
FD
F8
01
FA
02
F4
F4
00
04
FF
04
FB
03
F3
FE
01
FC
FB
06
F8
FF
F6
F7
00
F9
FE
EC
FE
FF
FC
FA
07
03
FD
F2
F6
F7
01
04
EB
FB
07
02
02
0A
04
FD
FD
FA
F7
02
0C
00
FA
01
F5
03
F4
F1
03
FE
FC
09
FF
F6
FD
FE
02
0B
02
FD
03
02
F8
FC
F1
00
F6
FE
FB
02
FC
01
F8
03
F4
FB
01
F9
03
00
FE
0A
FD
FD
FA
0C
03
01
F9
FB
02
FB
01
FB
F5
F8
02
00
06
FD
03
FC
FE
FA
FC
06
FC
FB
09
FB
00
FC
FA
00
FC
FD
08
00
FD
F7
00
FD
01
FD
00
06
FE
FB
FD
FE
04
F7
06
FE
01
05
FF
01
00
00
FD
FA
00
F5
FB
FB
F9
FC
F7
F6
F2
02
02
FF
FE
F7
02
03
05
FB
F5
02
FA
01
03
01
FE
F9
FD
03
09
FA
FE
FD
FE
F8
01
01
06
F9
07
00
F9
FC
FF
F5
FC
FE
01
08
01
F7
FB
FD
FF
F9
04
FE
F8
FD
FA
02
FA
01
03
FC
02
05
FC
F2
F8
F8
FF
00
05
F7
01
FE
06
FD
FF
FC
01
F8
F9
FA
02
FA
FD
03
03
05
F7
F9
00
F6
FE
00
FF
02
01
FD
FE
F7
03
FE
0D
EB
F9
FB
02
FA
09
E8
F6
F8
03
00
FA
03
07
FC
F7
02
FE
F9
07
F7
FF
0D
01
F5
05
01
FC
FB
02
01
00
0A
08
07
03
EB
F7
FF
FF
FE
FF
FC
02
00
FD
F9
01
FF
FF
F1
FC
F6
FB
04
00
08
FB
F3
07
00
FA
FA
FF
06
02
FB
08
01
FE
F8
F9
03
F2
02
02
06
FB
FD
FD
02
0B
F3
00
FA
FF
F1
00
F0
01
00
F9
08
09
FC
ED
F9
03
06
FA
00
FC
FC
05
06
FE
ED
FB
00
03
02
01
FB
FF
09
02
FA
03
03
05
02
08
00
FE
FC
FA
F6
03
09
03
07
08
05
08
03
F5
02
06
FE
05
FC
01
F3
08
F7
03
00
00
FA
FC
FE
FE
F9
04
FC
02
08
F9
01
F7
0E
07
03
0C
04
FC
FD
F5
FA
09
05
FB
FD
00
FB
02
FA
0B
EA
F4
06
E9
F6
05
FE
FA
EC
F6
0C
EC
00
F9
F7
01
00
FF
F0
FC
FD
FA
01
FD
FE
FA
04
03
FC
01
0A
02
F8
FA
0C
FD
FE
07
01
F8
F7
F4
05
F6
FA
01
01
06
F7
08
06
F3
FB
09
04
0D
F5
10
F6
F0
F7
F2
EE
04
0A
FC
F7
01
F7
FC
F2
01
F9
0B
01
FC
FB
02
FC
02
F8
0B
10
F6
F8
03
F9
04
FE
00
00
00
FE
F5
01
FE
02
00
04
FB
03
FC
0C
FA
F5
FF
02
F4
0A
FC
04
04
F3
05
F8
FE
F5
EF
00
F3
EF
FC
EF
06
05
0B
06
F7
FB
FD
03
FF
F9
06
0C
FD
F6
07
FB
02
FF
03
04
F7
F8
F8
FA
FB
09
02
07
0B
FE
04
FD
04
05
FC
FD
06
FF
FB
F9
F4
01
06
FB
05
FC
FD
03
03
F1
F9
F8
00
FD
FD
FC
FA
00
FE
07
00
F7
FB
FA
F3
FE
FE
FF
FF
F6
FF
F8
EA
FC
02
00
F7
FA
01
02
F8
FE
02
FB
FF
F4
04
FA
07
F5
00
F2
08
03
FC
02
F6
F2
02
FE
FC
03
09
04
05
00
08
06
FE
FA
02
FF
09
F9
FD
08
FB
01
F9
FB
F8
FA
F1
07
FD
04
02
F7
04
F9
F7
0A
FE
FD
F5
07
F8
F7
02
03
FB
05
FB
08
FF
FA
00
F7
05
F7
07
06
F7
F8
F4
FD
F7
05
F9
FC
FB
F8
FD
0A
01
00
FD
FD
04
F1
F4
03
F5
09
03
00
F7
FA
FC
01
F9
05
F5
00
FF
FA
F6
FF
EB
FC
FD
FC
FA
07
08
04
FF
F8
F9
01
F9
0B
FC
0C
F4
01
F9
07
FE
FB
FB
E4
F7
03
00
F3
FB
EA
F5
05
FC
FE
FF
F6
FF
04
F3
FC
F8
F2
00
F2
03
01
F3
F6
0F
FC
F7
05
0B
F4
08
FB
01
02
01
E7
F1
F6
02
FC
05
05
01
0A
FC
FA
ED
F1
F7
F1
F7
F6
EE
04
F9
FF
07
F5
06
0B
F3
EF
00
F5
FF
FE
06
0D
09
F7
00
F7
F5
F4
FC
FA
01
FF
F6
FB
09
FA
02
0F
04
EB
F0
F4
FE
04
02
FB
06
06
ED
FE
06
06
EF
0B
FA
F8
F8
FB
F0
E6
FC
04
FD
00
F8
F9
00
06
07
05
07
02
F6
F8
F3
FB
F3
F8
04
FB
FD
FE
F5
F8
00
FD
09
07
06
01
00
0B
FC
00
09
07
0D
FE
F6
F3
00
F9
F3
FE
F8
F9
FD
09
F6
FF
ED
03
FB
03
02
FD
05
FC
F3
ED
FB
07
FA
FE
FC
03
F3
FA
0B
F0
FF
EA
F4
00
E8
F2
F3
04
0D
F4
F0
FC
E7
FD
F9
F6
0C
FE
03
FA
F8
06
0C
F9
F7
FA
FD
07
FE
FB
FB
04
FD
F7
F8
FB
F6
0D
FA
08
F8
F4
ED
F9
05
FA
F5
F8
FE
EE
FC
03
FA
00
09
FA
F4
F6
FE
FD
FD
06
FE
F7
F2
F0
F9
FD
F8
F9
F4
04
FA
FD
00
F8
08
FE
04
F1
FC
03
05
F4
00
F3
EE
F6
04
FD
FB
F6
FF
FF
FE
F9
FD
FD
07
FA
0B
02
04
FE
09
FC
03
F8
FD
F4
F7
0B
FF
04
FA
F2
FE
00
00
FA
F4
FC
FB
FC
F5
F3
04
FB
FC
F9
F3
F5
FB
09
02
0A
E9
04
FA
F5
F5
FD
00
08
FB
FA
FA
01
FB
FD
03
F0
F8
03
F6
0F
F8
FE
FC
F6
FD
F1
07
01
F4
F3
F8
F9
F4
FE
F2
03
09
FF
F4
FC
04
F8
FB
FF
FA
F8
0B
00
01
F6
FD
FA
FC
00
09
06
04
03
02
F8
FC
09
FB
FF
08
01
F9
06
FD
F9
FD
03
06
0A
FD
05
EF
FF
F3
F9
F9
FD
0B
F6
04
01
F4
F9
FE
F9
F7
F4
F6
01
F5
F8
09
01
02
F8
FC
FF
01
F7
FE
00
03
07
F7
00
FA
ED
0A
F3
ED
F5
FF
EE
F4
F9
0C
F3
F4
FB
F2
F9
04
EE
FF
F1
F9
FF
F2
F8
FC
FC
F7
FF
F7
F5
03
07
08
FD
FD
04
F6
05
06
03
FF
F8
FB
F8
F3
00
F4
04
FA
F7
FF
F3
F7
FA
06
F4
F5
00
09
FD
02
04
F8
F5
05
03
01
FD
02
00
01
FC
01
FC
03
FC
03
03
FA
FB
01
00
01
00
03
FF
01
FD
06
FD
05
01
00
02
02
FC
00
03
00
02
04
01
02
FA
03
FF
00
01
02
03
03
06
05
02
01
FE
06
FF
FC
FC
FE
FD
02
FE
01
FC
00
FF
00
05
FD
F9
FF
00
FE
03
FF
06
FD
05
FF
02
04
FE
02
04
08
05
00
FC
FE
01
FA
03
02
FF
FB
FC
FE
03
03
00
0A
02
FD
FB
FE
04
FB
FD
04
03
FD
FF
FD
03
FD
06
03
FB
05
FC
FD
03
FD
FC
02
03
FB
FE
FE
03
00
FD
04
FC
FD
05
FE
FF
F8
FC
FC
FD
04
FD
FD
FD
03
04
FF
FA
01
07
01
02
FA
00
FD
FF
FD
02
04
01
FE
FF
01
05
FE
0A
02
FB
FF
02
04
00
06
02
FA
03
03
05
FE
FD
FB
04
07
03
FA
03
02
00
00
FD
F8
02
FE
03
FD
00
02
FE
FD
02
00
06
FD
00
FA
03
FC
02
FF
00
FD
05
03
02
02
FD
FC
FE
00
FD
FE
04
FF
01
FB
FF
FB
01
FB
02
03
FF
00
02
03
FE
FB
03
06
FE
FD
FE
01
07
00
FD
FB
FD
00
07
FC
04
00
05
FA
FF
04
F7
F4
00
00
01
02
FF
FD
00
F7
F9
FD
02
FA
04
FC
03
F4
F8
FB
FF
00
0A
05
01
FD
FF
08
F9
04
FF
FA
03
FA
FD
F7
F8
FD
FB
07
00
F9
03
FA
FD
FB
00
06
F8
03
04
01
F9
FF
F7
04
02
F3
09
03
FE
FC
06
FF
00
FD
00
F9
00
F3
06
F7
FE
07
0B
FD
F4
01
05
F5
03
F4
07
FA
00
FC
FC
07
FE
07
02
FF
FD
F1
02
FE
FA
F4
08
F6
F6
02
F8
09
FF
FC
04
FB
02
FD
FE
08
03
F2
FF
FE
03
FA
08
FF
FF
FA
F6
FF
02
FD
FB
0B
FF
06
FE
FA
FC
07
F6
F6
FF
FA
FF
02
02
00
FE
FA
F5
07
FA
FB
02
FE
FF
01
FD
F7
04
F9
03
F9
05
02
01
FB
F8
F8
00
F6
01
F9
07
FF
FC
F3
F7
F8
FE
02
FE
06
06
FD
F7
F5
02
FA
FB
00
F0
02
FF
FE
08
00
01
FD
F4
00
FA
F9
F2
FF
F6
F9
05
02
FD
FF
FB
08
FC
F7
08
FC
FB
FC
07
04
06
FC
06
06
F4
02
FD
FE
02
04
01
01
07
01
05
FB
03
F4
F8
FA
FE
F4
03
05
FE
F8
F5
FF
02
F6
FA
FC
06
04
FE
F8
FA
FE
F8
00
F1
03
FE
00
03
F6
FF
F3
F4
F3
02
FB
FB
03
EF
04
FD
F6
F5
07
F2
04
FF
06
01
F7
00
02
FE
FD
FC
F5
FC
FA
09
FE
FA
10
FD
FE
F8
FA
FA
03
FE
FA
04
FD
FA
05
02
F8
04
F4
F8
09
05
FE
FE
FF
00
09
08
01
F5
F9
F4
F9
FA
FF
F6
05
F5
FD
FB
03
FB
FF
FF
F7
09
F3
F6
0B
F9
00
FF
F3
FF
FB
F4
01
FB
F3
00
F9
00
FB
FE
0D
FE
04
F4
FD
01
00
F8
05
F6
00
07
01
F0
F8
F9
F1
07
02
F5
00
FB
02
F8
0E
F5
03
08
FE
06
F0
02
FE
FE
F7
F7
07
05
F8
FB
FE
F7
FA
00
03
F5
03
F5
07
04
E7
FF
02
04
FC
02
04
00
00
F8
FC
F8
09
F5
F8
F2
FB
F5
F5
FE
F8
F7
F9
FA
0B
F5
03
F4
FF
FA
FE
03
FF
F7
04
0A
06
02
06
09
02
F4
F1
F2
FD
08
ED
FA
0C
03
F2
FB
0C
04
FE
06
FF
00
F7
F1
F7
F5
07
0D
03
EF
0A
FA
04
FE
F9
00
FA
F6
F7
07
06
FF
F8
08
FD
00
F7
0C
01
04
07
04
01
F4
03
FF
F3
05
06
0D
F3
00
F7
F8
02
02
03
F3
FE
02
F8
FD
06
01
03
F3
FA
F9
F8
F0
FD
05
F2
04
06
F5
F7
FF
FB
06
01
02
04
FA
F7
02
F3
02
FD
06
FA
FF
FB
FA
05
F7
FA
08
02
FB
F5
F8
F7
07
FB
03
FA
05
F9
03
01
E9
01
09
F6
09
FC
F9
02
F2
06
02
FB
00
F9
F6
F9
00
09
01
0D
02
07
FF
F9
FF
F5
F8
FA
EC
05
FE
0B
F4
09
F5
FE
01
FA
F6
FD
F9
FB
02
02
00
04
FB
09
F6
FA
03
FE
06
F3
FD
05
FF
FF
F6
FB
FE
FA
F9
0A
01
03
FD
FB
FC
07
F4
05
FE
0B
FD
04
01
FC
02
FF
FF
06
04
F1
07
00
FE
01
F2
02
F5
F0
F5
07
02
F1
FA
F8
FF
FB
F9
FA
02
F6
EF
FD
FE
0A
F0
F1
FE
0C
04
F5
FF
04
FF
08
FE
EE
F4
0A
F7
09
FF
F8
FC
02
F2
03
0A
02
FA
F5
07
FC
09
F9
FC
00
FB
FB
00
F8
08
02
02
02
03
F5
03
FA
FE
F7
06
02
FF
F6
06
01
00
FF
05
04
FD
F2
F1
01
F9
00
FC
F5
02
EA
FC
FA
05
FB
03
F1
03
F7
03
0A
F6
FD
F7
FD
FE
FB
0A
ED
0A
FE
F6
FC
08
F7
F8
FA
FB
FF
09
00
0A
FF
EF
0E
F8
0D
FF
F9
FB
F0
F0
F3
09
ED
F7
03
E9
F8
F3
00
05
0D
05
F5
FF
F6
03
FF
FB
FF
10
EF
04
01
ED
0B
F9
02
01
FB
F8
F6
F6
FF
FF
F1
05
ED
F7
ED
0D
F5
FA
F1
FC
EF
0A
FE
FB
F6
E9
04
04
08
FB
E7
E5
FA
F3
01
FA
13
F5
0B
F3
F9
F5
F5
F4
FE
F8
FA
05
FE
F4
F7
F4
F8
04
F0
01
F7
F7
F3
F8
00
FE
F3
04
08
F1
09
F0
FF
FA
F2
FD
00
FC
0B
FC
F6
0B
FF
ED
03
F4
FE
FD
05
ED
FF
FB
FF
F9
FF
FE
F7
06
ED
FE
EF
03
FE
F5
F3
0C
F8
01
04
F1
F6
F4
E6
FD
02
F8
E9
FD
04
06
EF
F4
06
F7
F2
F2
00
F7
FE
E6
FA
F6
FD
FD
EC
FB
FA
00
FF
F9
F0
F6
F7
FB
0C
FA
00
E8
FA
F4
01
05
0C
EE
04
F8
FB
01
F7
0D
00
F9
F1
FA
F0
FE
F6
F9
09
EC
F0
0A
F5
03
F8
FB
01
F3
E9
00
FE
F5
04
00
03
FA
F9
F4
01
FB
04
F8
F7
F5
F3
03
F8
07
F4
01
E9
FF
F2
F9
FB
08
07
F5
FF
02
F8
05
F6
0A
05
09
F5
09
EE
F0
FC
02
FB
FA
FD
F7
F8
02
F7
FB
F6
04
06
04
FD
FD
00
FE
0B
FF
EE
FA
08
04
09
09
F8
06
04
F3
FD
F7
00
FD
F3
F3
04
F4
06
00
F8
0E
FD
FC
00
02
F8
FF
09
00
FF
F2
0B
03
01
F5
FE
FE
00
FE
FE
FC
FE
FB
03
F6
FA
F3
FD
03
02
FD
05
FC
05
FF
01
01
F7
F3
FA
05
02
F6
F6
F9
00
EE
01
FC
F6
03
EE
FD
FA
FE
F6
F9
0A
00
F3
F7
FD
03
F6
FF
08
03
08
F3
05
06
FD
09
F8
05
F4
F7
FE
01
FB
09
06
FB
FF
00
F5
07
01
06
F8
FE
FA
04
F8
FB
FE
F3
F3
FD
03
F5
FF
03
F6
08
FD
00
FC
FF
01
03
F8
F9
FA
F9
FC
0D
FB
05
FF
01
03
05
01
FE
05
00
F8
06
06
FC
FD
02
05
06
06
01
00
04
FB
03
04
FB
FB
07
F7
FD
F3
02
06
FE
06
01
FC
F5
F4
06
F8
08
05
F7
FD
F9
F6
FC
FB
01
FD
F6
FD
F8
F7
FC
FB
FF
06
05
F8
F6
F2
02
06
FF
F9
FB
F7
04
0A
00
0B
FC
FB
F6
FE
FB
03
F6
FF
F3
FB
02
07
07
07
FC
FD
F7
03
FC
FB
FB
0C
FF
FB
F9
FF
F0
06
FB
0A
01
EE
03
09
09
FC
04
FA
F7
01
F6
FD
FA
ED
F4
FA
FD
FE
F1
F6
F1
FF
F8
F1
F7
F2
08
F5
F5
FC
03
FC
06
F9
F3
F5
FE
08
F9
05
F6
04
04
00
FA
FC
FF
F8
F7
FA
00
F2
F6
FD
09
02
FA
FB
F0
FA
F0
F8
09
FE
FF
FB
01
F6
FA
F9
F3
F4
F7
FD
F5
03
ED
08
F5
FB
F3
F8
F9
FF
02
02
F3
01
FC
F8
F9
F8
06
F0
EF
06
07
F8
F6
04
F8
0D
F8
FD
FD
FA
FD
FB
F2
FC
F6
06
0C
FA
FD
03
F5
F7
EF
F0
00
04
F0
F8
FE
07
F7
06
0A
F8
06
00
09
FD
FF
F4
FF
F1
00
F4
F5
F2
EA
FE
F2
05
FA
F8
FB
04
F9
F9
F2
F8
F6
EF
ED
F5
F6
F9
FC
F8
F6
02
FC
F8
01
F9
EE
F7
F7
F1
F1
F6
FF
08
FF
F6
FD
F0
F3
FE
06
04
FD
F7
FA
FB
03
F1
FD
06
EC
FE
F8
F1
05
FC
06
0D
02
F9
00
F2
06
0C
08
05
01
02
FE
F6
FB
0D
FF
08
01
0C
02
04
F1
FB
07
F3
FE
F5
FF
00
03
F7
FA
F4
F4
FE
07
04
07
08
F8
08
EE
09
FB
F7
0B
09
06
F4
F3
02
02
EF
08
FD
00
FA
09
F6
EE
10
F6
FC
05
FB
02
F2
F7
F3
09
FC
F7
FB
F0
00
07
FD
02
0E
F6
00
FC
FB
02
FA
05
F4
01
F9
02
F7
FE
F8
06
F5
07
09
FD
F5
FF
FC
FE
F7
03
03
FA
FC
06
02
F8
F4
00
FA
00
05
FE
F0
03
F9
04
04
07
F7
FF
03
02
01
F8
08
F1
FF
08
03
FB
01
F9
01
F2
F9
FF
F2
EF
FE
02
03
07
F0
0A
FB
08
F4
FA
FE
09
F5
0A
FA
06
0B
07
00
FC
FD
F3
F7
FE
FB
F9
F5
0A
F9
FC
FC
01
F6
F7
01
FE
04
00
FC
FA
0E
F1
FD
06
FC
09
FE
04
03
F7
F4
FA
FC
08
F1
FC
FA
FC
ED
FF
07
03
F7
FB
F7
FA
F9
FE
03
F6
0A
04
02
F9
00
E7
FA
FD
FC
FB
05
F3
07
FA
F7
F5
FC
08
FA
FE
0C
FE
FD
F4
FE
F7
FB
FE
03
FC
03
FA
00
FD
F5
F8
07
F7
F9
F6
FE
FB
F3
FB
0C
05
F4
0A
05
00
0A
FB
00
FA
F6
EB
FD
F8
08
01
0D
FC
08
FA
EF
02
F4
02
FE
04
F5
FF
00
F8
F1
FD
FA
FE
F4
00
FF
09
07
FC
FE
FA
F4
EF
FE
03
06
FA
04
0B
FA
F2
03
05
06
F9
0A
FA
F9
F4
0B
02
06
FD
F0
F5
F3
F1
EB
FF
F0
06
05
F3
F8
FD
F4
F1
04
F5
F8
04
F9
09
FA
08
03
04
FE
04
F1
FD
FE
FD
04
04
00
F1
04
F6
F1
FF
FE
03
F4
03
F2
03
FD
F1
03
00
EE
08
FA
F5
FC
F2
03
09
03
FB
F9
F2
F4
F0
FF
FB
FD
FB
08
00
F3
F4
F2
F6
09
F3
FA
07
09
F7
0A
F7
02
09
F4
05
F8
F2
F5
FA
F3
FD
FC
F7
0D
F8
F5
FB
EF
02
F4
F6
00
FD
FF
EE
F4
01
FE
F0
04
F6
FB
F5
FB
F4
02
EB
05
F2
07
FD
04
FC
F9
02
FA
06
01
0C
F4
04
FD
FF
FF
F9
04
F0
EF
F9
03
01
F3
F9
03
FE
EE
F8
00
09
F4
F8
FC
FB
F8
EE
F3
FA
09
FB
F3
F8
06
F4
02
FB
F7
F9
08
F1
0A
F4
EE
F1
FD
F5
07
05
03
FF
FB
08
FB
05
F4
0B
FC
FB
F6
F1
F1
FD
F8
F9
02
F8
EF
F6
03
0B
F6
08
08
04
F4
F5
F9
FA
FA
0A
09
FA
F9
FF
00
FD
F9
F3
F3
02
F1
09
01
09
F5
06
F2
03
FE
03
09
03
F2
F5
F6
FB
FE
02
EC
06
08
FC
EC
FC
F9
FB
04
04
07
00
F5
05
F8
F8
05
04
00
F9
F0
05
01
0B
F3
00
FD
0E
0A
00
FA
FF
FE
FE
FB
FF
FF
02
F9
01
05
F6
F6
FE
FD
04
06
FB
FC
02
F3
01
F9
FE
00
FC
03
01
FC
05
F8
FE
04
02
F8
0A
F9
F2
FC
05
01
00
F5
07
FA
FE
06
FF
FD
00
F7
F5
FA
F8
02
09
07
05
00
01
FE
08
04
FC
F6
FC
00
FA
FD
FB
04
03
F9
05
01
FB
FC
F2
F9
F7
F7
02
FA
08
03
FD
FE
08
08
FA
FB
05
03
F6
07
01
06
FB
00
F9
FA
FF
F2
FB
FF
08
08
FE
F3
00
FE
FC
05
FA
F8
FF
04
02
F1
F6
FF
FF
00
FA
F9
05
07
05
F9
09
02
03
02
F9
EF
FC
05
05
00
0E
06
03
FA
FD
F6
FC
FB
FD
FB
08
F2
FB
F8
FF
06
00
08
FE
01
00
02
FD
F8
06
0C
04
FF
FF
04
04
FA
FB
FC
06
03
FA
F0
FB
F8
06
04
FF
03
FE
F9
04
FD
04
F9
FA
04
02
04
F6
FC
05
F8
01
00
F0
FD
F8
FD
0A
F4
F6
F1
EF
F6
06
0A
F7
FF
FD
00
FC
07
00
F8
00
FC
FC
FC
FD
00
04
03
FE
06
FE
F5
FB
FC
03
FF
FE
FA
F3
08
02
FC
F5
FE
00
F9
03
01
08
F5
EC
F8
06
FF
FC
02
F0
06
01
01
0B
01
FD
09
00
F9
02
FF
04
05
F2
FC
FD
FE
F1
FA
FD
FB
FA
12
09
FF
F5
FC
FD
F8
F6
03
F5
F9
F2
0D
F8
F4
04
FE
FB
0E
FA
F8
F6
03
FF
0C
14
FB
FF
03
02
06
F7
02
F5
F9
F6
FC
FF
06
00
FA
02
00
0D
FD
01
F8
EB
F8
04
F9
FB
01
F2
F6
FA
F8
06
F9
01
F1
FD
05
05
09
EE
08
F7
07
01
F5
00
FB
03
F9
00
F9
F3
01
FB
07
02
00
02
FA
02
0A
F7
FF
03
02
09
04
03
F8
00
F7
FF
FC
0A
00
F9
FF
EF
F7
FF
F8
F5
F9
EA
F7
02
FC
01
F9
F4
FE
F9
01
03
0A
F0
F5
FE
FF
FE
FF
FC
03
FB
03
01
FB
F8
F0
F6
05
02
01
EE
0A
04
FA
05
F1
F6
04
FA
FC
F8
EC
FD
FE
01
FE
05
FB
F9
F6
03
FE
05
F2
04
0B
03
04
02
FF
FC
FC
FE
00
FD
00
F4
FE
06
0D
02
FF
05
04
01
FD
04
F9
03
07
F5
F9
00
F5
07
F0
00
0C
F2
08
F9
F7
FC
07
02
F2
FA
F8
03
FE
03
F3
F8
F9
F7
FC
07
07
05
08
0B
01
F9
FD
F2
F6
F6
FC
F5
0C
F0
00
F8
F7
FC
F7
F9
00
F7
FF
EC
F3
F9
08
FB
FF
FC
05
FB
02
F9
EE
F7
FF
FC
00
F9
F2
F5
FE
08
00
FD
06
01
FF
06
03
08
F7
F9
08
FC
FB
00
FC
0B
0C
FF
FD
FD
F8
EF
FA
07
F7
F8
FF
F6
F2
F4
FD
08
F7
F7
FF
F5
FF
FF
07
04
FA
FF
02
FD
04
FD
FE
04
F7
FA
FA
FE
FB
FB
FF
FA
06
03
F7
F7
FA
05
FC
FF
06
F5
F5
FB
F9
F9
00
03
FB
03
FA
F8
05
00
FB
F6
03
00
F7
FC
FF
F8
0A
FD
07
FD
FC
00
FB
FF
F9
F5
F6
00
09
F0
F8
FF
01
01
04
F9
F8
03
FF
00
F9
FD
FB
FB
F5
FA
F7
FD
03
FC
FC
03
FF
01
FB
F4
00
F7
07
03
FF
08
FF
FF
FC
07
F8
F7
05
F6
07
0B
FB
F7
FD
FF
FB
F4
FA
01
FB
FD
07
FD
02
F9
FA
FA
07
F7
FD
01
F5
01
FE
FD
0D
FE
F2
FC
FD
04
F9
FF
F6
FA
05
F0
00
08
FF
05
06
F0
FE
06
F7
02
02
FE
05
FC
FA
F9
FC
FC
03
EF
F3
F3
FD
04
FC
F6
F6
FE
FC
0C
FE
04
FF
00
F7
F9
FE
FE
00
01
03
F8
F8
05
00
06
F1
FF
F3
08
06
05
F5
F8
F9
FA
FA
03
07
FC
FF
F8
07
FA
FF
FA
FA
F1
00
FE
06
F9
FB
07
F1
FD
F6
F5
F7
F6
00
01
F3
05
F6
FC
FD
06
F8
FB
04
04
FD
01
FF
0B
FD
F4
06
F4
FE
F4
FA
FB
FD
03
01
FB
FD
FE
FF
F8
F3
01
02
05
03
03
05
F0
01
02
FD
07
00
FD
FF
FF
FF
02
07
F9
FF
07
F8
FC
F6
04
EF
FF
FD
FE
03
FE
0A
00
01
FC
FA
F7
06
FA
FA
08
01
FE
F3
FE
07
01
EC
05
F5
F9
FB
F5
FA
F8
05
03
FF
02
07
F6
08
FF
FC
FF
02
0A
01
0C
F9
0A
08
00
FF
F8
09
07
03
06
01
FB
00
00
F1
FF
00
0A
00
FF
FA
05
03
FE
F4
F8
07
F3
00
02
FB
FB
03
F8
03
03
FC
04
02
09
FA
00
00
0B
FD
F0
FE
F7
02
03
FF
03
FE
F8
05
00
04
F5
FA
FA
F7
F8
F7
F4
04
F5
F7
FE
F3
FD
F1
F2
0A
06
FE
EE
FA
F7
FD
FD
02
FC
03
04
06
F2
0A
FE
04
FD
F9
FF
F8
07
00
01
08
01
FE
FF
FD
05
FA
FF
00
F7
FC
F9
FE
FE
00
F4
F3
F9
F4
02
0E
02
02
02
F3
FB
08
F6
F8
0B
03
01
FE
02
FC
02
03
FF
FA
F7
EE
01
FE
F4
F5
F5
FA
03
FD
F5
F5
FE
05
FD
F8
04
05
02
FA
ED
08
FB
FF
F4
03
F9
FE
FC
05
FC
02
FA
F4
F1
FE
F7
00
0C
FF
0F
09
0E
01
00
F5
FC
EE
F9
05
05
02
F5
E9
FC
F6
FC
FD
0A
FF
04
EC
EF
F7
F3
F9
0A
FE
F9
F9
05
F5
00
F0
0A
FD
01
01
F9
FD
F7
F0
03
FC
05
FA
F6
FA
0A
F6
07
01
F2
06
09
FA
02
F7
FE
FE
FC
FF
F5
F9
FF
09
F6
02
FA
06
F5
EF
02
FD
09
02
FD
03
F6
F8
FB
00
F7
ED
FF
0A
05
F4
F3
FD
F4
00
FD
FD
04
05
FC
FD
FD
FE
F5
03
FF
F8
05
09
F6
FC
01
FB
05
01
F6
03
FC
FA
F8
EC
F9
F8
FF
01
FC
F6
F7
01
06
0E
FA
F7
F3
04
FC
01
FC
FD
F7
06
F9
09
02
F2
F3
F8
F7
00
07
FB
FA
FB
06
04
04
ED
FC
FC
05
0D
0E
07
FC
F8
FF
FB
FB
06
01
F6
03
FB
FD
FF
FE
FE
FE
FD
F7
00
EE
EB
FB
FF
01
F9
F9
F4
EF
FE
FC
FB
FB
00
F2
F1
03
03
FD
F5
0B
02
04
FC
F9
F1
F8
F1
02
FC
01
F7
01
FB
03
01
03
FE
EE
FE
F6
05
FC
FC
EF
02
F8
06
03
FE
FA
01
FE
F7
FD
EF
F6
F1
F8
F8
FF
F9
F1
08
04
F3
EF
02
EC
0A
F3
F8
08
03
F3
F9
F6
05
FC
F9
F2
FB
03
F2
04
F7
F2
F3
F5
F5
FF
F6
0A
EB
01
F9
FE
F1
FF
F5
F9
02
F3
05
F0
FF
00
FC
F7
EB
F8
F1
FB
FE
F6
FE
F5
07
01
0B
F9
0B
0B
04
F4
FE
EF
FB
F7
FF
01
F4
01
E8
09
FC
F7
F6
06
F9
05
FE
FE
F4
EF
F5
F4
F4
02
F0
F8
05
F9
F5
02
09
08
F6
EF
F5
FD
03
06
FA
FD
FD
F6
F7
FB
FB
05
00
07
F8
FE
F8
F7
F5
09
F3
05
F9
FD
EC
F3
FE
F3
F5
F8
01
F9
03
0C
F2
00
F7
05
07
01
01
F7
0C
05
F9
F2
F5
0A
ED
00
F7
08
F9
FB
08
F0
FF
F1
EF
F5
F1
FC
FD
09
04
F4
F6
FA
EF
F8
FA
F9
0D
09
0B
EF
FF
F7
FC
FD
04
F9
09
08
FF
F0
F9
0C
F7
F3
F4
00
F6
0E
0E
08
FB
F7
F8
0A
F6
FD
FE
0A
F9
F6
F8
FA
03
F8
FE
ED
F0
02
07
04
03
00
00
00
F7
F3
FF
FC
FE
09
06
01
FF
FC
FF
02
FA
09
02
00
F7
03
01
F9
01
05
F9
01
02
FD
FC
F9
07
FA
05
05
FF
03
F8
EA
02
FD
00
F7
FD
02
F8
F8
FF
F2
01
FF
F3
FC
FA
09
FA
07
FB
FF
02
08
FD
04
F0
FB
FD
F7
0D
06
07
F6
F2
02
EF
05
01
07
FF
04
F6
F5
F4
02
FF
09
04
F6
F9
04
F0
FE
F1
04
02
F6
00
EF
00
FC
FA
03
F9
FF
04
FD
05
03
F2
02
F7
F7
FD
FF
04
FD
FF
FD
FF
FE
FF
F6
05
00
08
04
FC
FC
05
FA
F7
01
01
06
FD
00
FF
FB
02
F2
02
EF
F0
F9
07
06
F4
FC
FA
FF
FE
FD
F4
05
00
01
FA
FC
EE
FA
F8
00
FE
01
FD
02
F9
02
FE
FC
FF
F1
FE
03
FD
F9
EE
FB
FC
FB
01
00
F8
FD
06
02
08
FB
F0
F1
FD
FB
00
FA
F2
FB
FC
07
08
05
FD
FD
01
F4
F9
03
FE
00
05
09
0A
0B
F4
04
FB
F9
02
FB
F9
0A
0E
02
F8
02
FD
02
F4
04
F8
05
FF
00
FE
FC
0A
FB
02
F2
FA
02
F2
FD
F9
00
00
FF
01
EF
FD
FD
EC
08
00
FF
F2
FB
05
EE
05
F4
F0
FA
F7
05
02
00
F8
FF
FC
FA
FC
F8
EC
F7
FD
02
F3
01
FC
FF
04
04
F6
F3
EC
F7
08
00
F2
F5
01
F7
FD
FE
01
09
F4
02
F4
03
F0
F0
09
03
04
09
ED
F5
07
F4
04
0A
F2
FA
FE
02
F2
FA
0C
F8
FC
F8
01
03
F3
F5
FD
F0
FF
ED
04
EF
09
04
0B
01
06
F3
F8
FA
FA
F4
FA
F4
09
FD
FD
F3
0F
F1
FC
F7
EE
06
F2
FB
F6
F7
EF
F2
EF
FD
F7
06
09
FC
FF
F8
F9
0C
00
EA
04
FB
03
FA
01
FD
F9
FB
FE
05
08
03
02
FE
F0
FA
F2
04
0B
EA
F4
E7
00
08
F3
F8
FA
F5
0A
F7
F0
FE
FA
EB
FF
F2
04
FF
F2
03
02
08
F9
FB
06
ED
0E
F2
F2
FC
06
FD
FF
FB
F7
FB
F1
EC
FC
09
03
02
EE
FD
FE
08
F9
F1
F4
F9
08
F3
FA
02
06
FE
FB
05
F9
FF
EC
08
FC
09
08
01
F8
F0
F9
F9
01
03
01
0A
FA
02
00
F5
F0
0C
01
08
F8
F7
F5
09
F8
FD
00
03
00
F2
05
F2
F4
F7
02
F0
F7
F7
F3
0B
03
F1
F5
FE
FE
FF
F9
05
03
0D
EB
08
F9
05
06
FD
F6
F8
F6
FF
F7
F4
04
06
F9
03
04
F7
F4
F9
F9
FA
FE
03
05
F5
FD
F6
FD
F5
FC
0F
F3
F3
06
07
00
FC
F9
10
FF
FC
F4
F1
F6
03
09
02
00
00
01
07
FA
F4
FB
0D
F4
09
F6
F2
FB
F0
FD
F0
0D
FB
FF
F1
FB
ED
F7
FD
08
06
00
F8
F4
01
F8
F7
03
F2
04
FC
06
F0
02
FE
FB
04
FE
FC
FC
EC
F1
FE
EF
FC
07
00
0A
02
FE
0C
03
F6
FA
F9
FB
09
07
FE
F1
01
FB
FB
06
05
F7
08
F9
F1
F6
00
03
F0
FD
FD
FF
04
F4
02
F9
F8
FE
05
ED
00
0C
0B
08
F4
FD
02
ED
FE
F6
09
ED
01
09
03
EB
FC
00
07
00
F7
F9
F9
F6
F5
FB
FC
03
03
07
FD
02
05
F8
08
FA
FA
02
02
FC
F3
F8
07
02
F9
FD
06
0B
F6
0C
02
F1
FA
F7
08
EE
F7
F5
FF
01
FC
00
FB
FA
F7
FF
01
FD
F3
F4
FA
F4
FB
F6
FD
00
01
F3
FA
F5
F4
00
F6
FA
02
F9
FE
01
FE
F5
FC
F7
F3
FC
FA
F9
FC
02
FE
0B
F8
06
F5
FA
03
FC
FD
04
0D
FD
00
0A
04
F7
F8
F8
FE
F8
FE
08
09
02
09
FA
FF
0B
03
03
F1
F2
FF
0C
F6
F9
F8
FF
02
FD
FC
FB
FB
FB
FC
F2
F7
06
06
F1
05
F9
04
F9
0C
FA
03
FB
F0
06
F6
F8
F3
09
04
F7
FF
0C
F0
F6
0D
03
FA
F5
FC
F9
FC
F4
FF
F0
F7
06
F6
01
0A
F4
F4
F8
F0
FC
FE
FD
03
F3
F3
FF
EF
04
F1
06
F1
F1
F6
FC
F5
0A
00
01
06
FA
ED
00
EF
F4
00
FF
F9
01
FA
FC
FF
FE
FB
FF
FC
F6
FB
F4
04
0C
F2
03
F7
02
01
FC
FD
FD
05
02
F6
F4
FC
05
F1
00
FA
05
05
03
FE
F9
F7
FA
08
FB
FC
03
02
F6
F5
F5
FD
07
F6
FC
F0
0C
01
F5
FE
FC
F9
07
EE
EF
FE
F3
F1
F8
F5
03
FC
03
F7
03
F7
FE
0C
FB
F2
07
FE
F9
F2
08
FF
05
FB
F9
05
F6
F0
FC
01
00
0C
ED
06
FA
FF
FB
FC
08
FC
FE
F9
02
06
06
FF
01
FC
07
F6
F6
0A
04
0A
07
FC
02
03
F8
F7
06
03
05
04
02
05
11
EE
FD
FA
F4
FB
01
02
F9
0C
F8
02
F2
F9
01
FA
FA
06
FC
FA
01
FE
FC
03
FB
06
08
FA
F9
F8
F7
0A
F8
00
08
F8
F2
04
FE
02
08
F9
03
0B
01
FF
05
08
01
F3
F1
01
FC
FB
01
F0
F1
F4
F5
F8
F8
F2
F7
0A
02
F2
FD
FB
04
00
FD
F5
02
00
09
FA
F3
FB
0A
F8
F0
E9
FE
09
F6
F4
F6
04
F7
04
00
F4
05
F8
03
FB
01
06
EE
07
07
F7
09
F7
F7
F6
F5
F7
F3
F9
E2
00
F7
F4
00
FD
05
06
F8
F6
02
02
FA
F3
FC
02
F5
FC
EF
F2
F6
F1
08
EE
F4
FF
05
FB
F9
F7
FC
FF
01
FE
03
F8
03
02
02
11
E9
F1
00
F0
F2
F7
F3
01
FE
01
F1
FD
02
01
F4
03
01
E9
ED
0F
01
EB
FA
FA
F1
02
FA
FE
EF
EC
0B
01
00
FA
FB
0B
0A
00
FB
01
06
F1
01
FE
F5
FF
F4
0A
F2
F7
F2
F3
EC
04
FC
F1
03
F5
EC
FB
FD
FD
03
F6
F8
FB
F9
04
E4
FC
06
04
07
FB
EE
FF
FD
03
04
F2
FB
FE
F1
04
F5
02
FB
FF
02
F6
F9
0D
09
F4
07
FF
0D
FE
EE
F4
08
F5
0B
F1
06
0A
0A
F4
FF
FA
01
05
EE
FF
FD
FB
FF
F5
02
FC
02
F4
FB
04
F9
FC
04
F5
08
FE
00
03
09
05
F1
00
01
0A
02
02
02
00
FD
F3
FF
F7
FD
F5
02
03
FF
FF
F7
FE
F4
00
06
F9
F9
FC
09
04
04
FF
04
F6
01
06
FF
FF
02
02
01
F7
05
02
FD
FC
02
0E
F5
03
0A
03
00
01
F9
FC
FA
F9
FD
04
06
F4
02
FF
FE
F9
F9
04
05
FF
FC
FC
03
FF
F9
02
FA
FC
05
05
FB
F7
02
F8
FE
09
07
FE
05
05
FF
FA
FA
07
F7
FB
FE
FD
07
01
F2
0A
06
09
07
F3
F8
0A
FA
01
F9
02
02
05
FF
FA
04
02
FA
FD
F6
F5
00
FC
FE
FB
F9
02
F2
F6
00
FA
01
06
F6
FD
00
FB
FF
01
02
06
01
01
02
F6
02
F7
F7
FF
FD
03
FF
F6
FA
03
03
FB
04
FB
F8
00
00
FC
04
F7
0A
02
08
04
FF
F5
02
05
FD
F5
00
F4
FD
F8
FA
00
05
04
FE
FE
05
F7
04
FB
FE
FA
F9
F6
F8
F9
F9
04
04
04
FC
FD
0B
06
FD
FA
00
02
F5
F9
0A
08
F4
00
01
FC
08
FE
FD
03
FD
F5
F8
FE
00
FF
04
FB
0A
FD
F8
F9
F7
FD
FE
F8
F9
FB
F9
FE
FA
F9
FE
03
F2
FC
F4
06
00
08
FB
F4
FA
F6
FB
F8
00
FB
FD
00
01
FA
05
04
09
FA
FF
F5
FF
03
01
01
05
00
FD
03
FE
FD
04
FC
FF
03
FB
00
FE
03
FF
FF
FE
FC
FF
02
06
FF
01
01
05
FD
FF
FB
03
03
00
02
FF
FE
FD
00
FC
01
03
04
03
00
04
00
00
00
00
00
05
00
00
FF
FF
02
04
FE
03
FF
FF
02
02
FF
FF
05
FE
FE
FA
07
FD
06
FF
04
FD
05
FD
FB
FF
00
03
FE
FE
01
00
FD
01
FC
01
07
02
00
FA
04
FD
03
01
FF
01
02
FF
FF
04
FD
FD
FE
00
FD
FD
FD
FF
01
00
07
00
00
00
03
01
01
02
01
FC
00
FB
00
FE
01
05
FD
FF
FD
04
FE
FC
FB
FC
FF
04
03
FF
FC
03
01
FE
FC
FC
FF
04
FF
FD
FF
01
00
02
01
FE
02
FF
FF
02
02
FC
05
04
FC
04
01
FE
01
03
FC
FD
00
00
FF
FE
00
02
FF
FF
02
FF
04
FE
FC
FE
FC
FF
06
01
FF
FD
FC
FF
FA
01
06
FD
03
FB
FF
FD
FB
FD
FF
FC
02
FF
05
FA
02
02
03
FD
FC
FF
FC
03
02
02
01
03
FF
00
04
FD
FF
00
FF
FC
01
00
FE
FC
05
00
00
FB
04
FB
FE
FE
FC
02
FF
00
FE
02
FE
02
01
04
FE
10
F7
ED
EC
0D
ED
EA
FD
EC
F5
05
F8
F7
E9
F8
ED
FB
03
FD
FC
00
F8
09
FD
0C
F3
F1
F8
FD
FB
F3
F6
FE
F5
0C
F9
EF
E9
FE
FB
E4
01
FC
F1
F5
EE
F3
01
03
ED
05
07
EC
F1
ED
E2
0A
10
F8
F8
08
F1
F1
F2
F7
F8
F2
F0
F0
F3
F0
10
F6
F1
FF
04
F9
F2
E7
0B
F7
09
F5
E8
FF
FB
F1
F7
10
F4
0C
FD
07
09
EF
FB
FF
F3
ED
F7
FA
F5
FA
F0
0F
0A
0F
FC
FC
00
FB
F9
08
F3
EF
F4
F7
0F
08
EC
F2
07
F2
FF
F2
FA
F2
F5
F6
05
FD
F1
F9
F4
F2
F8
04
F0
05
ED
FF
F9
F7
00
04
DF
0A
EB
F3
06
F0
EF
F6
EB
F0
FD
FE
09
01
F0
FA
00
F6
EF
F9
02
F4
F9
F8
02
05
F7
F9
FB
F0
FC
0F
09
06
FE
F0
ED
E5
F8
F1
FF
0E
F8
11
F7
F2
FD
F3
09
03
F5
F3
F6
FF
F3
0A
F2
04
F0
EE
FD
F8
EE
06
0F
FA
00
F2
0A
F1
F8
EF
EB
05
FB
0C
F5
E5
F0
FE
EF
F1
F3
0C
06
E6
F5
ED
06
F1
FA
F3
0F
FE
FD
F9
04
ED
EB
EE
00
FC
F6
FD
FC
F8
EF
F8
F1
02
EF
FC
04
04
FD
02
01
FD
08
FC
F8
F6
04
F1
0A
00
F8
F0
F7
F0
FD
EF
FC
0C
FF
FC
03
F7
F8
0C
FC
03
03
05
FF
05
F8
05
0A
F7
02
06
EC
EC
FB
0D
06
06
03
02
00
04
FA
07
06
FC
04
F9
F4
00
FA
FD
02
05
02
FE
EC
F6
EF
FB
FD
04
02
F7
F3
F2
FE
FB
FA
01
F9
05
06
05
05
FB
03
F4
03
F7
F7
F5
F2
F4
FB
FC
F4
06
F6
0B
04
F2
0F
F8
FE
F7
F2
03
04
05
FE
F2
FA
FA
F5
06
04
FA
04
F0
04
FD
FA
00
F9
F8
FD
F3
F8
FE
F4
F1
00
FF
04
FA
08
09
04
01
02
FA
F9
FA
05
F7
07
EE
FD
FF
05
FB
F5
FD
06
00
FA
FD
F5
FF
04
F7
01
01
04
0A
05
09
FD
06
05
E9
F3
06
F4
FD
F7
F9
00
07
F1
FA
06
00
FE
02
00
EB
FC
FD
0F
F5
F8
F7
FE
00
FE
FA
01
F6
EE
FF
F5
03
05
FD
F9
02
F6
FC
01
FF
01
01
F1
02
EE
FA
05
08
04
07
F0
FE
0A
FD
03
FD
05
FD
07
FF
03
FE
04
0F
FB
F3
F5
F7
01
04
06
02
05
01
04
09
03
F0
06
FD
F4
FF
0A
00
05
FD
03
F6
00
05
FB
FD
F7
FA
01
FE
F8
07
FF
F8
02
09
FC
07
FD
02
F4
F5
FA
0B
ED
F1
FB
F6
F4
03
ED
FB
FC
F8
FF
F6
03
FA
FB
ED
08
07
00
07
FB
FC
0A
02
FF
FA
00
FD
F9
00
01
F7
08
01
01
FD
EC
FB
F7
01
05
00
03
01
F9
FB
FA
01
07
04
00
FF
05
F6
FD
03
F7
FE
EF
FD
04
FA
F0
F5
03
FC
09
09
F7
FE
02
FB
FA
FE
04
02
04
FD
07
03
06
FB
FC
F7
F4
FD
F0
04
05
FE
08
F9
F3
05
02
F3
F5
FC
05
EF
F4
F6
FC
FC
FC
04
EF
FD
FA
FE
F2
F4
FF
F8
FF
02
F7
01
F7
07
09
06
FA
FF
F9
06
FE
F8
FE
08
00
03
02
00
FD
FC
FE
FD
01
02
FF
FF
F5
FD
FB
0A
08
0C
03
FA
06
03
F8
F5
FD
06
FE
F8
03
F6
08
04
FF
01
F8
00
08
F6
F3
08
FF
FD
01
FE
08
01
02
FC
EB
FA
F8
E9
FA
02
F7
F9
00
EF
FE
EF
FE
04
F2
02
F7
FD
06
06
FE
00
F7
F8
FE
F8
F5
09
F5
07
F3
FB
00
05
09
05
F1
FF
F8
03
FA
F4
FA
FF
F4
02
04
03
F7
06
FD
F5
F9
FF
03
FA
02
FE
01
05
01
04
FF
FF
FD
FA
F8
FD
01
04
FE
01
FD
FC
01
FF
01
00
FD
F7
FE
06
FF
FF
FC
FB
03
FE
01
02
FD
04
FE
FF
FD
FE
FA
FB
FE
FA
FE
FB
FA
05
F9
F9
FE
03
F9
FC
FA
05
00
FD
FA
00
02
02
00
05
01
00
06
FC
FC
F9
FD
FD
F9
05
FA
F8
02
F9
02
FC
03
FE
02
FE
FD
FF
F5
FE
F9
04
03
FF
FC
FD
FB
FF
FB
00
F9
02
FB
05
05
00
FD
03
05
FF
FB
00
FA
FF
F5
03
FC
FE
05
F9
FD
F6
FE
FC
03
FC
00
FD
01
00
FC
FA
FE
00
02
FA
FB
00
FF
06
06
01
01
01
FA
02
FB
00
00
03
00
F7
FB
FC
02
F9
02
FC
04
FD
FD
F9
FD
FA
04
FC
05
05
FD
01
FF
FC
00
F9
01
FF
FE
FB
FF
FB
FF
FF
FF
00
FF
01
03
FF
00
00
01
FE
03
FD
03
03
01
FB
03
05
FD
FD
F9
FA
FD
FD
FD
FC
01
FD
FB
03
02
FE
00
05
03
03
FD
00
FB
FE
03
FE
FE
FE
FF
FE
02
FB
FF
F8
03
FE
F8
01
06
05
05
00
FE
FF
FB
FD
04
FA
FE
FC
01
01
FA
01
FB
FC
02
F5
F9
F3
05
FD
08
00
06
05
FF
FA
FE
FC
FE
05
05
05
02
FD
FF
F7
FC
00
05
FE
02
F8
03
FD
F5
03
FE
F6
FE
FC
09
00
FE
0A
FB
00
FC
F8
FF
00
FC
FD
00
FC
F4
03
FD
FA
03
03
F9
04
F9
FD
FA
FF
00
03
09
FD
F7
FE
FF
FF
FD
F6
00
FF
F4
01
07
FE
FD
F7
03
F6
FB
05
FD
03
FC
F9
FC
F9
F9
02
FE
05
F9
02
FD
FF
F8
F8
00
FD
00
03
FC
01
00
FD
03
FA
FD
02
F8
03
F9
03
F5
FD
FB
FD
02
02
FB
FF
F8
05
FE
09
FD
F9
03
FD
FB
00
08
04
04
FE
02
FD
03
00
FB
FF
FA
01
F9
FE
F8
FF
FA
F8
FF
FB
FF
F3
FC
FA
05
FF
FD
F9
09
06
F9
F9
F8
05
FE
FF
02
FC
FD
01
FC
01
FC
F9
F8
FF
05
03
04
EE
FD
00
FF
FF
02
00
03
03
02
02
FF
F6
FE
FB
03
F8
00
FA
F8
08
00
FD
03
FD
FE
F6
F5
FB
03
FF
02
FD
FF
05
07
00
07
FB
F5
FB
FD
F5
05
04
FD
FB
FF
F5
01
F3
04
08
FA
00
02
F9
01
0B
FF
F3
FB
F6
00
FB
02
FE
FA
FF
F8
05
FD
04
09
00
08
09
FC
F9
FC
01
02
FE
F6
05
04
06
F4
FA
F3
03
01
01
03
01
FA
02
FC
FC
00
FD
01
FC
F9
F7
FE
F7
FE
F6
FF
FF
FB
0A
0C
FB
00
F5
FC
04
FE
12
FA
01
FF
05
E9
F5
08
05
FA
00
F8
F9
FA
FC
F9
01
06
FA
07
03
00
04
01
03
FE
F7
FF
FB
01
05
FE
00
F7
01
FE
FE
FB
FB
06
02
06
FE
FD
F7
F9
F6
FD
FC
0A
07
03
01
FE
0A
05
0C
F6
FA
FB
FF
FB
F6
05
F4
03
FA
00
FB
02
06
FD
02
07
FA
F9
F5
00
07
FF
01
07
FC
07
FD
F9
FA
01
FC
F4
01
08
F5
F9
F9
00
F7
F6
F9
F5
F9
F1
FB
FF
FD
FF
F5
FA
08
F3
04
FC
09
F3
01
F8
03
01
03
01
06
00
01
06
FD
FD
F3
03
0E
F7
FF
05
FD
FB
F3
FB
04
F0
02
03
FE
FE
F0
F4
FA
05
FB
08
FF
01
FA
00
04
03
01
04
0F
FF
FE
02
F8
FD
FE
03
FE
04
FE
02
FE
02
07
FB
FC
F8
FF
0A
00
08
04
F9
FA
F6
00
F7
F8
FB
F3
FB
04
FF
0B
F8
03
FE
FF
FC
FA
04
FE
FF
06
FB
FB
F1
FC
FA
02
00
03
FF
F8
00
FE
03
FD
FB
03
FF
F5
FD
03
FD
01
02
FC
F4
FF
02
FF
F8
FD
08
02
F8
F8
EF
06
06
F8
0A
FC
EA
05
0C
00
FB
F9
11
FE
FA
F7
05
02
00
F9
01
00
F5
02
01
01
FF
FC
08
F6
0A
F0
F9
FB
FC
FC
EE
05
FF
F8
F7
FE
FC
FD
0B
00
03
FF
FF
04
FE
F5
03
FE
FB
FC
F9
03
F2
01
0B
FF
05
FE
03
F8
06
08
06
FD
FC
FF
00
FF
FF
02
05
FF
F6
FB
01
F9
05
07
F9
FB
F2
F7
FA
04
07
F8
01
00
F2
ED
FD
00
F6
F4
06
FC
FD
F0
FC
F8
F5
00
02
FC
03
07
07
01
01
FD
07
F5
FF
06
05
EF
05
06
00
F9
FD
03
FB
FC
F7
F9
FB
F9
EB
06
FF
FF
00
08
F9
08
07
F7
01
FB
FD
FC
06
FF
FF
F6
00
03
F6
FE
05
FA
F9
09
F8
09
05
FD
01
FB
00
F9
FD
01
FD
03
FC
04
F9
FD
FF
FE
F2
01
01
EC
FD
F3
F8
0D
01
F4
00
EE
FC
F4
F7
F8
FF
F7
F7
04
FA
00
FA
FC
07
02
F3
F3
FF
03
FB
FD
0B
06
FD
04
05
02
01
06
07
F2
FF
08
07
FB
F8
FD
F4
09
FC
04
01
FC
FE
00
00
FC
05
05
06
FF
00
04
06
FF
FC
00
FD
05
FF
05
08
F8
09
00
01
01
02
0A
00
FE
01
01
00
04
FF
FF
03
06
00
FE
01
00
FD
FF
04
02
02
FF
FA
FE
FB
02
FB
00
02
FC
03
04
03
FC
FE
00
01
00
04
FF
FD
01
02
01
06
05
02
FC
FF
FD
FF
05
03
00
FE
FE
02
04
04
FD
01
FC
02
FE
01
FF
FC
03
04
FD
FC
01
FF
01
F9
05
FF
04
FD
00
06
00
01
FF
07
F9
02
01
08
03
02
08
02
FD
00
FE
02
03
FF
00
07
FF
02
00
FE
03
FE
FB
03
01
00
00
05
FE
02
06
04
FB
04
F8
FE
01
FC
01
FB
FE
00
00
FE
FD
02
FE
04
01
FF
05
02
01
02
FF
00
01
0A
05
00
04
02
FD
FB
00
06
01
FE
FF
02
02
03
FA
FD
02
FE
FD
FD
04
01
F8
07
00
04
00
FB
03
00
FA
FA
00
FD
FE
FF
F9
FC
FD
00
03
FE
02
04
FE
00
00
03
07
FF
FD
03
FA
00
03
FC
06
03
FE
01
05
04
03
05
02
FE
01
FE
01
FD
01
05
FF
04
01
FD
FC
04
06
03
FB
00
FC
02
FE
03
03
04
04
F0
FF
F7
FE
F4
F2
FB
F4
FE
FB
09
01
F6
FA
F1
FD
FB
01
FE
F9
04
04
FF
F7
E7
02
00
FB
FE
FB
EC
0D
01
09
01
F1
FC
06
FF
F0
FA
FD
00
F3
02
F7
EF
05
F2
FF
0C
FC
F9
F7
F9
08
FC
F5
FC
FF
E7
03
F9
F4
FA
FB
F7
FC
01
02
09
06
FA
F6
FF
F0
F9
FE
06
F2
03
FC
F7
F7
FF
F8
04
0E
FA
01
FC
FF
02
FC
FD
FA
FD
FA
03
FD
FE
FC
F4
08
FC
F9
00
07
02
01
F5
03
F1
FF
F6
05
0D
FA
EE
E9
0B
FB
FE
F5
00
F9
00
F0
03
FF
E8
FC
F9
F3
04
05
F9
0D
F3
F6
0A
F9
06
F5
FE
FD
FA
FF
03
F9
FE
03
FD
F3
06
02
02
01
F9
FB
FB
F8
F9
01
F9
F2
0B
F7
01
03
FD
F5
F6
F5
FE
04
FF
05
FC
FC
FA
FB
F0
04
F6
02
F4
07
08
F7
FC
F8
0A
F9
F6
F6
00
02
FA
01
04
00
E6
F0
FC
EF
FA
F8
0B
08
06
F4
FF
E9
FC
F5
F0
FD
07
0B
F6
F3
EE
FD
FB
F9
F3
09
FF
F5
F8
FA
03
F6
FC
FC
02
F3
0A
FA
06
02
F3
F1
09
00
FC
FE
ED
F9
FC
F7
F4
06
F7
08
F6
F7
08
FA
03
FB
F6
EB
F6
F3
FB
F2
06
0C
F9
FF
F2
FD
FA
F8
FF
03
03
FD
07
F2
F9
FF
00
FB
06
EF
FA
F5
01
02
F5
FA
F5
0A
F5
00
08
FD
F2
FD
00
FE
00
FD
FD
F5
FE
F5
F5
F8
02
F5
09
F5
04
0A
0B
F3
F9
FC
F3
F0
FC
F8
02
05
F0
FC
01
05
EE
FA
03
00
0A
F5
0B
FC
EF
F0
01
FC
F6
FE
F3
F9
F7
E3
FC
FE
ED
FA
FA
F3
FC
FF
E5
0B
FC
F2
05
00
F4
F8
00
09
01
F8
F1
F6
01
FA
F3
04
FD
08
F6
04
FE
01
FA
0E
00
05
07
F5
01
FF
FD
00
06
FB
03
FD
04
F7
FE
F0
FD
08
FF
F8
05
F8
02
01
08
EA
0A
F0
07
EC
00
F2
FA
FC
F6
FF
FE
F1
01
EC
00
04
EE
F0
F3
FC
07
F8
FF
FF
0A
12
FD
FB
05
05
F3
FC
F3
FA
00
FD
06
03
F8
00
EB
FF
F8
FE
F3
F4
FD
F6
07
00
00
07
FB
08
F3
F4
FC
01
02
06
01
04
08
F4
0F
F5
F9
F7
F3
03
10
10
FF
FE
03
F9
05
FF
06
FB
F3
EF
FE
F2
FC
05
F8
F5
F7
05
02
F7
FA
FA
01
00
FC
F7
EB
03
02
03
FE
FD
FC
00
FB
FD
FC
F9
F9
04
FB
FD
00
02
01
02
FD
03
FF
04
FE
FA
02
FF
00
02
FF
04
FF
03
00
04
FE
FE
06
FC
FC
FF
F8
FE
00
FC
FE
FF
02
FC
01
FC
F8
FC
FF
FF
FC
00
FF
FE
03
02
01
03
FE
FF
01
FC
03
00
02
FB
FC
00
00
FD
FD
02
04
FF
FF
FF
00
F9
04
FE
01
FC
FB
05
00
FE
04
05
FF
FD
FC
FC
00
FB
FF
F9
FF
02
FD
00
FD
04
FE
00
03
FD
FC
02
FE
01
00
01
FB
01
01
FD
FF
FF
00
FC
00
00
00
FE
FE
01
01
00
FC
FF
FD
02
01
FE
FD
FE
FC
03
FD
FF
05
00
FD
01
00
FA
00
FC
FE
00
FA
04
02
00
00
04
02
F8
05
02
FE
FD
00
FF
FF
00
FD
00
07
FE
01
02
00
02
FB
FD
FC
FC
FC
00
FB
FE
FF
04
00
FD
FC
00
00
FD
FF
02
05
FE
00
FE
06
FF
02
02
FC
FE
FD
FF
04
03
FF
01
00
00
FF
FC
00
FE
01
FF
05
04
02
FF
FC
FB
03
01
00
FA
FF
FC
05
F9
FE
02
FD
00
FF
02
03
FC
02
FC
FE
00
FD
F8
F8
01
FC
06
00
FE
FE
02
FB
F2
FE
02
02
FD
00
04
FE
06
00
FD
01
FD
FF
01
02
FF
01
04
00
FC
FB
FB
FD
FD
02
06
FE
FB
02
FF
06
F9
F5
FA
FA
FD
FE
FF
FF
FC
FF
02
FD
FF
04
FA
03
F7
03
FD
FC
07
07
04
07
FD
F6
F9
F6
00
00
00
02
01
05
02
04
08
FD
FD
F7
02
FB
FF
F9
FF
01
07
FA
F7
F9
02
F8
05
FB
05
00
03
FD
FA
FC
F8
F3
04
04
FB
FF
01
FA
03
F7
04
00
F6
02
F9
F5
F6
FC
01
02
00
01
05
F2
03
F7
F9
03
04
F9
02
04
04
FA
03
03
F8
02
02
06
03
03
FF
FB
F8
02
FE
04
07
F9
FD
F8
FD
FD
FB
06
02
FD
04
06
FD
08
FB
FD
03
FA
02
FC
03
FF
04
FB
F4
F7
01
FA
01
FD
00
02
02
00
05
03
F7
FA
FD
F8
06
07
00
01
FB
08
00
FD
FB
FD
FF
01
FE
FC
F4
04
03
00
02
05
FC
04
FA
03
00
07
00
04
FC
FD
FB
FD
05
07
02
04
04
00
FF
F5
FD
07
02
FC
01
F6
FA
01
03
FD
02
03
03
FC
01
01
06
F8
01
F0
FD
F3
00
04
05
F7
F9
FE
01
FC
FB
02
F9
FF
F4
01
07
05
F8
02
F9
F4
F9
FC
FD
05
07
FD
01
FC
00
F0
FE
EE
05
FF
01
FE
06
F7
F7
F0
F7
F7
05
03
EF
EE
FC
04
09
F9
F8
FF
F6
FE
F6
05
05
05
00
FE
02
FD
05
FB
03
08
F1
03
FA
FE
F8
00
F7
FD
F5
F1
FE
FB
FD
07
F9
FA
FD
EF
FB
00
04
FC
F7
01
F5
01
F3
05
03
FF
F8
F6
00
FF
F6
F8
0C
F3
F9
FC
F9
02
FB
FF
06
FE
F4
00
FD
01
FD
F9
FB
01
FB
03
08
FD
FF
F4
04
08
FC
FB
FF
07
01
FC
EA
FF
00
03
ED
F8
FB
FB
FC
F5
07
EA
F7
03
F5
06
06
FD
06
F5
F9
FF
FF
F9
FE
02
01
06
06
08
F6
FF
FF
01
F6
F8
01
02
FA
F4
00
F4
FD
02
06
02
F2
F9
F4
FF
03
FE
FE
10
F2
03
04
0C
0D
F9
02
06
00
F4
01
FF
F8
FC
00
FC
F2
FE
FD
03
02
FD
FD
00
F6
FD
07
04
02
ED
EA
FB
EE
FB
FC
FF
F7
0A
F0
01
EE
FB
F3
F5
F8
02
02
06
FE
F4
05
F6
F8
F8
0A
F7
F4
FA
04
FB
00
FB
09
FB
FF
FC
FA
FE
02
00
F1
FC
07
F4
05
F7
EA
F8
F7
FE
00
FF
FB
FA
F8
FD
FA
00
05
FD
FC
FE
00
02
F7
FE
FD
06
07
FF
FF
05
03
06
FB
FE
FF
FC
F6
08
FA
FC
FA
08
F8
00
F9
FC
06
FC
FC
FE
00
01
03
FF
FA
F7
F8
FA
F8
FA
F9
FA
FA
06
FD
FC
FA
00
FD
06
01
03
F9
03
FC
F8
05
03
01
06
00
F9
FD
FA
01
FC
04
F6
F8
F8
FE
FF
FA
06
02
FA
FA
F4
02
F5
FE
01
02
FF
02
FE
05
FE
F8
F6
07
FF
08
00
09
09
00
FE
FB
FD
00
FF
FE
05
FA
F9
01
01
03
00
04
F4
09
05
00
0A
01
06
00
04
02
02
05
FF
07
FB
03
00
FD
07
06
07
F7
F6
FC
FD
04
01
04
F3
07
01
FA
04
FD
06
01
08
FD
02
00
01
FD
FF
02
FD
08
07
FF
F2
00
00
F6
FB
FF
0A
FA
01
F7
07
06
FD
F9
09
FC
F9
05
00
01
FB
04
FC
06
FC
02
FD
06
01
00
FC
F6
FE
F4
FD
08
07
04
F4
03
FE
FF
F9
02
01
04
09
05
07
FE
06
F9
03
02
03
FE
03
01
FE
04
04
FC
01
06
FE
F6
FB
01
01
00
07
04
FF
00
F6
FD
04
08
00
FE
FF
FF
00
FF
FA
F6
03
F5
F4
F6
FA
FD
F8
F1
0B
0A
04
F9
FC
02
08
FD
05
FC
00
02
04
FD
F0
F6
00
FF
FF
0D
F7
F6
FD
07
FE
FB
F8
F4
02
F8
F2
F5
08
FD
FF
F9
F3
FA
0B
F9
FF
03
F8
F5
F8
08
EC
07
00
FC
FB
FE
F6
01
FF
ED
F8
04
05
F5
FD
FF
F3
FE
03
F8
10
02
06
F3
12
0C
FD
00
FD
F4
FA
F5
F1
10
04
F5
03
09
FD
F9
FD
FF
01
FD
F8
FF
04
EC
00
F6
10
FA
F6
FA
03
EE
F7
FC
FC
FB
F7
FD
F9
F2
F9
02
02
04
FF
F1
02
02
F9
09
F2
FF
F8
F9
FF
01
F1
FF
F7
FD
F6
FF
04
F7
F4
03
0A
FB
F3
01
FC
F5
F8
F3
00
02
FD
0F
02
05
FB
FD
09
F6
03
F4
02
01
FA
F8
F3
F9
04
FD
0E
02
F6
F4
F8
01
F3
FB
FB
F6
04
05
F4
FA
01
FD
00
F6
F5
02
FB
F9
FE
FB
01
F6
04
F8
0B
F5
FF
05
FD
FE
F6
00
0F
FD
F9
01
F9
F9
F4
FF
FC
EF
F6
F8
02
FA
01
FD
F9
00
04
06
F8
F7
FB
06
04
FC
F5
02
F4
ED
F7
F5
EF
02
F3
01
FC
FC
FD
03
F2
0E
FF
05
04
F8
0A
03
FB
FC
F0
04
02
00
FB
F4
02
FA
00
F1
04
EE
06
0F
00
F5
F1
F9
FB
02
04
04
01
FC
FD
FF
F1
04
0C
F6
FC
04
F7
08
FC
FD
05
FA
FA
FA
FA
FB
FB
02
08
FC
FB
F7
FE
FC
06
FB
03
F5
09
FA
F9
F8
05
F7
FC
07
FF
F9
F9
F6
F9
FF
FB
00
03
08
FB
FD
F8
F3
FB
04
FF
FE
04
FA
F9
02
F5
01
05
00
01
FB
FD
F0
FA
02
FA
FD
FD
FA
F9
00
07
F3
FE
03
FB
F4
FC
0D
F7
FC
FF
FF
F5
03
F3
F7
0A
02
FD
F9
FD
06
FE
F9
FD
FC
04
07
FC
FE
FA
03
04
F9
06
10
01
0F
F6
FC
04
FD
03
FA
01
03
0C
11
03
F4
F4
07
09
03
07
FA
FF
F3
F5
E8
FF
02
02
FE
F9
FB
02
F1
FA
F1
FA
FA
FD
FF
06
F7
F8
03
FC
0B
04
07
FF
08
FF
F9
02
FB
0A
FA
FA
F3
F8
FD
FD
F7
05
FE
FE
F4
01
FE
FC
FA
FC
FC
FC
FE
F6
03
F4
FC
FA
FE
F6
F5
F9
F4
0E
FC
F4
F8
FA
F4
02
05
F3
03
F7
FE
FC
07
FE
06
00
FE
F7
F9
05
01
FF
02
02
00
06
04
03
FC
F8
01
FF
FB
01
0A
FF
FA
F5
FB
FF
05
F7
FE
F4
FA
05
FB
08
FE
07
09
F9
FA
FC
05
03
FE
07
FE
FB
FC
F8
FC
F7
01
05
F8
F9
07
FA
00
F4
FB
0A
F9
FD
F9
F6
08
05
FF
FB
FB
04
04
02
F8
04
F4
FE
FB
06
F5
F8
F8
06
FE
F5
04
F7
FE
F6
FF
FD
00
FA
0C
02
0E
F6
FD
FE
FA
FD
FC
FD
FB
FE
01
FD
F5
03
FA
FD
FF
02
F8
FD
F9
F4
FA
00
FC
07
FF
00
FB
04
FC
F8
FE
FB
01
04
FB
FC
FA
FC
03
FA
04
FC
01
04
F7
F9
F5
00
07
FD
F9
F8
FE
F7
00
FE
FF
F6
01
FC
FA
F9
05
FB
FC
F5
F8
01
FA
02
F7
0A
FF
08
FF
FA
F5
FD
02
0B
FD
06
07
FA
02
FE
FA
F8
FA
FB
05
F8
F4
FD
F7
FF
FE
03
09
FC
FC
02
06
F5
FB
F7
08
02
00
04
FB
00
FB
F7
FE
FE
FA
FF
FD
FB
FC
FD
FE
F7
FB
FA
F9
0A
FC
F7
F6
F2
F2
FB
05
00
FF
01
F8
FB
F4
FE
F5
F9
FB
00
F4
FE
FD
FA
F9
FB
03
FA
FD
FA
01
FB
04
FA
FA
02
02
F6
F9
FF
FF
FC
0C
F8
F4
FC
05
06
F8
FB
FF
FE
FC
EF
00
00
01
F8
FB
05
F8
FB
06
FF
03
F9
FB
FE
FE
FF
FD
F9
F9
F7
0A
06
01
FD
F9
02
F9
01
03
FD
03
FA
04
04
F1
FD
F8
FB
0C
F5
F1
00
05
F1
05
07
FD
06
FE
FE
01
01
F2
F7
0A
FC
FE
FE
F3
FC
01
F7
F6
00
00
00
FA
FE
FE
FC
03
FF
00
F5
04
03
F2
00
03
03
06
F7
FB
F9
F6
08
FA
EE
05
04
F9
01
FF
F5
FB
F5
FC
00
F7
FC
09
FC
FC
FF
FC
03
F9
F5
FE
00
F9
FF
FA
02
02
07
01
FD
00
F7
02
02
00
FE
F9
07
FE
FD
02
FC
06
F6
0D
02
FC
F8
04
01
FD
00
02
01
03
FA
FC
FE
F9
FD
01
F2
F6
FC
FD
09
F5
FE
03
FB
FD
FB
FE
03
FE
04
F6
07
03
F9
FB
FE
FA
FE
0A
02
FC
FC
F7
07
FD
F7
FB
FB
05
02
FF
F8
F8
F8
F8
FE
F7
FE
F5
09
03
F6
00
FF
FE
06
EF
FE
F0
05
FB
02
FC
FA
04
09
02
FC
FB
FD
FA
01
FE
07
FB
08
F4
FB
F4
09
08
FF
FF
FD
02
FE
FC
FB
05
0A
F8
F1
FD
EE
F5
F8
FC
FB
F6
F8
01
05
FC
F3
02
FF
FD
FA
01
04
F2
05
FD
00
FA
F5
F7
04
F7
02
FE
00
05
00
FA
FE
FD
FA
FD
03
03
FC
FD
01
00
04
FA
FE
FC
01
FF
01
F9
FC
FF
00
FF
F4
FB
07
FB
F2
0B
FB
FC
02
FB
01
F6
01
F6
02
F6
F5
00
FF
F8
FC
FE
F9
06
F9
F5
FF
03
FB
F8
02
FC
FC
02
02
02
03
FD
03
01
FF
01
FF
06
02
FB
FD
FE
01
F7
FB
FD
F8
05
FC
04
02
08
01
F9
FF
02
04
FB
FB
F4
F2
05
F5
05
FF
08
FD
FE
FD
F9
FF
0B
F7
02
03
02
F1
06
FF
FE
FF
06
01
FC
FE
04
FF
06
02
FA
04
01
F7
04
00
FE
FD
FC
FB
01
00
00
FE
FF
FC
FA
FD
FD
00
05
FE
FC
F7
FC
FF
F8
FB
FC
FA
01
FA
03
FF
00
07
F5
F6
FE
03
FE
FE
00
FA
FB
FD
F9
03
FD
00
00
FC
00
04
FF
00
FC
02
04
FF
FC
F9
09
FB
01
FF
F7
01
FF
04
FF
05
FD
F9
FE
FC
01
03
02
04
FB
02
00
FC
00
01
FC
06
09
FD
FE
03
01
FF
F9
F5
FB
FE
03
F7
08
FB
F6
FC
02
05
FD
FA
02
FF
02
FC
05
FD
F8
F6
FE
06
FC
FF
02
F1
FB
05
FE
FE
01
04
F3
02
02
FC
F8
F6
FE
F3
05
FC
F3
FE
FE
F5
F7
02
F7
04
04
04
03
03
F2
F3
FF
F9
00
04
F5
FE
FB
FB
FC
FF
FB
FF
FE
01
F8
00
FC
FE
FE
FE
FF
01
FC
03
F8
FE
FB
EF
02
09
01
03
FB
FF
07
FB
06
FF
F4
F6
FF
01
FE
01
0D
00
05
00
02
08
F8
F6
F3
00
FC
F1
05
FD
08
F5
0B
00
FF
F7
FF
FE
FF
FD
FE
04
03
FD
05
FE
04
F8
FA
FD
F4
09
FB
FB
FA
FB
EF
F5
F8
FA
FE
FE
04
02
04
03
00
04
FD
F6
02
05
01
FA
FE
FB
FA
06
FA
FA
06
02
00
FD
FA
F7
FC
04
04
FA
F7
F4
00
FD
F5
FA
F6
F8
06
FD
FA
FB
07
F5
FF
FB
04
FD
F6
04
0B
0C
FC
FC
0E
F2
0D
F5
F7
00
07
FC
04
05
FF
FD
F2
F8
02
01
02
F8
F1
FF
FF
00
03
F0
F7
F6
02
F6
FE
FA
00
03
FB
02
F6
04
FC
FE
FA
04
FD
FC
F1
F8
02
F5
FF
05
04
06
F0
F7
FD
F8
F4
01
02
0B
FC
F6
F2
FD
FF
FD
02
02
F9
00
04
F3
F8
01
FF
FC
EE
FD
FC
04
FE
F4
FF
04
02
F3
F7
FA
FC
0B
F2
02
EF
F5
00
FB
E4
00
0E
F5
FB
01
F9
FD
04
FC
02
06
00
FB
00
FB
EA
FD
F3
F1
F7
0A
FF
FB
F3
F2
FB
0A
F7
FC
EF
FE
FB
02
01
F4
09
01
FF
00
F9
FC
FE
FF
F8
00
F2
F8
09
FF
00
F9
F3
F8
F9
FA
EF
0B
07
03
FA
FD
08
0F
FD
04
F9
EE
F5
F8
07
FA
05
F3
FC
F2
FF
EF
FE
04
01
02
FB
FF
EE
F9
FA
04
00
FD
F7
00
F5
04
FF
FF
02
F9
04
F1
FA
F8
ED
FE
F0
FF
F8
05
FE
02
01
05
FC
F8
FC
01
09
FC
F8
F6
0B
F5
05
F3
F3
FD
02
0D
08
F9
0C
F1
FB
FF
F1
0B
05
FE
FC
F3
F2
F5
F5
FB
F1
EC
0E
07
FA
FC
F6
FB
FB
F8
F1
FE
02
FC
FC
F0
F8
F3
FF
FF
FC
F2
FE
FE
F5
FC
08
FE
F5
F1
F4
FF
00
F7
F8
01
05
FB
FB
F9
F1
F1
03
03
0C
FB
F7
FA
02
F7
00
01
F4
02
F8
0D
0B
FD
06
FD
F4
F5
FD
FC
0A
FB
03
0B
02
05
F6
F1
E8
02
0B
01
FC
FC
F9
F4
FC
EE
FD
02
EC
E9
F7
F9
02
FE
00
F5
F3
F0
FA
F5
06
F1
FE
0A
F5
F6
FA
F9
FF
F8
FF
FB
FD
F8
EF
04
F9
06
01
FE
FE
06
03
FC
EF
FC
FE
07
04
FA
F6
00
F8
08
FF
01
03
02
F5
FA
FA
07
FA
06
FB
01
F8
FC
FE
F0
02
FA
03
01
FF
06
F5
F3
F0
F8
FB
F5
F7
06
F6
00
01
F4
04
03
F1
0E
FD
03
03
09
FE
F6
04
08
FD
09
F6
06
FF
F4
04
07
08
F9
F5
05
FD
00
F8
05
F8
FB
F5
F4
0C
FB
02
03
FD
FE
F4
FC
FE
EF
F1
FB
00
F6
05
F1
0E
05
FE
06
FD
06
04
FC
06
06
F7
F6
FD
05
FF
FB
03
01
04
FC
F9
01
F7
01
06
FB
01
01
FA
00
01
F9
07
07
F8
FA
F4
0F
00
F4
F5
FB
09
FD
FB
FC
00
00
F8
FF
F2
07
F8
06
FD
00
09
FE
FB
F6
FB
FC
F3
07
FC
FD
FE
F7
F8
FB
F6
01
FC
04
00
07
0A
FC
EF
FE
05
F4
FC
FB
01
FD
01
03
FC
01
04
FB
04
FF
F8
F5
FA
F8
FA
02
0A
F8
00
F8
04
00
FE
08
FC
F9
00
02
0A
06
FA
08
03
F4
F8
F3
F7
0B
04
FB
09
00
F6
FA
01
00
F5
F8
08
06
FB
07
07
06
F9
F0
F5
05
FF
02
FD
00
00
F0
F5
F5
04
FC
FA
00
02
07
F2
FC
FA
FF
02
F8
F4
FE
F4
07
FD
FB
F8
FB
F9
FF
EE
02
FE
02
FE
05
01
03
06
F5
06
09
F4
F8
FF
FF
06
F7
F4
FA
0A
F3
FD
06
02
02
FB
FC
F9
02
FB
F5
07
FF
00
F8
FE
FE
00
FA
02
08
01
05
FE
F9
FE
FE
05
FC
F9
FE
01
F6
F2
FE
FF
FF
08
F8
03
01
02
07
FF
F5
05
02
00
FA
FE
F5
FA
FD
FF
FC
07
F9
08
FB
F8
FF
FD
FB
F5
F7
03
FD
FA
FD
FF
03
00
05
FE
F4
07
07
FA
01
03
F2
01
FE
07
02
06
05
05
FE
00
03
FC
0A
FB
03
03
FC
FA
00
01
FB
F9
FA
FC
FB
FA
F6
02
FB
01
FB
FC
03
F3
F5
F7
F6
03
FE
F4
06
00
01
FA
FF
08
FA
07
FD
FD
FA
F9
F3
F8
00
F8
FB
FE
F8
03
01
03
FF
FE
05
F6
00
FD
00
F8
FF
03
FC
F8
00
07
07
EF
03
FA
F7
FF
06
FE
00
0A
08
FE
FE
FD
FB
FF
04
03
04
FC
05
02
01
FB
03
FA
00
F3
01
04
05
FC
08
FB
06
FB
02
01
EF
F7
F5
F9
FC
02
06
F3
05
06
F4
FD
03
00
FD
FB
00
FE
02
F5
08
F1
FF
01
08
F3
04
02
00
05
FE
FB
03
08
F8
FA
03
04
00
FD
05
FA
FE
FC
F1
F9
06
ED
04
F4
EA
FB
05
FA
F6
F7
FD
F8
07
09
0A
FE
FD
FE
FE
03
FF
0B
FB
FA
F8
0A
F5
F8
01
08
FF
FE
FA
F9
F8
FE
03
FD
07
FC
01
01
04
08
FF
FC
F6
F0
FF
FD
FB
02
F6
F8
F3
FB
F6
02
F0
FC
FD
F9
F2
F2
F4
F4
FA
FC
F7
04
FE
F5
03
FB
FE
02
04
02
FC
F6
FB
00
FD
FB
05
FF
05
F8
FD
06
FF
07
F1
F9
08
04
F8
F7
FE
08
FB
08
FF
F5
FD
01
06
06
03
02
FB
F2
FC
F5
FA
F8
F7
FF
F0
FB
F3
F9
F7
FD
FD
FF
03
F2
FF
FF
F4
03
F4
0B
01
FF
F7
08
FF
F8
FA
06
FA
0B
04
FE
F9
FB
FC
0A
FE
FA
FB
F4
00
FC
00
F9
FC
F8
03
F9
FD
EF
FC
FF
FC
00
FF
FC
02
FE
03
03
00
FB
FA
04
00
05
01
FF
F6
FE
00
FC
FE
08
FA
08
09
07
FB
01
FC
FA
07
FD
0B
FE
FF
02
F2
F6
F6
F6
FB
F9
04
09
FE
03
F2
03
FD
08
FB
F9
03
FE
FB
FE
00
F5
FE
FB
F2
FC
02
F6
05
02
06
F7
F9
F0
FE
03
06
04
07
04
F7
05
FC
FC
05
FF
06
FB
FD
FA
F7
06
FF
01
EE
F5
03
FD
F7
FB
ED
F6
08
F9
F2
F3
FA
08
06
F7
01
00
F9
03
EE
08
FB
02
F2
0A
FA
FB
03
08
F5
01
07
FE
04
03
F1
FB
05
FF
05
FD
05
FF
FC
F8
FF
EA
F7
FA
01
FB
F9
F0
06
05
00
FE
01
FD
02
ED
FC
00
F7
FE
F7
02
03
FF
FF
0C
FD
EC
FF
FC
01
FC
EE
FC
FA
FD
FC
F7
09
FE
FA
F3
FE
F7
08
00
FE
06
09
F1
FD
FE
01
FE
FA
FC
F5
04
FF
00
F1
F5
06
03
F4
06
02
FA
03
03
02
04
FC
F4
F9
02
FF
F0
FA
03
FD
F7
FF
F5
01
F8
01
02
09
01
03
05
FE
06
FC
07
00
FF
00
04
F3
F9
FE
03
FE
FB
08
05
01
F5
FD
EF
02
FC
01
01
F9
FA
F8
F3
FE
01
FF
09
FA
FC
00
F6
FA
03
F0
01
F0
FC
03
F1
F7
02
FC
FC
FF
FD
00
F5
05
FF
02
FF
FC
FE
FF
01
05
0A
FE
FD
FB
F9
01
01
FF
FB
00
01
F7
03
FE
FE
FA
FF
FA
04
F6
F8
F7
0A
F9
F4
FA
F9
ED
F9
FA
F8
00
EE
02
F5
F7
00
01
01
F7
04
05
FE
F9
F4
F5
FD
06
08
06
F0
F1
FA
FB
F2
FC
FE
FF
00
09
FD
FE
0E
01
F6
FB
FB
02
05
F7
FF
F3
06
00
EB
EE
01
FF
FC
02
F6
F9
FC
FA
03
FC
02
02
FC
F3
0F
F2
04
09
EA
F8
0A
F7
FF
04
FF
00
F4
F1
F1
05
08
F7
F8
06
FF
EB
F9
F9
FF
03
0A
04
07
F5
F4
00
FD
0A
0C
FB
02
FD
F9
FF
00
F9
F7
F5
F4
09
F4
06
FE
F1
F6
F1
00
F6
F2
F5
FF
03
F0
F0
F8
02
01
F1
F8
FE
06
FF
07
F8
00
FD
F7
04
06
FB
09
F6
F5
F6
F6
0D
0A
F8
01
F8
0C
F9
F1
FE
F3
EE
06
F6
00
F9
F9
EF
02
FF
00
06
F7
04
02
F8
F1
FE
03
F2
0A
FC
F2
05
07
F5
03
EE
F3
F7
F3
FC
F4
F8
FB
00
F3
07
04
05
F9
F7
02
FC
FF
F8
F2
07
F9
FB
FB
02
FB
F6
F9
03
FD
07
03
02
FE
F6
F9
F3
F7
07
03
00
F4
02
05
F5
F1
F9
F8
FD
F3
F7
FC
0B
FC
07
F8
04
FB
00
FF
FA
F3
05
08
F4
F4
F6
F4
F8
03
F1
F6
FA
09
04
03
02
0E
03
EF
F8
F4
FE
F9
00
F8
F7
FC
06
00
0A
06
FB
03
FF
FA
FD
07
FE
F8
F7
F5
FA
FF
F3
FC
F4
03
F4
FA
03
F9
F0
09
03
FB
06
FF
06
01
01
F5
FD
07
F6
05
00
02
F9
07
02
FC
06
FD
05
04
02
FC
F5
FB
FF
FA
F3
FE
F6
00
FD
FE
F6
F8
FB
FB
FA
F6
06
F5
FD
FC
0B
00
01
F6
F4
01
F4
01
07
00
FB
06
02
FC
F8
00
FC
FE
F7
FC
07
FC
03
0D
FE
0A
07
FE
0C
FB
FA
F6
00
FF
F5
FB
FA
FF
06
F3
01
F2
FB
F0
08
FC
FB
F6
F7
FE
08
FD
01
F4
F2
F7
02
F5
F6
FD
02
F8
F4
F8
00
08
09
F5
03
FA
0B
0C
F9
F2
03
06
01
FD
04
02
05
FE
FF
09
FB
02
F8
05
FC
F2
FD
F1
02
F9
02
03
07
F4
FD
07
05
01
00
F5
03
02
FF
05
02
FB
FA
00
F8
F9
F3
F5
01
FF
05
FD
F8
FE
08
FD
FD
04
F8
F4
05
F1
06
F9
FD
F3
06
FA
02
EE
F5
FC
F3
FE
F7
F9
03
F9
F9
06
EF
F8
F5
08
EE
07
FB
04
FC
01
FC
0C
01
02
F7
F8
FD
0A
FD
F9
F4
06
F6
05
FE
FC
F9
FD
F6
07
00
01
F4
EE
F7
F9
05
05
F8
FE
04
F3
EF
05
F6
FA
04
04
FC
01
F9
01
FB
F8
FF
FD
02
F6
FE
00
F5
FE
00
FE
00
F3
00
FC
FC
07
F6
00
0C
02
07
F6
F3
03
F8
FF
F7
FC
02
FB
F8
FE
F0
FD
FF
F3
F9
F5
04
FE
05
FC
08
09
08
F6
01
EB
F4
FC
FD
0E
01
09
FB
F5
FB
FB
00
F5
03
F8
08
FD
F5
F9
F9
FF
0A
04
FA
F6
0A
F0
F4
F1
06
03
FD
05
F1
01
FF
F8
00
EF
F8
FC
FA
03
06
EE
01
F8
F2
FC
FE
01
06
FC
FB
01
F6
FD
F9
F7
07
02
04
FA
F4
07
F7
F9
01
F5
FF
F8
FF
FF
F8
02
01
06
F9
EF
FB
07
03
F4
FA
F7
FF
FE
FC
F9
FE
07
01
F8
EF
FD
F2
FD
FE
F1
FC
07
00
F7
04
F8
FD
FF
F6
F9
F9
FC
F5
F2
F9
FF
F8
09
FE
F8
F1
00
06
08
F2
FC
F4
FD
F5
05
0A
F9
FC
FF
04
0C
FE
FE
03
FA
F6
01
02
05
01
04
02
06
03
F2
F4
F8
00
FF
F9
FB
00
FB
FB
F5
F3
00
FC
F7
FC
F8
03
09
08
03
F7
F9
EF
01
F3
F4
F9
FA
FA
04
F9
FA
FC
00
F5
FA
F7
F7
FF
FC
FD
FC
FA
FD
09
02
06
F6
FE
03
F9
FA
03
FE
09
00
FE
00
FE
FE
01
01
FE
FD
02
FD
01
04
F8
FE
FD
00
02
FD
FB
0A
01
FB
FF
F1
F6
FE
FE
05
05
FB
FA
07
F9
FC
01
0A
FF
0B
FD
FC
FC
03
FC
FA
00
04
FC
02
05
01
00
FE
FB
F9
02
02
F6
F5
06
FB
00
F9
FA
02
F5
04
01
03
FD
F5
00
00
01
08
FD
02
FB
F7
01
FD
FC
01
FE
FB
06
F5
FA
03
F9
FA
FF
FF
F9
F4
F8
FD
02
FD
FA
FE
07
FD
00
FB
05
00
FA
01
00
F9
07
FD
F8
01
FF
FE
FF
F5
FA
FB
02
FC
FB
06
FC
FF
F8
FC
FC
FC
FD
FE
FB
01
FD
FE
F7
09
FC
07
04
FE
00
04
01
FB
00
07
FB
06
FA
F9
01
08
F7
FF
F7
04
F8
F7
F8
FA
00
FD
FD
F8
0B
00
00
00
FB
FD
FE
F8
FD
F8
00
F5
02
00
05
02
F8
08
FD
FF
FE
F8
02
FA
01
FD
F7
FD
03
FD
00
FA
F9
07
FC
02
F9
FB
04
01
FC
FC
FE
FF
03
01
01
FA
00
03
FE
02
00
FB
F9
FB
00
FB
FC
FA
FC
F7
01
05
FC
03
FB
06
00
F8
FB
0C
03
FD
FB
0A
FA
F4
F5
01
FB
FE
F5
01
F7
F5
FE
FF
FD
02
FD
09
FC
FC
06
03
FC
FC
FE
0D
FA
03
FF
FC
01
02
00
00
05
FB
F5
FF
09
03
04
01
FB
FB
01
01
FF
FF
FA
FF
F9
FF
FF
FF
0B
FB
FE
01
F9
F5
F9
02
0C
F6
F1
F5
FC
FC
03
04
05
FF
01
FD
F9
01
01
03
05
F6
05
FD
02
02
FE
04
04
00
FE
FD
FF
FC
0B
FF
F2
FB
01
F9
FF
FB
00
FA
F9
FB
FF
FE
03
FE
F8
05
03
F9
04
FF
02
04
FA
FE
F6
F8
FC
F9
F9
F9
F7
05
FF
0C
01
F1
F8
FA
06
02
F2
FE
FB
01
F9
02
FF
07
01
03
FA
FD
0A
FD
FF
FE
F8
FC
FC
F5
FD
FB
08
FC
F9
F7
FE
FB
FF
FE
FC
FB
FA
09
00
F3
00
FF
FF
03
FF
FD
F7
FA
F8
FE
FD
F5
F4
05
FE
FE
02
FC
0A
01
FC
03
F7
00
01
01
FA
05
FF
FB
FA
FD
FC
F9
FD
07
FA
04
FF
FB
FF
03
03
F7
FC
FE
FA
06
08
FF
00
FB
FE
F8
07
F8
04
FD
FD
FB
FE
FA
06
FA
FD
04
FB
FA
F7
F7
FF
FB
FE
F8
FB
FE
01
07
08
06
FC
FB
F6
F4
F7
FD
F9
02
01
FD
FD
03
F8
F0
FD
F7
FD
F8
01
FE
08
F9
FA
08
00
FB
08
F7
FF
FE
0A
02
FA
05
FF
F8
06
FF
01
02
02
FA
F8
FF
01
F6
F8
F7
03
F5
F8
FA
F9
05
FE
03
03
FC
06
04
F8
05
03
07
04
F6
FB
FD
00
F8
FC
FE
00
06
FC
FF
FB
FC
FF
F8
F7
03
F3
FB
00
03
F8
05
03
01
FC
FE
05
03
02
04
06
00
F7
00
FD
01
FE
F9
00
F7
FF
FA
01
FF
FE
09
FB
00
FE
FD
F1
08
05
FA
FF
04
FD
FD
F0
FE
F8
FA
07
F9
FF
F1
02
F8
01
FE
FA
07
0B
FF
F9
FE
FE
FF
FC
FE
FE
0D
F5
F3
03
FE
00
FE
FA
03
F5
F7
FB
01
F7
05
04
FB
03
06
00
F6
FA
07
FB
07
03
F5
FA
01
F9
08
F7
FE
F9
02
F7
FA
02
00
FA
F8
01
02
0B
07
0B
00
F9
FF
FC
F6
06
FE
02
02
FF
FF
FD
FE
04
FF
FC
01
FC
EE
F4
05
03
FF
FE
FE
FF
F7
00
FB
FC
FB
F6
FD
03
EF
02
FB
0B
F1
02
F6
FE
FA
06
FD
06
F9
02
03
04
04
F9
F2
01
05
03
F5
02
00
F5
07
03
0B
05
FA
F7
F7
04
FB
07
FC
FD
F8
02
07
F5
F9
00
FA
F8
F9
FB
FB
FA
02
01
FE
02
F6
FA
FF
FD
FF
01
F8
F7
FF
FC
FC
FF
FE
FB
FB
FD
06
04
F5
F7
F9
03
00
05
F9
03
FC
F7
FE
F6
FD
00
FF
06
01
FA
FF
F5
07
FF
FA
FE
F8
FC
F5
F7
08
FF
FE
FF
FE
FE
EF
02
FC
08
00
FA
02
FB
0A
F5
04
FD
02
00
FC
FB
FD
EE
F6
FC
06
FD
04
00
02
FA
06
FC
FE
03
F8
F8
00
00
FA
00
FA
FF
FB
FE
07
FB
0A
FC
02
06
F8
F7
FF
0C
FD
02
03
FF
F6
01
FE
FD
FB
04
F4
03
F9
F9
FC
F6
00
FA
02
02
F9
FE
FD
F8
FA
FA
FA
F8
02
FC
02
FD
04
F8
09
F9
F7
FF
07
0F
FD
00
03
04
08
06
FF
FA
06
F9
01
FF
FD
FF
F5
F4
00
08
02
F6
FC
07
FB
00
FF
FC
FB
FF
F5
05
FD
08
03
0A
02
05
04
FC
06
FB
EE
06
00
FF
FD
03
01
01
03
02
F9
F8
F8
F7
05
F6
04
FD
F3
03
FA
FD
F8
FB
FC
FD
FE
01
02
01
08
00
02
F6
FC
00
01
08
F7
FE
00
04
FB
FC
05
FB
FA
FE
FA
08
FF
09
03
FD
F8
FC
01
06
04
04
FB
00
00
FF
FA
FE
FA
FE
02
05
FA
02
F9
00
05
0B
01
02
03
01
03
FA
08
FF
03
00
FD
04
FC
FD
03
FE
07
FF
FE
FF
FE
FC
F9
03
02
00
FF
00
FB
FF
FF
F7
02
FE
01
FE
04
06
FC
07
00
FC
00
02
F9
00
02
08
FC
01
FF
06
03
FE
FB
03
F8
07
FD
07
01
FD
FC
02
04
FF
07
FC
07
04
FB
FE
FD
FF
FB
02
FD
FA
03
FD
02
02
FF
FE
FA
FD
02
FB
04
00
F5
FE
FB
FE
FD
FB
FF
03
FC
F9
02
FD
FC
F7
07
03
05
04
FB
FD
03
F7
01
02
FA
05
00
00
FD
03
FF
FA
07
FB
F5
FD
00
FC
FC
F8
F9
FE
F8
01
02
FF
01
07
00
FA
FA
FF
FF
03
FE
03
01
03
FD
F7
F7
FB
00
FF
06
01
F9
F6
F7
00
02
FF
00
FE
05
FF
FD
0A
06
01
FD
F8
F9
FC
F5
01
F9
FC
FF
05
06
F9
01
01
FE
03
00
00
F5
FD
02
01
06
0A
02
05
02
FA
FE
F9
FC
09
02
04
02
02
F9
05
F5
FC
F9
FC
00
09
FD
FE
00
01
F9
F4
FE
FC
FC
01
FE
03
01
FF
01
F6
01
00
F6
03
FB
F2
FD
F6
02
FB
02
06
FD
FF
06
09
FD
05
FC
06
FC
FB
FC
FF
F9
F9
02
E5
F8
FF
FC
F0
03
E7
07
09
FF
F4
FD
0D
F2
F2
F8
0B
06
10
03
F8
04
FE
08
07
F9
01
01
F5
05
06
F8
FB
FE
FF
F9
EF
02
FC
FD
05
02
00
02
FB
04
F8
FC
01
07
08
01
F6
FC
FA
F8
F2
06
FD
F3
0D
EB
FB
F1
0D
F8
09
FF
EE
F8
F9
F0
03
01
13
FD
01
FA
FB
F1
F8
FB
05
02
FE
F9
F2
06
0C
FF
0E
FA
F1
F7
01
E5
03
01
F7
E4
FD
EF
F8
F9
F4
FE
F2
00
F4
06
00
F7
06
F8
09
FA
F8
00
FF
05
0F
FA
07
F6
FC
09
04
01
04
07
02
02
F7
FC
04
03
FF
F2
F9
03
03
07
FC
01
FF
01
07
09
05
F8
FA
FF
F7
FB
FB
06
F9
F7
06
F9
F9
FD
FF
F5
FA
F6
05
FF
F5
01
F6
06
F7
F9
F6
FC
08
F6
F5
FD
F3
E3
EF
FC
F4
FA
05
EA
F3
F0
FF
FF
FB
00
F8
F3
FE
0C
0B
F9
F6
F1
00
F1
FE
0A
01
02
F8
F6
02
FD
FB
FD
F9
F2
F6
0C
FB
EB
F6
FA
05
F7
03
02
EF
05
F7
FB
F6
FC
F8
FC
F6
FF
F9
FD
02
FF
FC
F2
FD
FB
FB
00
FB
F4
04
FF
07
03
06
FF
02
03
FC
06
02
FC
FA
05
FC
02
05
FF
FF
F5
05
F4
00
FA
FA
03
04
FB
01
FB
FD
00
03
01
F3
FE
F6
FE
07
FF
08
F9
01
01
00
F7
F9
00
FB
FF
FE
02
04
03
03
04
01
00
FD
EE
01
FF
FA
05
FD
F6
F8
FC
05
FC
03
FD
0C
03
FD
05
0A
F9
FE
02
F8
FB
F9
F2
07
F5
FC
FC
FA
FC
05
FC
FA
F2
01
FF
FD
01
04
FE
02
0B
F9
00
FF
FF
02
F8
03
F6
F0
F9
FB
FA
FD
00
F4
FD
00
07
F8
03
07
03
03
F7
07
02
07
03
FE
F1
FD
FC
03
06
FF
02
06
F9
FB
FD
FE
FB
07
F2
08
0A
F0
06
0C
FE
F9
04
01
F8
FB
00
01
FB
F8
F9
FC
03
FD
F7
F8
FA
F7
00
FE
FD
01
00
00
F7
FC
0B
F7
00
FA
FF
F7
F6
01
F3
FC
00
F8
FC
F8
F9
F9
0F
F1
FE
FE
04
F8
F4
F5
F9
F3
F7
F7
01
F9
09
FC
F1
01
FE
FF
07
00
04
F7
F4
04
F3
02
F4
02
F3
FA
05
F9
00
F5
09
FF
FA
F8
0C
FE
00
00
FF
F6
03
F2
FE
F8
FF
05
FC
09
F2
F3
F5
06
FB
F5
FC
EB
02
08
FD
FE
04
F4
0B
05
FB
03
FB
0B
00
01
06
FF
FA
01
03
02
FC
03
0C
02
01
F6
F9
F9
FE
FC
03
FF
03
F8
0A
F3
FC
04
F9
FE
05
FD
FD
F7
01
00
09
09
FD
F8
FE
FD
FE
03
04
F9
FC
FE
FE
FF
FB
01
FF
00
F7
08
FC
FF
05
F5
02
04
F9
02
02
FB
FD
FD
F7
FF
FF
FE
F8
FE
00
07
FF
FC
00
F9
FC
FA
03
FA
F6
00
FF
F5
00
FA
F3
FD
04
EF
FD
00
00
FA
05
FD
00
01
F6
04
FF
FD
FF
FD
03
02
08
04
02
03
FF
F6
F1
00
01
F9
F9
F2
FB
09
F5
02
01
F7
06
FB
02
04
FD
F1
FA
01
06
FD
06
F9
09
F7
F9
00
FE
FE
F7
F9
06
F7
FF
FC
06
FB
FC
FA
FF
F9
FF
F9
04
03
FD
06
FE
03
FD
F6
FF
FA
EE
F8
02
FD
F8
FF
07
02
FF
00
FA
FE
F4
F6
FC
00
02
FB
FE
F7
07
FF
FC
FF
FD
FD
F8
FC
F6
03
00
04
FB
00
F8
07
F7
02
02
FD
04
01
FC
FD
02
FB
F8
06
FD
FF
00
FE
FA
FA
00
05
0B
00
04
FE
FB
0C
F1
05
EC
F1
FE
00
01
F8
F6
F8
F6
02
F1
FD
F1
FC
FA
FC
F9
00
00
FC
FC
F5
05
F8
FE
FA
03
F5
F8
03
EE
04
02
02
F7
01
00
F1
01
01
05
04
F9
FD
FB
FD
00
F8
02
05
F8
FE
FF
00
05
07
03
F5
F5
F8
05
F5
F0
F6
02
08
FF
08
FD
06
FA
01
F4
FC
FE
F6
0C
FF
07
05
08
02
06
FB
01
04
08
FD
FD
05
FA
FA
0A
F3
FC
FD
ED
07
F3
07
FF
FB
FA
FF
F5
00
FA
F1
FF
FB
FD
09
FD
06
07
FC
F8
FF
10
FB
F5
05
02
F6
0B
02
FB
F4
F7
07
03
F5
09
F6
F8
05
06
08
F7
07
F5
08
03
F7
FF
ED
FF
F8
00
07
FF
03
F2
FC
FC
03
00
0A
01
06
0A
03
01
04
06
03
F9
FD
FE
ED
EF
04
FC
06
F9
03
05
FB
F9
05
FA
FB
F9
FA
FD
FB
F9
00
FB
FB
07
F5
08
05
F5
F3
03
F8
F6
F7
F7
02
F6
04
06
FC
0A
F5
F1
05
F1
F7
F1
FF
FB
06
F6
F6
FD
F6
FE
F4
05
FC
FA
06
03
03
08
FF
04
F1
EC
FD
F3
06
F0
05
FF
F6
F5
EF
0C
F7
FD
08
06
03
F9
FE
02
FF
FD
FB
06
06
EE
05
09
FA
F8
F5
FE
FF
F9
05
03
03
03
FB
F6
FD
F3
02
FC
F8
ED
05
FA
F7
F5
08
ED
FF
FE
0B
F4
FD
FD
06
0B
F9
04
FE
FF
05
F1
FE
FF
F4
01
00
FA
F9
F4
04
FC
FE
01
F5
F4
FA
F6
05
10
09
F0
FD
09
08
F8
05
FC
FE
F6
F6
FF
09
08
F6
F8
F9
FA
F7
02
FD
F7
FE
F6
FF
FB
F1
F9
01
F7
F9
FB
FE
FC
02
02
03
0C
FA
10
EF
03
FA
F8
08
FC
04
F9
08
FD
06
05
05
FC
F7
FF
FF
07
FE
00
F2
08
02
FB
05
F8
06
05
06
FF
FC
FF
FC
FA
10
F6
FC
EC
08
F7
F0
F0
FD
F4
F4
FB
FA
07
04
F8
F8
EF
F5
F3
F6
FC
F7
0B
F7
FA
F2
FC
F7
FB
03
F5
02
00
F6
F9
00
04
FD
FB
02
FC
02
05
04
FD
F0
0C
F9
F8
FC
EC
F7
00
FE
01
04
FF
01
08
FD
FF
FC
F7
FC
FC
08
03
FE
01
FC
EB
F8
F9
0D
07
F7
06
06
07
0B
F5
08
F7
03
07
FC
01
04
FF
EE
FB
F0
F5
F9
F7
00
04
F7
0B
F8
FD
FE
04
01
F6
06
FF
03
01
05
F9
F3
F0
F8
F7
F3
08
07
FB
FE
02
05
00
03
FB
FC
FC
FD
FF
05
FF
06
0A
FD
FE
FB
F9
F8
FE
FD
FD
FD
01
05
F6
FD
02
01
FC
05
FE
FC
00
FB
06
05
FF
F9
04
F5
FA
02
FF
FE
FE
04
03
FF
FA
FF
FC
FF
FA
05
FA
FB
F8
03
FE
02
04
03
03
F0
FC
FC
FD
00
FF
00
04
FA
FE
FB
01
F5
02
FA
F9
01
FE
FC
06
FD
F7
FD
FB
F9
FB
FB
FF
F8
FD
F7
FB
02
02
F9
03
FD
FC
FB
FC
FE
03
FD
01
FC
03
05
02
F7
03
FE
F6
FB
FB
F6
09
F8
07
FC
05
00
04
07
FC
FE
FA
08
01
FB
FD
01
FE
FF
FC
FF
FE
FA
FB
FA
FC
01
F7
04
08
00
F8
F7
FF
07
FE
FE
02
F9
F7
FC
F6
00
00
F6
00
00
00
FF
FC
FA
F9
FA
05
FB
06
F9
FB
F8
00
00
07
02
03
07
FE
00
F9
FD
FB
04
07
F9
FE
F7
FC
FF
FC
FA
02
FC
F9
00
01
07
FB
06
04
FF
F8
F9
FA
F6
03
02
09
F6
FE
FF
03
07
FA
F7
FF
F7
F8
04
0A
FD
FB
01
FC
04
FB
03
FE
FF
FF
F8
F8
FC
08
03
02
02
03
05
FE
03
F6
00
FB
FC
FD
F6
FC
04
00
11
FE
F4
F8
01
07
F0
EF
FE
0D
F9
0B
FE
F9
F8
02
FF
F6
F6
FA
F7
F8
F0
03
F1
F6
F9
F4
03
F8
EE
F4
0F
FA
FA
01
0B
04
F6
F7
05
04
FE
09
FB
02
04
06
02
FA
FD
F7
0A
F3
00
F3
02
07
03
FA
F6
FE
F3
FC
FD
FC
F8
F6
01
FA
F8
F8
F6
FE
FA
09
F8
F9
F5
07
EC
06
FB
07
08
FA
F7
00
F7
F5
01
04
FE
F8
F6
09
FE
F9
FA
09
01
04
FB
F7
04
07
F9
02
FC
FC
F4
FD
07
F9
0F
FD
01
FC
FC
EF
F5
03
F5
F1
FF
F7
01
00
00
FD
F7
F4
00
FA
F8
01
04
ED
00
00
04
F3
EF
06
07
FF
04
02
F0
07
F9
F3
01
F4
F6
FE
FC
FB
F7
09
F7
02
F0
02
02
FE
FC
02
FA
03
FA
FF
0C
01
F0
FE
0B
F6
FB
FE
EE
F8
08
FB
FF
03
FE
02
F0
FF
FA
FF
00
0E
FD
0A
EA
02
F9
09
F9
FF
FA
FB
04
F1
F7
FA
FB
F9
00
FA
04
F4
FD
FC
F8
F8
F4
F4
08
05
FD
FF
F5
F9
FD
FC
F6
F6
F8
06
FB
00
08
05
03
07
F9
FA
FF
FD
05
F4
02
05
FB
F6
08
F8
F3
FD
F8
F6
FB
00
F0
03
FB
00
F8
F6
03
01
04
FA
01
02
FE
02
04
FC
FC
01
FE
00
F8
00
FF
01
05
0E
FC
F8
0A
01
03
FE
F7
00
05
F8
00
FB
02
01
02
FA
F8
F6
03
FF
02
FF
09
01
08
03
F3
80
01
03
04
FA
F6
01
FB
02
01
F5
02
08
F8
FA
01
F7
06
03
02
06
07
FF
F5
08
0C
03
00
FC
EC
FD
FB
F7
03
06
FA
0D
07
06
FE
F1
F9
01
F5
03
05
03
F7
FB
FB
05
03
01
F7
FD
05
00
02
04
03
F5
FB
FA
F5
FD
00
04
FD
02
FB
05
F4
FB
FD
01
00
F8
FB
07
01
F7
FE
FB
FD
FA
01
F8
FD
FA
04
06
02
FE
00
07
03
FE
01
04
0B
00
09
04
05
01
FB
03
F5
FD
F5
06
F8
F9
F1
FB
F5
FC
F7
09
FF
FD
FF
F7
05
F2
01
04
00
F5
09
FD
05
FD
FE
01
03
03
05
00
FD
FE
ED
02
F5
F7
02
03
F7
FE
01
03
01
F0
FF
06
02
FC
FC
FF
FE
FA
01
FF
F8
02
F8
00
FC
FA
FF
F6
F9
03
FF
03
01
00
03
FE
03
FE
F6
04
F8
FB
FD
FD
FD
FF
06
02
04
06
FA
FD
07
01
0B
02
02
FB
04
F5
FE
00
01
FB
01
F9
01
FD
00
02
FC
00
FD
08
04
FD
02
FE
04
02
04
02
05
FE
FE
FD
FE
FD
FE
02
02
00
FE
FE
05
FA
FE
FE
FB
00
01
FE
FF
FD
00
05
FC
01
FB
FE
00
01
03
03
FD
03
FC
FE
01
03
FD
01
FF
01
01
03
00
FE
04
FE
FF
02
FF
06
FC
FB
F7
00
FF
02
06
02
05
01
01
03
02
FF
FA
FD
FD
00
02
00
FD
FE
02
FC
00
02
01
05
FB
01
02
FE
FF
01
04
FE
FD
FF
FF
FD
03
FE
00
00
03
FD
03
FD
02
01
00
FF
01
00
07
02
FE
01
FE
00
FE
FE
01
03
03
FD
03
FE
FF
03
FB
FF
02
FF
03
FE
FB
03
FE
FE
03
05
01
02
FF
FF
00
00
FC
FF
05
FF
FF
01
FF
FB
FE
FB
FF
FF
02
04
FB
FD
03
01
02
01
FE
04
FC
FB
FE
01
FE
02
FD
FF
03
00
FE
FC
FF
03
FB
F9
04
FE
FC
FD
F8
04
02
03
03
FC
01
FC
FC
01
FF
FD
FA
FF
01
00
02
06
FF
FF
FE
00
05
FE
02
00
01
01
05
FC
FF
FC
FC
FC
00
04
FE
04
04
03
FD
01
FF
FF
FF
02
FB
08
00
00
00
03
F5
08
EF
02
EC
F8
05
01
04
F8
FF
F8
00
F4
FE
06
00
04
FC
02
F8
F2
F7
F2
FB
FF
06
04
F6
F0
06
06
EF
05
F7
00
FF
F0
F3
02
05
F7
F0
F4
02
04
08
FE
FF
F0
04
F2
09
01
FF
F6
EF
F2
0A
F2
FD
04
EE
F6
09
01
00
06
08
FA
FC
F2
F0
03
FD
FA
00
11
FD
F3
02
F0
FE
00
FD
01
0F
F2
F4
F6
01
00
00
F9
03
FF
0B
FE
FA
FC
F7
06
FF
04
FA
FF
F7
F5
F5
FF
FE
FB
F4
02
FB
02
00
EE
FB
05
06
FB
F2
03
03
F5
05
FB
F8
F3
02
FC
08
00
0D
F6
FD
FE
F7
09
09
EF
FE
F7
FF
F1
F6
FC
F8
EE
07
01
F6
F8
0B
F4
F7
03
FD
01
FF
05
FD
08
04
F3
0B
F4
09
02
FC
01
F4
01
F9
FD
FA
01
FB
F7
FD
F9
F8
FA
F7
F6
F9
04
F8
F1
07
FF
09
FA
FF
02
F6
03
F1
03
F9
F0
FD
03
FF
FA
06
08
FA
F8
F9
FC
00
FA
FF
02
F9
FD
F7
F0
E8
07
04
08
03
F3
FB
FE
F8
F9
03
05
F5
F3
FB
F3
F8
FB
01
F0
FA
F3
FA
F9
FA
EE
08
FC
0E
F2
FE
01
FF
10
F4
FD
FF
FC
FC
FF
03
FE
02
00
FE
00
FF
02
FE
01
03
03
04
FE
01
02
01
00
FE
01
FF
FF
02
FF
FF
00
04
FD
FC
FB
FC
02
FE
FB
FE
FE
FE
FF
02
FF
FC
FD
FE
FC
01
02
FE
02
FD
02
FE
FE
FE
FE
FE
00
FF
FF
FC
FB
00
FE
00
FC
02
FF
FD
01
00
01
FD
FE
FC
03
00
FD
FB
FD
FC
02
FE
00
FD
FF
00
FF
FC
03
00
FD
FF
01
00
00
FF
FC
03
FE
FE
FD
FD
00
FE
FC
01
FE
FD
02
FD
FF
FC
FC
00
01
FC
06
02
FF
FF
FD
00
FD
00
FD
03
02
04
FF
FD
00
FF
02
FB
FF
FF
00
FC
FB
FF
FB
FE
02
FD
03
FF
FD
FD
FD
FD
FC
FD
02
FF
02
01
03
00
00
00
FE
01
00
01
03
00
01
FC
FD
FF
FE
FC
FD
FF
FC
FC
FE
02
00
FD
01
01
FE
FD
FD
03
03
FF
02
01
FF
FE
FE
01
01
FE
05
01
00
FF
FF
01
02
01
03
FD
02
00
02
FD
00
FF
02
FE
FE
01
FF
02
FD
FF
01
FC
02
02
01
02
00
FC
FF
05
FE
00
FF
FF
02
FD
FC
FE
FB
03
03
FE
FE
03
00
01
FD
FF
01
FD
01
FF
FC
EF
FE
0E
F2
06
F9
FA
FB
00
00
F6
F7
EA
05
06
FA
FC
FF
EF
E7
FA
01
F0
FC
03
06
FE
01
F9
08
0D
FD
FA
EE
0A
05
0F
07
E9
E5
07
F3
FD
F9
01
07
F0
08
FA
0E
F7
03
08
F5
FD
10
F8
F1
0B
01
FE
08
00
E9
FF
F3
F2
E6
FA
F9
FC
F7
04
F8
EF
EF
F1
F4
0B
FC
FA
F6
06
F5
05
FA
FF
00
FE
0A
FE
F1
FC
E7
03
E8
F7
04
0C
FD
F6
F6
F2
04
F6
04
06
FA
06
FA
F7
FF
FD
F1
0A
F4
F7
F7
EB
FF
F9
FC
04
F5
F2
FD
F7
FF
F6
F3
EC
06
FD
F6
00
01
F6
F6
FB
00
01
F1
FD
FD
06
09
F3
0D
0D
FC
F8
F2
0E
07
F7
F8
FD
F5
F9
FB
F8
04
FC
FD
EC
03
03
F1
09
F6
EE
00
0F
FB
05
F6
F0
EF
F6
F8
03
04
0C
07
FE
05
F8
0A
01
0A
FB
F3
F0
F0
EF
08
FA
F4
FB
F3
FA
F8
F5
09
F4
FF
02
FA
FA
F9
F7
F4
FC
02
FE
F0
F3
FB
0B
FA
FD
FE
F8
01
F4
F4
F2
0C
04
03
01
FB
0D
F1
FC
01
F2
00
04
FA
F6
02
FF
0C
08
FA
ED
00
FE
08
09
02
0A
05
F5
F4
F3
F9
0C
FB
01
F7
FD
F7
FD
EE
F9
03
FE
FF
02
F2
F7
FA
00
FE
03
03
F0
EB
F6
FD
FA
FD
F2
05
FA
FE
FF
F8
00
F7
00
0B
FB
00
F4
EF
F7
05
F9
06
F8
02
EE
0B
F3
EB
FE
FE
FC
11
F6
EF
05
EC
00
02
08
F7
EE
F6
F4
F4
0A
FE
07
F1
FE
04
F1
F3
F1
FC
01
F5
FA
ED
0B
F8
07
F9
03
01
EF
FE
F1
F4
FB
ED
03
F8
F4
05
11
F3
FF
FB
FB
08
EE
FA
01
FD
00
F3
EA
06
F9
FC
0B
FB
FF
F0
F5
03
FB
F7
03
FE
FE
F5
F9
F9
F4
F9
FA
02
0A
FC
F7
06
F4
03
FA
FD
02
F6
F0
F3
06
09
EE
FE
FC
F7
F8
FA
FD
FC
03
EE
06
F7
03
F0
F8
F1
03
0B
F1
F8
00
F8
0E
F1
F0
00
09
01
0D
FB
F7
F3
F6
F6
07
0B
05
F8
FD
FF
F9
02
F7
01
F4
F4
F4
F2
ED
02
FB
02
00
F3
F6
05
FC
02
EC
08
01
FA
F0
F6
00
F6
00
03
00
FC
F8
F5
FE
F4
F9
FC
FC
06
F7
F9
EC
FF
F7
F5
FB
F6
FC
F8
08
05
FE
FB
FE
F7
F6
F6
F8
0B
07
FC
F8
0B
F6
F9
F8
00
00
07
F9
FE
FC
FA
FD
00
01
00
FB
FF
00
FA
FB
FF
F6
FE
03
01
01
FE
FC
FF
05
02
02
F7
FA
FE
FC
F8
FD
07
FE
00
F9
FF
00
03
FB
FC
09
FA
FA
FF
FD
F9
FC
FE
FE
FC
02
02
00
FD
F8
05
FC
01
03
F9
FD
FB
FB
FF
05
02
FB
F9
FD
FB
FB
03
FA
02
FF
FE
FE
FC
01
00
FF
F9
01
FD
01
F6
FF
FC
FE
02
00
FA
FB
FE
04
FE
FF
01
06
FA
FA
FE
01
02
02
FC
01
FD
F8
FE
04
FC
01
FD
FE
F8
04
FF
FA
00
02
01
01
00
03
FF
02
FE
02
06
FD
06
FF
FD
FD
07
FC
02
05
06
02
F9
FE
FE
F8
FB
00
01
FB
01
00
FD
F9
04
01
03
FD
F8
00
05
FB
F7
FB
00
07
FB
00
F4
03
FE
FE
05
F7
FA
F5
FB
01
FF
00
01
01
04
02
04
FE
F9
06
01
01
07
00
00
00
FD
F6
FF
FE
03
FB
02
02
05
F8
FF
02
00
FE
04
01
FE
FC
01
00
FD
00
00
03
FC
00
FA
FA
04
FC
FC
FF
FE
FC
FE
00
FC
05
FB
F9
FF
FD
07
07
00
06
02
FD
FD
03
FF
FD
01
FC
01
01
FC
FF
F6
FF
FD
FE
FC
00
04
FA
FC
01
01
FE
FB
00
FF
FB
03
F9
FF
01
03
01
01
FA
FD
01
FB
F9
FF
FC
F8
FE
FB
FC
FD
F5
FE
F8
FE
00
03
FB
F8
FA
08
FF
FA
FD
FD
06
05
FC
FE
FE
FC
00
04
FE
01
01
FF
FB
03
FB
FE
FF
03
F9
01
02
FD
FB
FA
03
04
FC
03
FD
F9
FD
01
03
00
FE
FA
FF
FD
FD
F8
FB
FD
F8
FE
FB
FD
FE
00
FD
00
FE
FF
FC
FD
FC
03
01
05
02
FF
02
FD
FB
01
FE
FD
00
FC
FC
06
FE
04
FC
05
FE
01
01
FE
FE
FE
00
FD
FE
FD
FE
FF
FD
FA
FD
02
FE
FA
F9
FB
01
FF
FE
03
FE
02
FD
FE
00
08
01
04
FE
FA
03
01
00
01
FE
07
01
FA
F8
FB
04
F8
FF
FF
00
FE
FC
00
FA
F7
FF
FF
FF
01
04
02
F9
FF
FF
03
06
FA
FF
03
08
FB
FF
FD
FC
FB
FF
03
F9
F9
03
01
FC
F7
00
FB
FC
05
FD
01
04
00
FA
FC
FB
FA
00
FC
FD
F7
FF
FF
FC
FE
FE
FE
F7
FB
04
F9
05
FA
FA
FE
01
FE
04
F6
07
F9
FB
00
FE
FE
02
02
F8
FE
08
FB
FD
FE
02
FF
F7
03
01
00
00
FC
FC
F9
F8
FB
03
04
F7
01
FF
FC
FD
FC
FE
FB
F9
00
09
FC
08
02
FE
F9
02
FD
FF
03
F8
FD
FA
03
FF
FB
FB
07
FB
02
F7
04
03
F3
0D
F7
FB
FB
FD
FE
FA
07
FB
02
FA
F6
00
FB
FD
00
FB
F8
FF
FB
FE
FC
FB
FB
00
04
01
FB
03
FD
F9
05
FC
07
FC
FE
01
FD
FE
03
FD
F9
F9
FF
FE
FE
03
FB
0A
06
03
FB
03
01
01
04
03
04
F7
FC
F9
FD
03
F6
FE
09
09
02
F7
FB
01
00
08
03
00
FC
03
FA
02
05
04
FD
06
F5
01
FB
0F
FF
0B
01
00
0B
FE
01
0A
05
05
03
F7
FD
03
02
FE
04
F9
00
F8
F8
02
F9
FF
F9
FC
FC
FB
FD
F9
01
FE
FF
FA
FA
FF
00
04
FD
F3
FF
F8
03
FA
01
03
F4
02
FD
06
03
F9
FC
FA
FF
FA
0B
05
F9
F8
03
02
03
FB
00
0D
F3
FB
FD
F5
06
00
0B
04
09
FC
FC
03
FA
03
06
06
03
F9
FA
05
FA
06
00
01
F7
06
FB
F9
07
FF
02
FA
F9
F9
00
08
F7
04
00
F6
01
02
05
01
FA
00
05
FF
07
02
FF
F6
03
FD
00
FA
01
FF
FD
F9
FF
00
FB
FE
05
09
09
FD
FB
05
F8
F5
FB
01
EE
0E
FC
00
00
F6
FD
FA
F7
FB
F5
FB
FB
F9
FB
04
FA
F7
FB
0F
00
FF
FA
06
FE
00
F9
04
FD
FA
FA
FC
02
01
05
07
02
FD
01
00
01
FB
EF
01
FF
F9
F8
F6
03
05
F0
00
01
FB
FC
01
07
F8
F5
FC
FC
F7
03
F8
01
F8
03
FC
FC
FA
02
06
08
01
06
05
01
FD
FA
07
F3
FF
F9
F7
FC
FE
06
05
FC
07
F8
FA
F6
F6
06
F4
F6
09
06
FA
03
FA
FC
03
0B
F8
FD
08
FC
F9
03
F7
F5
FF
01
F8
F9
01
FD
07
FC
05
FC
FB
05
F4
00
F3
F8
FE
FC
03
FC
F5
F8
FF
FE
01
EF
FA
07
04
F7
F3
F8
F4
EF
FB
EF
FC
05
01
01
00
FC
F4
0D
00
F6
FE
06
FE
F3
03
06
F8
FD
03
08
00
EC
FB
00
04
FE
EF
F8
FC
FD
F4
F8
F4
FA
03
09
FA
FA
0B
05
FE
FC
05
FF
F6
FA
F6
08
FF
04
09
0A
F5
07
F4
01
FA
FD
F7
F9
0A
FA
0E
0B
FD
03
FD
F8
FA
06
FD
07
F9
FD
FC
FD
00
FD
FA
F8
FF
FB
F5
00
F5
07
FB
FB
F2
FB
FE
08
F5
04
FA
04
F9
07
FF
01
FC
04
FE
02
00
FA
09
02
0A
F5
FC
F7
EF
00
07
F7
03
00
FB
F8
FD
00
F7
02
07
FA
FF
FE
FC
05
F9
FB
01
FE
02
ED
00
04
00
07
02
F7
F3
07
FA
F1
F5
00
F3
03
04
F7
08
F7
FD
F7
00
FC
F7
02
F8
FF
04
08
04
03
00
F9
F4
FA
F9
07
00
FC
08
0C
06
06
FA
F8
F9
02
F8
F8
09
FF
08
F8
FF
02
FD
F9
02
04
F3
FB
00
F5
FD
FB
05
03
03
04
03
F8
FD
01
0A
00
FA
03
FD
F2
02
FE
FA
05
FD
F8
F6
06
F9
03
02
08
FB
F5
02
05
00
FD
FB
FB
F4
04
02
FC
F6
F7
04
FF
FE
F4
04
FC
02
FF
05
0A
F9
F8
0B
FD
FA
07
F9
00
00
FD
F6
FF
F4
03
FA
FA
FA
F9
04
08
F9
08
F5
07
FA
03
01
06
F7
FC
03
FB
02
FA
04
01
05
FB
FE
FB
04
FF
F5
05
FF
00
FA
06
00
FE
FD
FF
05
F6
FE
0A
0A
02
F8
FB
00
F5
02
00
04
02
01
FD
00
0B
04
FE
FE
F9
03
FA
00
FA
04
F9
04
FA
FA
FF
02
02
03
F8
05
FA
FC
00
01
01
FD
EF
0A
01
F6
04
F8
FD
FA
02
04
0D
01
F8
01
F6
F4
F5
F7
FA
05
F8
FE
08
FF
F9
FA
FB
FF
F8
F4
F1
00
FE
0C
EE
00
F6
06
FB
06
EA
FC
08
FC
00
FA
FA
F8
FC
FA
F7
F2
07
0D
FE
F9
0B
0F
FB
FB
02
FE
FE
F4
F7
F8
09
FD
02
02
ED
FB
02
FE
FA
F8
F0
FA
F0
F5
10
FF
00
F5
0D
F4
FF
FF
FD
FB
01
0D
FA
03
02
FC
01
FD
00
08
F5
FE
F8
ED
F6
0B
F2
05
0E
F5
FB
FB
00
04
01
05
12
FA
F5
FF
F3
0C
F7
FD
09
FB
02
FB
FB
E9
F7
01
FC
ED
FC
F4
F8
03
F9
FA
E9
F2
08
F5
FB
03
FA
FB
F8
03
FC
F9
00
F6
FE
06
F9
03
F8
F2
F6
F7
07
01
04
F8
00
F9
FD
F8
03
02
F0
FE
0C
FC
F0
02
10
FF
FE
0B
F5
F6
F9
03
09
FA
FB
01
04
FC
03
F0
06
FA
F3
01
FB
F2
01
F3
04
03
FC
FE
FE
F0
01
08
FB
01
F3
EA
00
F0
FE
03
00
F5
0D
F4
01
E9
F1
EE
FA
05
07
04
F3
F4
FC
F3
FE
09
F9
F8
01
FD
04
FB
02
00
F3
F8
04
01
F4
03
03
F1
00
F7
FA
EB
F1
03
08
00
F4
F9
F6
00
FF
ED
FC
06
FB
04
09
FA
F1
FF
06
FE
FC
F0
F9
06
FC
05
F9
FA
F7
FA
04
F8
F4
F9
08
F7
F7
EC
FC
FA
02
F8
00
08
FE
04
01
F6
F5
02
02
FB
F4
F8
F9
F4
00
F5
FF
F9
08
F2
F2
F9
01
FC
F6
FC
05
F8
09
FE
F2
02
F5
FB
FA
F7
01
F9
F3
F5
EE
01
EE
00
EF
F3
FC
FA
EE
03
FD
01
05
F8
EF
04
F3
F4
06
03
F8
0E
ED
F6
FF
FA
F4
07
F9
F8
FF
F9
07
01
F0
09
02
10
08
F1
F4
05
F9
FA
FA
F0
F6
04
EF
FE
F7
FD
07
F6
FD
F2
F1
EE
08
05
F5
FE
08
F8
F6
01
F6
F4
00
03
FA
08
F6
F5
0B
0E
F9
F8
F5
00
FB
F5
F6
FC
F9
F7
FB
00
F3
FF
F7
F6
01
F8
F6
01
F6
F5
F6
FF
01
0A
01
F1
F7
F5
FA
F4
02
FE
04
F7
04
00
01
07
0A
11
E9
F9
F6
FA
08
06
05
05
F4
04
FD
F7
05
04
FC
07
F1
F4
FC
02
F5
0C
FA
05
00
00
FB
03
F6
01
F8
EE
F6
F6
06
F8
06
FB
F8
F7
F1
02
03
FA
12
FD
FF
05
07
0B
05
FC
03
06
0D
F9
04
F7
FC
F3
F9
08
F2
F0
F4
00
13
01
F5
FF
F4
FF
FC
F6
EF
07
F6
03
01
F0
F3
FB
0B
F7
FD
FA
F2
04
FD
03
F2
F6
02
FB
F8
FF
F4
F4
10
F9
F4
F3
FD
F5
03
F7
FD
F4
F8
0D
F9
0B
07
05
F8
08
F3
05
07
F0
ED
FD
02
06
F1
0A
F5
F8
F7
FD
FB
F0
F1
FB
F4
F5
03
F5
FB
F4
05
F9
FD
FE
F3
06
F7
0B
F7
01
06
FE
FA
FF
F0
01
F7
02
03
FA
EF
12
F8
FC
FE
FD
0B
00
F6
F4
FC
FE
06
F5
00
F9
F7
FE
05
E9
0C
00
04
00
FC
F4
F4
FE
F5
F0
F6
F5
FA
FA
FF
F2
F2
EC
0F
FE
FB
0A
F9
F3
F9
0C
FC
F3
F2
01
FE
F8
EB
F8
01
05
EF
F2
F9
F6
E8
F8
F9
FD
FC
FF
0A
06
F6
06
05
0F
F4
07
0A
FA
F6
FF
04
F6
EA
FD
0D
00
EE
F5
EE
FE
FD
F2
00
00
01
FE
F4
F9
F6
FB
05
09
F7
02
F8
F8
FB
0B
EF
00
F5
F2
FD
F1
F7
FD
FC
FA
07
F5
02
F7
FD
F4
F5
FC
FD
FB
03
FA
07
03
F5
FC
00
F7
FF
E9
00
F9
F8
06
FE
02
FD
01
F6
F6
FB
E7
FE
FE
F6
07
F4
FC
00
F5
FB
FC
02
F9
01
01
05
FC
FE
03
02
01
07
FE
00
FD
FE
FE
01
04
05
FD
03
02
FF
00
FC
FC
07
01
01
FE
09
08
01
01
FB
FB
FF
03
00
04
FD
03
02
05
FE
02
04
04
02
FF
FC
FF
00
06
FB
07
00
02
F8
FF
00
07
FC
08
FD
01
08
FC
FF
00
FD
00
FF
FB
03
03
FC
FD
05
FF
02
01
00
FE
06
09
02
FF
05
00
01
01
FC
07
FC
00
02
01
FB
00
FA
04
00
FB
FF
FB
00
00
F9
03
0A
05
05
FD
FB
01
01
05
02
03
FC
FC
05
01
FA
01
01
FF
03
FD
00
FF
01
03
FE
01
05
06
04
F5
05
FF
07
05
FD
01
FE
01
FC
FC
FD
FF
07
07
FB
FB
FE
FA
FD
FA
FA
05
01
FD
0D
FC
00
FA
08
05
FF
07
04
FF
FD
06
FF
FE
03
FD
00
FE
FC
04
02
01
03
01
02
FE
02
FE
07
F9
FF
01
08
FD
FE
03
05
FE
05
05
FB
FF
FB
F7
FA
FD
04
F9
02
00
01
FE
FD
FB
00
FB
02
06
03
05
FB
01
09
02
01
01
05
FF
04
FF
0A
F9
02
06
FC
02
FE
FB
03
03
03
01
08
02
01
FB
03
FE
07
01
FE
00
09
06
03
F3
F8
02
F9
F8
00
03
FB
FA
00
03
03
05
FD
03
FD
00
FF
08
04
FC
FC
F9
F4
F9
01
01
FB
F3
F6
FB
FC
03
01
F5
01
F5
08
01
FA
FC
04
09
0D
FB
01
01
F8
00
04
FF
FD
FB
FB
04
03
FB
F3
FC
02
F9
FF
03
06
F9
06
08
05
02
FD
03
FD
06
02
02
05
FE
FD
05
F6
F2
F2
FC
F8
EF
FF
F8
02
FC
03
F7
05
01
FC
FC
FE
F6
03
00
06
FA
01
FF
00
01
FF
FB
07
F5
01
FE
05
FE
06
FC
01
06
F3
F6
02
03
FE
F9
03
01
00
FA
F3
FB
F9
0A
03
06
FB
01
FB
F8
06
F6
02
F4
FE
F9
00
00
04
FD
02
F0
F6
FE
0B
06
FE
02
03
FD
00
FF
F5
04
FD
F5
FF
00
FC
FD
FD
FA
05
04
10
FD
03
04
06
FD
F7
F7
05
05
FF
F5
00
FF
FB
02
01
F8
F9
FE
0A
FE
FC
FE
F8
00
05
FD
00
FB
0B
F5
03
03
F8
FC
F7
F6
FD
FD
07
FF
F4
01
05
04
FE
FB
F7
FB
FF
09
FF
00
FC
F5
F9
FE
F8
08
FE
FF
F6
FA
FD
04
02
FB
FB
F5
F5
08
F6
FD
EE
FA
0A
FF
FB
06
F7
01
F5
FF
FC
04
FB
F3
FD
FD
FC
05
09
00
FA
FA
F5
FA
FF
01
03
02
06
FC
FA
FD
FA
0A
04
FE
EC
FD
01
0A
04
01
F0
F3
FD
00
FF
00
F6
07
FB
F6
01
FB
FC
02
F5
06
FB
01
FA
0E
F8
00
08
00
F6
00
08
05
FF
FB
ED
FA
09
06
00
01
05
F8
FC
F2
F7
F7
FF
F8
F9
00
F8
F2
02
05
07
EF
01
03
FC
F9
FA
F8
FE
02
FD
05
02
F5
01
02
F7
F8
FD
FE
07
FD
FB
06
00
FB
F3
FB
FB
F5
F0
FA
FF
F7
FF
F5
00
0D
04
ED
FE
FE
02
F5
FA
FE
01
09
04
05
EC
F4
04
04
01
08
00
05
01
03
F0
FC
04
FD
FF
03
F9
FD
0B
01
FA
03
02
03
02
F5
04
F5
FD
FE
03
FF
05
09
F4
07
F8
F3
FC
FD
F9
F0
02
F1
FB
FD
00
0E
00
07
F4
FF
F6
FD
F8
05
03
FE
06
F6
FC
01
F6
06
F5
F6
F9
F6
FC
F9
F1
01
F0
FC
FE
EB
F9
FE
F7
FA
FF
F9
F9
EE
05
FD
01
EE
00
FA
04
FB
06
06
FF
01
FC
F4
02
FA
03
04
00
03
F7
03
06
04
FB
FE
ED
F7
FC
F3
F7
02
F3
01
F8
06
F3
04
06
01
FE
EC
09
F9
04
01
02
07
FF
0A
FE
06
FB
01
00
00
0A
02
04
F2
EE
F7
F4
F7
F8
00
FD
FC
05
EF
FC
FB
03
F0
0D
F3
FE
F4
02
0D
FE
FA
FA
F8
FF
09
FE
07
07
FE
01
FD
F4
FA
0D
09
05
F6
ED
02
F2
FD
FB
FC
FD
02
FE
FD
03
FF
01
F5
FB
F7
00
03
03
01
08
00
F6
F3
F3
0F
F3
0E
03
02
FD
F0
FB
FA
FD
08
FA
03
FE
02
FD
FD
04
0A
FB
09
01
FA
09
01
00
EA
FF
07
FB
FC
F7
02
0A
FC
EC
F2
07
03
F4
F7
F8
04
F9
09
01
F7
06
F4
FD
00
0F
F9
F2
FA
04
EB
FA
FC
F9
03
F8
FC
02
FB
FE
FF
F1
FF
FE
F8
FB
FB
F8
00
FE
00
01
0C
FE
10
F5
F9
F9
00
FA
01
00
F9
F8
06
02
FD
F3
F8
05
F3
F9
F8
04
FB
01
F8
0A
F9
F8
F6
EB
04
F5
FE
00
F2
0D
FB
02
FB
0B
02
F3
06
00
FF
0E
FF
05
00
F8
F0
02
01
09
FC
F8
FE
F9
02
F6
F5
FB
F9
04
F3
F4
02
F8
F5
FB
01
00
FF
02
04
F8
0C
05
05
F3
00
F4
F4
F7
FA
F3
FC
FE
03
FE
FE
F7
FD
FD
FA
0C
02
07
00
02
00
FF
00
FE
FC
FC
03
FD
FB
00
F7
FD
FF
FF
FA
FF
FE
00
FC
FA
FD
FD
FF
F8
04
FC
04
FF
FD
03
FF
01
06
F9
02
01
FF
FE
FB
F5
01
01
00
FF
FD
06
F7
FF
00
FE
FD
F9
FB
FC
01
FE
FA
01
FD
FF
00
FC
F9
FB
FE
01
FD
01
F9
03
FC
FB
FF
03
03
00
01
02
00
02
01
00
02
FD
FC
00
FE
F9
FF
FF
00
FD
FE
FE
01
00
00
00
00
02
03
06
04
00
FC
FB
FF
FB
FB
FF
F8
00
F9
F9
FC
FF
02
FE
00
FB
02
02
FD
00
06
FE
F9
FD
F8
00
00
FB
FE
03
FB
01
FE
02
03
FE
02
FF
04
FF
03
FD
F8
FE
F9
FF
FA
FD
00
01
FA
FF
00
02
FC
FD
FC
06
FC
04
00
FB
FD
FB
02
FC
F7
FC
FD
05
FB
01
F9
FB
FF
07
01
00
FF
02
FC
FB
FB
FF
FC
FD
FF
05
FE
F9
FE
04
FF
FD
FC
00
FF
FB
00
00
06
00
FB
FD
FE
FC
FC
F7
03
04
05
02
FB
FC
02
F8
F7
01
05
FF
FE
FD
02
01
05
00
FF
FC
01
FE
04
04
FF
00
FA
01
00
FF
FD
FB
03
0B
02
FE
FE
00
02
FB
F6
F8
03
F7
FC
F5
FC
FD
F6
0B
F5
04
03
02
00
FF
FC
FF
00
FE
01
07
F9
F6
FA
01
04
FC
F0
FC
FA
FE
0A
08
FC
FC
F4
0C
FE
FA
FD
FF
FE
FF
F2
F8
FC
03
05
01
F2
09
F1
FB
F9
05
F6
FA
FA
03
FA
FE
01
F2
F6
F9
FE
03
FA
00
04
FD
01
FD
0D
03
F9
02
02
FC
FA
F0
FA
F3
FE
07
02
00
FB
0E
FD
0F
FF
00
F6
FD
FA
07
F3
05
01
FA
FB
FC
FA
F2
FB
06
00
FD
FD
01
03
FB
FE
04
FB
FD
F4
F2
FE
09
01
F9
FA
00
FC
F8
F7
FC
F7
FF
06
FB
F8
F9
01
F8
F7
FA
FB
09
FD
07
08
07
F6
0B
F7
F3
F8
00
08
05
03
05
05
FB
F5
F1
03
F8
F6
F7
06
F9
F8
07
F6
FD
FA
09
FE
FC
06
F7
05
F9
F9
FA
00
F3
F4
FD
07
FF
FD
F8
FE
00
09
F9
F9
F8
FF
F8
02
F5
0D
01
F2
04
FA
FF
0A
FA
FC
FD
F3
F7
05
FD
03
FC
05
FA
F5
F9
EF
FF
F5
F2
02
F4
FD
F8
FA
FE
00
F8
FF
F2
00
F6
EE
0A
FC
F6
F6
03
F7
FD
0D
F5
FD
FF
05
04
FF
F2
01
01
08
F7
03
F4
02
FE
EF
00
F3
00
0B
F6
FF
F8
FF
F5
03
F6
EF
0A
05
00
FE
F8
FF
FA
F6
03
FE
FD
F9
04
01
F6
02
FF
F8
00
EA
04
FD
F0
06
F5
06
0A
FE
FB
FE
EE
F7
FA
01
EF
F2
F3
00
02
FF
E8
F3
05
00
FA
FC
03
F0
03
02
0E
05
0A
F5
FE
F5
F5
F5
05
0D
00
05
FF
F3
FE
FD
FF
F4
0B
01
FA
FD
F7
FA
F9
00
07
04
F6
F9
0B
FF
F5
EE
FB
FE
F5
05
F7
07
FE
F3
FE
E9
F7
FF
F5
FA
0C
ED
01
F6
FD
00
0A
01
FB
F6
F7
00
FB
06
F9
05
05
0B
01
F5
01
0C
E6
FC
01
F0
06
00
00
FB
F1
F9
F2
0D
EA
F3
F0
07
04
F0
F4
FC
FD
02
07
F3
0D
02
FE
02
E9
F6
FB
FB
FC
F6
F8
08
FC
EC
FB
EF
F9
FC
FA
EF
09
FB
EE
F0
F2
F5
F6
02
F7
F9
EE
04
0B
0E
F5
FE
F5
02
F6
FF
04
EC
F4
FB
00
04
00
01
04
06
F1
F5
01
FE
03
03
09
02
08
EC
FC
F3
07
07
02
F4
F4
FE
FB
F8
F9
00
04
F8
F4
F8
FE
FD
06
02
FB
FF
F3
F2
E7
EF
EF
F4
F1
05
02
FC
02
FF
F4
F5
FE
09
01
06
F9
FE
F5
F6
F1
F0
00
02
02
02
05
00
FB
F9
F7
00
FB
FF
08
01
FC
FB
F5
FD
F1
F6
09
F4
F1
07
08
00
FE
FD
08
F5
F6
F9
F9
06
0B
FE
02
F1
FB
04
05
F2
05
F6
F4
F1
07
FA
01
F8
0C
FE
EE
04
F9
F3
02
FD
FA
F9
F7
04
0C
0D
F8
FC
05
F7
F8
FC
FD
08
F8
FC
00
F5
FD
F8
FE
07
04
FB
FA
FC
FF
F3
FE
02
FC
04
05
01
FC
FD
FD
03
F7
FC
05
FB
F8
F4
FE
0D
0A
06
FA
FF
0A
FD
F1
F0
03
09
F7
F6
F7
F4
FE
03
F2
01
F2
00
FA
F3
F9
06
FD
00
F6
FB
05
F1
00
F5
0D
02
05
00
03
F5
FE
01
09
FD
0C
00
FF
FC
F8
FD
F2
F6
FD
05
04
F3
00
F1
02
09
FB
03
00
FD
07
02
08
FE
FC
0A
FC
00
00
FE
FD
FC
FA
FB
FE
F8
FD
F7
06
0A
FB
0A
F5
FC
F3
FA
08
F2
F4
F6
F1
F4
F5
04
02
FD
0E
F6
F6
F6
F7
F6
F8
F3
03
FC
01
FE
EB
03
FA
FB
F4
06
F4
06
F8
09
F5
F2
FA
05
FA
FD
06
F9
02
0B
04
FA
04
04
FF
FD
FD
FB
FD
F7
F5
04
F3
F6
F6
F6
00
E9
07
09
F9
FF
03
01
FA
FD
FA
00
03
04
FB
FB
FA
F3
F7
02
02
F4
03
F9
F7
F4
F9
FC
06
F8
00
F9
FA
F4
F4
09
F2
02
FF
00
08
FB
F0
F9
FA
00
F5
FE
08
00
01
03
EE
02
F3
F7
FE
F3
02
07
0F
FC
01
05
09
F8
02
F1
FC
F8
F9
09
09
0C
FB
F5
05
F9
F4
F7
08
F6
00
FC
FF
01
FE
01
05
FC
EF
F2
07
F6
EC
F9
02
07
F8
0E
F1
08
FE
F1
06
F2
FC
04
F8
06
06
F6
FA
00
FA
F8
FF
05
00
F2
F9
05
F7
04
FF
FD
01
05
FF
FD
FE
05
F3
FB
0D
F8
04
F1
08
FD
FB
F1
F8
FC
F5
F7
F8
05
06
F5
F9
F2
FE
F4
FD
F6
00
0C
FE
FF
EF
F9
F8
F8
03
EE
FF
03
FB
F1
FC
FA
FB
FD
FE
06
06
02
F7
FA
F7
04
F8
F9
F3
F9
F7
02
03
0B
FD
F9
F3
FD
FA
FA
FD
FB
FC
FD
02
09
FF
FE
FD
FA
F7
F4
0A
02
F4
01
02
0F
09
F4
05
FD
02
05
FA
F6
09
00
EC
FF
EB
FC
03
F3
00
FA
F7
0B
FF
FE
FC
06
F3
F1
F3
F3
06
F4
FD
F6
F1
F5
F3
F8
F7
02
04
04
FF
09
F4
05
FD
FB
00
F8
F3
02
04
F8
FA
FC
F6
F9
F9
01
FD
03
FE
F9
F9
FA
FC
FE
FA
03
0D
FC
FE
02
F9
06
FF
01
08
FE
FB
F3
FF
FD
00
FC
07
F2
F9
FA
09
FC
F8
00
FC
F7
09
FC
FC
03
FA
00
FA
FC
F9
F7
FD
F8
FB
02
FE
07
F9
05
02
F9
FE
FA
00
03
FB
02
FF
01
F9
05
03
05
02
FE
02
FF
FF
FD
F5
05
F5
F5
04
06
FB
03
F9
FF
06
FD
02
01
FB
04
FD
F6
FD
FF
FB
08
F8
F9
F5
FD
FE
F6
FC
FC
FF
F6
FC
F8
01
FD
FF
F5
FB
00
F7
F9
04
F7
01
00
F9
FD
FB
F5
00
08
05
FA
00
04
02
F9
F8
05
F4
02
FD
04
FA
05
F1
FD
FF
00
06
F2
02
02
FA
02
FC
FC
FE
00
06
05
FD
FD
FF
01
F8
01
02
08
F7
FD
FD
FD
05
00
00
F7
F9
F9
F7
F6
06
01
FE
02
FB
FB
05
FC
FF
F4
00
FD
FC
FB
FD
FF
FC
FD
00
FE
FA
FA
FB
FC
F3
00
00
FB
03
F8
F8
F2
FC
F5
F2
F7
FE
05
F1
FE
08
00
F8
07
FC
F7
F8
FC
0D
02
FC
F8
04
00
FA
01
04
05
0B
00
F9
F2
F6
F1
07
FC
09
09
FD
03
FC
F9
FD
F4
FB
00
06
F8
00
02
06
F7
07
FE
01
F9
02
F7
01
FB
FA
F8
03
F9
04
F7
FA
FC
F9
03
FF
FF
FA
FF
05
F5
F2
FD
F9
F7
F0
FF
F3
FF
05
07
FD
FF
F3
F6
F8
03
02
04
0C
FA
03
01
0B
09
08
FC
F9
01
F1
01
06
09
FC
F4
F9
F7
FA
05
03
FA
FE
F2
EF
F9
F3
FF
FD
FA
FB
03
02
F4
F8
FA
F6
FF
FA
02
F4
FD
F7
00
04
F8
01
01
F9
FF
09
03
FB
0B
F6
FC
06
06
F5
03
03
04
09
03
F4
FC
F4
07
FE
01
FF
0B
00
F6
07
FE
01
02
07
FB
F2
FA
EE
F6
F7
F6
FB
07
FC
F4
F9
F5
F6
F8
F5
07
01
01
01
FB
FC
EE
F4
FF
04
06
00
FF
F4
F8
F8
F9
09
F3
F8
F7
FE
04
04
EF
F6
FD
FB
FC
02
F8
F7
F9
06
0C
FE
F2
FC
05
09
F1
00
F7
FD
FC
03
03
FB
00
FC
F6
00
09
01
06
FA
00
0D
01
08
FE
FD
F9
FF
03
05
FB
07
F9
FF
F8
FD
F9
02
FB
FC
FE
F1
02
FA
F7
05
07
01
F6
F7
F1
00
FE
0B
FA
EC
FB
EF
F8
FD
FB
07
F6
F3
0A
F7
FE
F7
F9
FD
F8
FE
F2
09
EF
06
07
F9
EE
01
FB
FE
FA
07
FC
00
FE
08
0D
FE
FA
00
05
02
03
F7
FA
00
FA
0A
F7
F5
02
F0
F5
FF
F6
05
F5
F9
F7
0D
FA
FB
06
FC
F7
05
FD
F6
F5
02
FC
07
0E
FE
FC
ED
F6
F5
FC
FB
0B
F5
01
FD
FA
00
F3
F9
0F
FB
F2
F8
FA
FD
F1
FC
FF
12
F3
07
F9
F6
FA
F3
F7
F0
F6
02
0C
08
FA
F4
F8
F8
F5
EE
F7
FE
05
FF
F0
09
00
F4
03
F9
FA
F8
F7
F5
06
03
FA
F4
02
F6
F6
FD
F2
F2
F4
0A
09
FA
F8
FC
FB
06
FF
FE
F7
FD
FB
0A
FA
FF
F3
06
02
FE
F1
01
10
01
FF
07
FF
FB
F9
FB
F3
FF
F5
F5
F8
EF
FF
00
F5
FA
F3
FD
00
F5
0A
01
FC
F4
00
F5
05
05
08
F9
0B
FE
F5
FC
F9
0A
FA
00
F6
F9
F7
FF
F3
FE
FF
F1
F4
06
F8
0C
FE
F5
06
FB
ED
FA
00
F7
FE
F3
02
EE
FB
FF
F8
FE
FF
F5
02
F7
FB
04
F9
FE
FB
F8
02
06
FD
F7
F6
02
FA
F5
F4
00
F7
F9
09
07
10
01
FA
06
F0
F5
07
FE
01
F6
09
F4
F0
F7
F1
09
FB
09
03
F7
03
FF
FD
F2
F6
00
FD
09
04
FD
F3
F2
F6
FD
FE
FC
F2
01
F8
00
F8
FB
FF
00
F8
0D
F7
02
FA
F8
06
F7
FE
FF
00
07
F8
FB
05
FB
00
ED
FC
FB
FA
04
09
F3
FB
ED
F4
FA
FC
00
01
0A
05
04
02
06
F8
04
EF
05
F8
FC
05
08
06
00
F4
F9
ED
F5
07
05
FB
FB
F6
F3
FB
F0
FE
05
FF
F5
08
FD
FB
ED
F4
05
FF
F9
04
FF
02
FE
FB
0C
F5
04
09
F8
02
05
F9
00
05
F7
F4
0A
FF
F8
F9
FB
00
02
03
02
F6
FF
01
00
F9
01
09
FF
F5
06
F7
FF
F6
05
01
FB
00
F9
FE
EC
FD
FB
02
FC
F5
F8
F4
F9
F3
FE
F7
05
05
FC
FF
FB
FC
FC
FF
06
F7
0A
FC
EC
FB
FD
F6
FD
F1
F5
FA
05
01
03
F7
F8
FA
FF
F6
01
F9
FD
03
04
02
00
F9
02
04
05
F9
0D
F8
EE
FB
03
01
FE
00
01
FA
F9
03
0A
09
FC
00
06
04
06
FC
00
F8
01
FF
04
F7
02
02
FC
FA
FB
F6
F9
F5
00
04
FF
07
FE
FE
00
0B
FD
F1
F4
F0
FE
FC
F6
02
F9
FD
F9
02
F6
06
0A
03
FA
0E
FB
FB
F9
F6
0C
F9
F6
FF
07
02
01
07
F3
F8
00
02
FF
FC
01
0C
FF
F7
F9
08
FC
FC
07
FC
F7
02
01
01
01
FD
08
F9
01
F4
ED
06
FF
FC
08
08
F7
FF
0B
05
F6
06
02
FA
09
FC
FC
FA
F2
F8
F3
0A
FF
FE
F4
01
F8
F7
FA
0C
F7
04
01
EB
FD
F9
04
0B
F6
00
00
FE
F1
FB
FD
06
09
01
05
FD
E8
FE
FE
F0
F8
FC
0A
08
03
00
0A
FF
FC
FD
FA
FC
01
FF
FA
F3
08
FD
F5
01
06
FC
FD
07
F2
F8
07
F9
00
FA
F8
F8
05
FE
FC
FB
F8
FB
FA
F5
FE
0B
06
07
F7
F3
FF
F7
05
F5
05
FE
01
02
01
EA
05
0A
FC
08
01
FC
02
F6
F0
01
00
FB
FE
08
00
00
02
F0
00
01
02
F9
FD
03
02
02
01
08
FB
FD
FD
07
F5
0E
F4
FC
FE
F6
07
F6
FC
F2
FC
0A
FE
F9
F4
F7
FF
F6
07
FC
FB
EE
F8
FE
03
FA
00
FD
FC
F6
F4
F9
F0
F7
F6
F7
FD
FC
01
01
FE
07
FB
F8
F4
FE
F6
00
00
04
F6
FF
F6
FE
F9
F9
FE
F9
FD
07
07
06
FF
0B
06
00
F3
FD
01
F4
00
0A
FD
02
06
FC
FB
F7
00
08
00
01
01
0D
F8
05
03
FC
04
F8
03
F7
F5
F8
F8
01
05
F9
F5
FE
08
01
02
FE
EE
FD
09
F2
F9
FD
FD
FC
FC
06
FD
03
01
06
F3
0A
F5
02
01
FC
05
04
05
FC
EB
FE
01
FB
06
F6
F1
06
0B
FD
02
07
00
F3
FC
F5
FB
FD
F6
FD
0A
03
F5
FA
01
00
FE
FB
08
FF
FF
F2
FF
09
F9
02
FC
FB
FB
EF
FD
02
F7
FB
02
FE
FB
04
F1
FD
04
F7
03
F9
03
FC
F1
FD
05
F5
0A
FC
FA
F6
FE
F2
03
00
F6
F1
00
F7
F9
0D
FC
01
F1
F0
03
00
F7
FB
09
F4
05
F9
09
04
FA
F3
FB
09
FF
F8
F8
01
07
F9
FF
F6
00
E9
02
F3
08
0F
02
FC
F4
02
FD
FB
06
F2
0A
FF
F7
F2
09
F5
FF
FB
08
00
0B
FF
F5
FA
00
04
F4
F7
FC
F9
FD
F7
05
FF
02
04
F7
01
F2
F5
F3
02
F6
FA
F7
F5
FA
F0
F7
07
FA
F4
0B
E6
F8
EC
F7
FB
05
F2
FE
F8
03
08
07
05
04
07
F8
04
FD
02
07
00
FC
F8
FA
00
FE
FE
01
FE
F7
FD
F6
F2
FA
03
F4
F2
02
FC
F7
FC
FB
FD
FE
FA
F7
0A
FC
0A
F5
F3
01
EE
E5
FA
09
F3
00
04
EE
F0
00
F3
FC
0A
FF
05
03
F7
01
FD
06
FE
07
F5
FC
09
03
06
FF
FE
0A
FD
F5
F6
E7
F9
04
FB
04
F8
05
F1
0B
FF
EE
F9
FE
EB
0E
02
F1
FB
F3
07
01
0F
FA
EF
E3
F6
F1
FC
F7
0C
FC
0B
EE
E8
FD
F1
F6
01
FB
F8
05
04
EA
04
F8
F9
0B
F7
02
F8
E5
FA
F7
F4
F2
FB
00
0B
F9
FA
04
FE
FB
F7
F4
FC
04
09
FA
E2
06
FE
F1
06
00
F8
FF
FE
EC
F6
01
00
EE
00
F9
F9
FF
ED
FD
F0
01
FB
FD
F0
04
04
08
02
F9
FF
FB
EB
03
02
FE
F2
FA
02
03
EB
F4
03
03
F3
F5
FC
FA
FB
E8
FD
FE
04
FF
FB
FF
02
02
FB
FC
F6
FA
08
F6
0C
F6
FE
F5
04
F9
09
06
04
FA
0E
FD
F8
05
F6
0A
ED
F1
E9
FB
F6
FD
F3
F7
03
EE
F5
07
FE
FE
EB
04
FD
F4
F0
F7
02
FF
F8
FF
00
F2
F5
F2
FD
02
F6
EA
FD
F9
F4
02
F2
08
FB
05
E9
FA
FE
FB
02
01
01
FB
F3
02
F6
FD
FF
08
08
FE
00
09
EC
F1
FF
FF
04
FA
08
FA
F9
FF
06
F5
04
FD
F7
01
FB
FB
FB
03
04
FC
FC
F1
FD
FF
04
07
06
FC
FE
FE
FE
04
02
06
FC
01
FF
FD
04
FD
FF
04
FD
01
F7
01
02
FD
FE
04
04
06
F8
07
00
05
FC
FC
FF
F7
F7
07
FC
FE
00
FA
07
03
FD
FC
FF
F7
FD
F6
08
FD
08
05
01
03
00
00
F4
06
07
FE
FD
FC
03
FA
04
04
03
03
FC
06
FB
02
FD
FC
F5
FA
FF
07
05
00
FA
01
F9
07
F5
FD
FA
FE
FB
F9
F6
FE
00
F8
FE
FD
02
FF
01
F8
00
FD
04
02
FC
FA
FA
F7
FA
FA
F8
02
FF
FC
FA
FF
01
FB
FC
03
02
F7
F7
05
03
FE
FC
FE
F6
00
F9
FD
09
05
05
FC
0A
FA
03
FB
FB
03
FC
FF
FC
00
01
FD
03
03
FE
08
07
FA
05
FB
01
F8
FC
FD
02
04
FE
FF
FE
03
FF
04
FE
04
01
FF
FA
FD
01
FA
F8
FE
03
FB
FD
07
FE
01
F9
FC
FD
FF
F7
FE
04
FD
FE
00
FE
FB
F6
FA
01
FF
FD
F8
FD
F8
FC
FF
FB
03
FA
01
FC
FF
FA
FF
FF
06
F5
FC
FA
F9
FC
FD
03
02
02
FE
F7
06
FE
FE
06
03
09
FE
FF
F9
04
FC
F6
FD
FD
F8
F7
FF
00
FA
03
FD
FE
F5
F9
F8
07
FF
06
05
FC
FE
06
FA
00
E8
00
F9
FF
01
06
F0
F9
FF
F2
0A
FA
F3
09
00
EB
F8
00
F8
02
FA
FA
FE
04
F4
FE
FF
FA
10
FD
F3
08
05
F9
FC
FF
ED
F6
01
F9
01
05
F7
FA
05
FA
0A
F7
F9
F9
00
F8
06
FD
FE
05
01
01
EE
0B
F9
02
02
0C
F7
08
F4
05
00
FE
01
0A
F5
F9
FD
02
FA
05
F1
0E
02
FE
FC
F3
F6
FD
F4
04
FA
FB
F6
FE
0D
08
FD
EE
00
F7
09
01
FD
02
FF
F9
0C
05
EA
FD
05
F8
F5
07
FF
04
FB
00
06
FC
00
F6
F3
08
F8
FC
F7
F9
00
04
FC
F9
FE
FC
09
04
F9
F3
07
0B
FB
FF
FA
FB
00
FD
05
09
FB
F5
F4
F4
05
04
07
03
03
FC
03
F4
FA
FB
F7
0A
FD
03
ED
F7
FA
FE
06
00
FA
FB
01
FB
08
F6
FB
08
EC
EC
09
EF
05
01
02
FF
00
F4
05
EA
FB
F9
F4
F6
FC
03
01
F7
F6
FD
F2
F8
F7
08
00
F5
01
F6
01
03
F1
05
0D
F9
FE
F8
F8
F9
F7
F5
F3
06
00
0D
F3
FE
FC
F6
FC
02
03
FB
F8
F2
FE
FA
07
FF
FD
FF
09
FE
FB
F9
FB
FE
06
0A
FA
FC
FB
02
F9
03
03
03
FC
00
FC
FF
F8
FD
02
02
01
F8
04
FD
FA
05
F9
FD
07
FC
FB
FA
FC
F8
FB
FF
F2
FA
0D
F6
FE
FF
FB
06
FF
FC
03
F8
FB
F8
01
07
02
05
00
F4
F8
FA
FF
F5
FC
05
01
02
FC
F6
07
F7
00
EE
03
FA
01
02
F6
03
FB
02
03
02
FA
FB
09
F1
F9
F7
04
02
F9
FF
01
04
02
FE
02
F2
FB
04
FC
06
FB
FB
FE
F1
FB
F9
FC
FE
0A
F9
FD
05
FA
03
03
FF
03
FD
FD
F9
FA
FD
F8
F9
FE
FC
FC
FA
04
09
FF
FC
00
04
FB
02
FC
FE
FB
F7
FB
00
05
FE
08
F9
03
FF
FF
F9
FB
00
F7
F9
FE
F5
00
FF
FB
F7
00
F9
FE
02
FB
02
03
FB
F9
FB
02
00
FD
04
FC
03
F6
09
FB
02
FE
FF
00
FD
F8
00
00
FD
F8
FF
FD
09
FE
01
00
09
00
FC
FE
FE
F9
FC
03
08
00
F7
FC
02
FF
F4
F7
F9
02
FF
FD
05
FB
00
FD
FB
03
F9
FB
02
07
FD
F7
02
F5
01
FB
FA
04
F5
F8
03
02
F6
02
FB
00
04
F8
F5
F7
01
FA
F7
00
02
FE
09
FF
F3
04
05
FB
F6
06
02
05
04
09
06
01
F9
F6
FC
F6
01
00
F4
F0
F6
FB
F8
F9
F7
F7
F5
0A
03
06
FA
01
FF
F8
F9
FF
08
03
FA
F6
05
F6
FE
F9
0A
0C
FC
FB
F6
01
02
F8
F3
FB
FC
09
09
07
09
06
0B
F4
F4
03
04
FD
FD
00
F9
F7
FC
F6
02
F6
FC
02
FE
FB
EB
FF
F3
04
01
FF
04
05
FA
0C
F7
FA
00
08
F5
01
F8
FA
FC
F6
F7
FE
FD
F9
FA
FC
06
03
01
FB
01
08
FA
FF
00
03
FF
FF
FF
F8
FC
00
01
F8
09
FA
FC
F7
FC
F5
FB
03
00
F6
01
F9
00
04
FD
00
F6
F3
04
02
FA
03
0A
FE
08
F6
07
FD
F3
F9
FE
06
01
F4
07
01
04
FA
02
09
01
03
FE
FC
02
EB
F4
FF
FD
FA
F8
01
F5
07
06
FD
FD
FA
FD
03
06
F2
FC
F9
F6
FC
07
04
F6
07
04
FA
FF
FD
F6
F8
F9
F8
04
F3
04
02
F8
07
FD
F6
FD
FA
F5
00
09
0A
03
F8
F9
F9
F1
FA
05
F9
04
F7
FB
04
FA
FA
FD
FD
F8
F5
05
F5
F3
F7
03
FE
00
FA
F9
F7
FB
0C
F7
F4
04
FE
01
FF
FD
04
04
02
03
FC
01
02
03
00
FC
FD
03
02
05
05
04
FD
F9
FE
FF
FB
00
00
FD
04
FC
FE
03
03
FF
FC
FF
FF
FD
FD
FE
02
02
FD
FE
FD
FC
FB
FA
00
02
FA
FE
05
04
FF
FF
FD
01
02
FD
FC
F8
FA
FF
03
FF
01
01
04
03
02
FE
02
02
FA
FE
05
FB
FF
FF
FE
00
FD
02
02
FE
01
FE
FE
00
FC
FF
05
06
00
FD
FE
FC
FC
00
FA
00
02
00
03
03
F9
00
FE
FF
FF
FB
00
02
FE
03
FE
00
FC
FE
FE
FE
09
FC
04
FC
FF
FE
04
FF
FD
02
01
02
01
00
00
02
FC
FE
FB
01
FA
06
FF
FE
01
FB
01
03
FE
FA
F9
FD
FB
FF
00
03
02
FE
00
01
02
FD
00
03
01
00
FA
03
01
03
04
FE
01
01
00
00
FD
FC
FF
03
FC
FA
00
03
08
FD
FE
00
F9
FF
02
FE
FF
FE
FE
FD
06
FF
04
FE
00
FC
FF
FF
00
FE
05
01
FC
FF
00
FA
FD
00
02
FD
00
03
03
00
02
05
FD
FF
02
02
FC
02
FF
FC
00
02
FE
01
FF
FD
FC
01
FA
04
FE
FF
FD
02
FE
08
01
FF
FB
FF
00
FA
00
FC
F4
08
F9
FD
FF
F7
FE
FE
F8
02
FD
FB
FF
FC
F7
0B
FA
FB
F7
FC
FA
F9
F7
FA
06
05
00
F5
FE
05
00
F6
FD
FC
10
FB
03
FB
F5
01
F5
F6
F6
FB
05
FC
FA
FA
0C
F9
FF
00
F7
01
01
00
F9
04
04
F3
FD
06
FC
0C
FD
FA
F3
F1
FE
02
F9
01
00
F2
F2
FF
FE
0B
FD
F3
F7
F7
FA
FB
FC
04
01
F5
0B
F8
F3
08
F7
FD
F3
F9
08
09
FB
FB
FD
07
07
07
07
00
F2
FD
FC
00
05
FB
F4
FB
FC
EF
F6
FB
F8
FD
FF
FA
F4
FF
FA
FB
07
01
FD
F9
05
FF
FA
01
FB
FE
03
FB
01
F6
F4
FC
06
03
FB
01
04
06
FB
EE
03
0F
FE
FE
08
FD
0C
F2
FE
F9
F7
FD
FC
F5
FE
FA
FA
F2
EE
FA
05
01
FF
04
FD
FD
F7
F8
0D
F5
01
09
02
03
FC
05
00
01
FB
00
FC
F2
F9
F4
05
F1
FB
01
06
00
FC
FB
05
FE
FE
FF
02
02
FD
F7
F8
00
FA
FF
ED
06
FF
FB
FB
F6
01
F7
FF
FB
F5
FE
FD
03
F5
00
FB
01
F7
FD
FE
FC
0A
FF
FA
FB
FA
03
02
09
F6
02
01
0A
09
0C
07
0B
FC
FD
FB
FA
FE
FC
04
01
FE
01
03
00
01
FF
FF
F9
00
00
FE
05
FF
FF
FB
FA
01
00
FF
FA
FE
00
00
01
03
00
FB
F9
02
01
FF
02
FA
04
02
FE
FD
00
FE
02
01
01
FC
F8
FE
01
FC
FF
02
FE
FC
FF
FC
FE
03
FE
F9
FD
03
FE
FC
FF
FF
FA
04
FE
FF
FA
01
FC
FE
00
01
FF
02
FE
FD
03
FC
00
FD
FB
FF
FE
FE
03
FC
03
00
02
00
FD
FB
FF
FE
FF
FC
03
FE
FF
01
00
01
FC
00
02
FC
F9
FD
FF
FC
FF
FE
FA
FD
00
F8
03
00
02
01
01
02
05
03
00
FC
FD
01
FF
00
FE
01
FC
03
00
FD
01
FD
FF
FD
00
03
06
00
FE
01
FD
01
FE
FD
00
03
FA
03
FE
FF
01
00
FE
FF
FE
FF
FF
FE
01
FA
FF
02
FB
01
FB
FE
FC
02
03
03
02
01
03
FF
FF
FD
FF
02
FA
FF
FC
FB
00
04
FE
00
F9
04
03
FF
FE
FC
FE
FF
FA
01
FD
01
FD
FA
FE
FC
FD
02
FF
04
04
04
FF
FC
00
FC
00
02
04
FB
01
03
FC
FF
01
01
03
01
01
FC
FE
00
04
FE
FA
FC
FD
FF
FB
FB
04
04
00
FF
01
00
FA
06
03
FB
F8
00
FD
FF
00
FD
FD
FB
FD
FC
FB
FC
FF
00
00
05
FE
00
02
03
FD
07
FD
FB
FA
09
00
FA
04
F6
FE
02
FF
00
00
F3
FF
00
01
05
FF
05
FA
FF
FF
FC
FC
FC
FE
00
01
FD
FD
FA
07
03
02
F9
02
F9
F7
06
FF
F9
02
03
FE
03
FB
05
FC
FA
FF
06
00
FB
FC
00
F7
FD
00
01
FC
01
01
FC
02
02
03
FE
07
05
FD
FD
FE
FE
F8
02
FF
FC
01
FB
03
01
01
05
F8
02
04
FB
03
FE
01
01
07
FB
01
00
F7
FF
01
FB
00
02
05
FF
FD
01
06
FB
FA
02
05
FD
F7
FB
F9
03
05
07
FD
F9
FF
F2
01
FF
FC
05
03
FD
F9
FD
FB
F6
01
FD
08
02
04
08
03
F8
F6
FB
03
05
04
04
03
FA
FF
02
FC
FC
04
FB
FD
FD
FC
FE
F8
FD
FB
FF
05
03
04
FE
FD
04
FF
06
FF
05
02
02
FE
01
FE
FD
03
F7
FF
FD
FA
FC
F8
03
00
05
F7
02
F8
04
FA
05
02
01
01
F7
FE
00
FE
04
FF
FF
00
05
F5
05
F8
02
03
02
01
05
FF
02
00
FE
F6
F5
FC
FF
FE
FF
FD
FC
00
FE
02
FB
02
FD
FD
04
00
FE
05
F9
01
FE
FE
03
FC
FE
01
FE
03
FE
FB
01
FE
03
02
02
00
FB
01
FA
FD
FF
FA
02
00
00
02
02
03
FF
FD
00
02
00
FF
FD
F9
FC
FF
FF
FD
04
FC
FF
04
05
FD
FA
03
04
02
05
00
FF
03
FB
F9
00
FE
FC
01
01
02
00
FE
02
03
02
FB
FE
01
FF
FF
FD
FF
FD
06
01
FF
05
FB
FE
02
FD
02
FE
00
01
07
03
01
FE
FB
FC
00
FE
FF
03
00
FF
05
FC
02
FC
03
01
FE
03
03
00
05
04
01
00
FF
FD
00
01
FF
01
FF
FB
FE
FC
FF
FB
FC
FB
03
00
03
00
02
FE
05
04
05
00
FF
02
FA
FF
03
03
FF
FB
FE
03
FE
FE
00
F8
02
03
FB
00
FE
FF
03
00
FE
FB
06
FD
FC
FE
04
02
FC
FF
02
FC
03
FA
00
FF
FF
05
00
03
FA
FE
FE
FF
FD
03
FF
00
02
06
02
03
01
01
04
FD
FF
FF
FF
FA
FA
FB
FF
01
03
FD
02
FD
FA
02
FE
FE
08
FE
05
FE
01
FF
FF
FF
01
04
00
05
FC
FE
03
04
04
01
02
FE
01
FE
00
04
02
FF
FF
05
00
FF
01
FE
FF
FD
FE
02
FF
FD
EF
FD
F2
07
EF
F7
F1
FB
11
0C
03
FB
01
FE
F5
0B
04
F5
FA
01
F8
FD
FF
F1
F1
E4
F9
F8
F2
F9
F5
E2
FD
01
F3
00
F1
01
FE
02
EC
FE
FD
F3
FC
FB
01
F9
F9
F4
FD
02
ED
03
0E
FE
F5
F3
FA
01
F5
E4
F7
F5
01
01
04
04
FB
FF
FB
F9
F5
F6
F4
FC
FF
07
F6
08
01
F5
05
F0
FF
04
F7
F4
08
F2
FC
F8
F9
00
0B
F1
03
02
EF
F5
00
02
07
03
01
01
FB
00
F3
06
0D
EE
F6
F6
03
FE
09
00
F9
0B
E7
03
FD
05
F0
FC
FB
04
F8
F5
F9
E4
FD
08
F7
FD
00
00
F7
F2
F4
FD
0D
FC
F5
FF
FA
03
06
F7
F7
03
FD
FF
FA
FE
F8
FE
02
06
07
F8
00
05
00
FB
F0
04
07
00
FC
EF
03
09
EE
01
FC
00
FB
03
F9
07
F5
F9
03
00
F8
FB
00
EF
F4
EC
EE
02
FA
07
03
0D
F4
03
0D
F8
02
E4
F3
FF
E3
F8
00
05
FD
FC
F3
FD
E5
FD
F9
EE
02
F9
01
FF
F7
FD
04
ED
FB
F6
08
F6
03
ED
07
FA
07
FB
0A
FB
FE
FF
04
F8
02
F3
EC
FA
04
F8
08
F6
F4
F3
F6
FE
00
01
FA
00
FA
07
F7
FF
FE
01
07
03
FE
FA
FF
FE
F8
07
07
F7
00
00
FD
F4
00
F6
FA
F9
06
F8
F4
FA
06
FC
F4
FA
FC
08
01
F0
FB
03
F7
F9
FB
FA
FD
04
04
FA
FA
F1
F8
01
FE
07
07
FD
F9
F8
00
01
F6
F5
FC
FD
09
04
03
02
FE
F7
F9
F7
F7
07
FC
FD
FF
0F
03
03
FB
F8
FB
01
FF
F5
08
FF
FC
FA
01
FB
FB
F2
01
F9
FE
FD
FA
FB
01
00
06
08
0A
09
F7
FD
FF
FE
08
F9
FA
FD
FC
F7
FF
FD
FC
03
F7
FA
F4
05
FD
FA
05
07
04
FC
02
F7
FE
05
FA
FF
01
06
FE
FB
F9
FC
06
FD
F7
F0
05
FF
0A
F8
FA
04
FE
FD
08
06
00
0B
FE
01
04
02
00
08
FF
F7
FA
F4
FC
01
FF
04
F9
04
FF
FF
FD
05
F8
08
FC
06
FC
F7
02
03
FD
FD
00
FB
00
FC
FD
F8
FC
08
F9
06
FD
0C
03
FE
05
F4
FA
FA
F8
0C
06
F9
F7
FE
F9
F8
F7
FD
01
00
FA
02
F6
06
FC
FD
04
FB
09
F2
03
F6
01
00
08
FD
0A
FA
09
00
00
F6
04
FD
00
01
FD
F8
01
F5
0A
01
01
FE
F8
06
01
06
04
05
F8
FF
07
FD
E9
FF
F9
FD
F2
F2
F7
FF
FB
F8
F2
F8
EC
EE
FD
FF
FF
01
06
01
FA
FD
07
F6
FE
02
F4
FA
08
F9
01
F4
04
F6
FF
FA
F6
F4
FB
FA
F6
00
FA
F9
00
FF
FA
FA
FD
EF
05
FD
FE
01
05
FE
F7
F3
02
FD
F0
ED
E9
FD
EA
FE
FC
FB
F8
EE
FB
F6
FC
FF
F7
0C
F8
FD
FC
FC
FF
FE
01
F1
FE
F6
FD
03
03
00
F7
F3
FB
F9
FF
EF
F4
FD
FD
FD
0A
F4
0B
F9
04
FD
F7
F2
F8
F9
F0
FF
F4
FB
FA
FC
05
F6
FC
05
04
00
03
00
F4
01
FC
03
E9
08
F5
F8
01
FA
FB
F9
01
F9
03
FD
F7
F4
06
08
F2
F5
FB
FE
EF
F1
FC
F8
F4
05
EB
FD
FE
F8
F0
0A
F6
F9
F9
FA
F4
F9
03
F2
FB
F8
FB
03
FE
F5
F5
FB
06
09
F1
04
FD
FB
08
0D
06
E5
F5
F7
F1
00
FE
05
07
F8
07
EC
FC
FF
F6
01
FE
02
09
00
04
F1
FC
FC
00
EE
F9
F7
0C
07
06
FB
F9
F7
F7
03
07
0D
F6
0D
00
EE
FE
0A
01
02
F9
F9
F6
07
07
07
F7
FB
04
08
EE
EC
FA
0A
00
04
00
F4
F2
02
01
02
FE
FF
02
FC
00
02
FF
FD
06
FE
FF
FD
FF
FD
00
FC
03
FF
FA
00
F8
02
02
F8
FD
03
00
03
FE
F3
00
01
FC
FD
00
01
FB
02
FA
FE
01
FC
FC
FE
00
FE
FF
FA
FD
FA
FE
00
01
01
FD
FA
02
FE
FC
F9
FA
FC
03
05
FC
01
FE
FD
FF
01
01
05
00
02
00
07
F9
FD
FD
05
06
04
FA
FB
FA
FD
FD
FC
FA
FE
FE
FB
FF
01
FA
FC
FB
FE
FE
FE
02
01
04
FF
FD
FF
FB
01
FF
F7
01
03
FD
01
FF
FC
FB
01
FC
02
FF
01
FA
00
FC
FD
04
FB
02
F8
FD
01
FB
FF
F8
02
FE
FA
00
FF
01
FE
02
02
FF
F9
01
FF
00
FC
FA
FB
FB
FD
FC
04
FE
02
01
01
FD
FF
FF
04
FE
FF
01
FD
00
FC
03
01
FC
02
02
00
FC
03
FE
FE
FF
00
FC
02
FD
FE
FD
01
FD
04
FE
01
FE
FE
FD
FE
FD
00
04
FD
FD
F7
FC
FB
F4
FF
07
04
FB
02
F6
FD
FC
FF
FE
FA
04
FE
01
06
FD
04
03
FF
03
02
02
FE
03
03
02
02
FD
FF
03
FE
00
00
FD
06
01
02
F9
FE
FC
00
04
06
01
FE
FC
FD
00
FF
FA
F7
08
05
F9
02
FA
FD
F9
03
F5
04
F5
08
08
FD
F6
F6
F5
FB
EF
03
05
00
EF
0D
02
F3
FA
FD
F8
07
02
FA
FE
FB
01
FB
03
FB
09
F3
FA
FD
FC
FE
F9
F8
FA
FD
00
09
FD
FC
FB
F1
02
FD
F1
05
F5
09
0E
0A
F6
F0
FC
F9
EB
01
F7
F8
F6
F3
FA
FF
02
F9
08
FF
FA
FD
F3
04
FB
FD
F9
0D
F9
F5
F8
F3
EF
F8
F2
F7
F9
FD
FE
01
04
02
04
EF
02
F5
F1
FE
02
FF
FF
0C
FD
F8
FC
FB
F3
F9
F9
F9
08
04
F6
F4
07
FF
01
05
FE
01
EF
0C
FE
F7
EF
F7
FF
06
FF
FC
F7
04
FC
00
F0
FC
F0
04
06
03
F2
FC
FF
FD
F6
01
F8
F7
F4
FA
01
F7
FB
EF
FA
F7
F7
05
EC
F8
F3
F4
F1
F7
02
FA
FD
F9
04
02
00
F9
03
F6
0B
F7
F4
F4
EF
0A
01
EF
F3
F8
F8
FA
FE
F7
FF
FB
F0
F7
F8
0B
02
FE
05
03
F4
F7
FD
FB
0A
F6
08
F4
07
05
FA
0B
FA
F2
00
F9
F9
13
05
F4
FD
F7
FA
FB
F8
01
00
00
01
EA
F3
06
06
FA
FE
02
0B
0A
FE
02
F3
FB
FF
F9
F7
ED
05
FB
07
02
F8
FB
07
FB
FF
01
FF
FD
09
F4
07
F9
F3
FF
FF
02
04
09
04
05
FB
01
07
F1
F0
01
08
FC
05
EF
EF
F6
00
FE
FD
F5
FF
05
FD
03
07
01
F8
F5
00
02
FF
FE
06
FA
FA
F9
02
F6
03
01
FF
FB
FD
F4
F6
00
03
07
03
04
06
02
FC
F5
F7
F8
F8
FB
FA
F6
F2
08
FD
FC
F8
07
EF
FB
F6
F6
FF
FE
00
F7
FB
06
05
FF
F8
FB
F8
F3
F7
FA
01
FA
FC
FE
02
FB
01
01
00
F2
01
0A
F9
F1
07
F1
05
06
EE
FB
FD
06
F6
04
00
FC
00
F2
0C
ED
F7
F8
02
01
F3
F6
FF
06
06
01
02
F7
FD
FE
02
FA
F7
08
07
03
FB
FB
FE
FC
F7
FA
FF
09
FD
FB
F4
05
F8
FD
FF
09
04
F9
07
F6
F9
06
F1
06
FC
FD
00
FD
F9
ED
F9
00
FB
F5
05
03
00
03
ED
04
05
02
03
FB
01
FC
F0
FC
05
F9
FC
F3
F8
F4
F3
F7
05
06
08
FD
EF
FB
ED
0D
F5
FE
01
F5
02
0A
03
03
07
F5
FB
03
FB
03
04
FC
05
F6
F7
F8
FE
FB
FC
01
F6
F5
00
FE
F9
FB
00
03
FB
03
03
F8
04
05
F4
FC
02
04
01
F8
0E
FE
FC
F9
FC
F4
03
F8
F3
04
F6
FD
FE
00
F0
F4
05
04
FA
02
02
02
FA
00
0A
05
04
05
FE
FD
0A
FB
08
F4
FD
F1
04
FF
F7
F5
04
02
EF
07
F5
05
F8
FC
FE
FD
F5
FA
FC
FA
05
00
05
01
F6
FB
FE
F6
FA
F0
F4
00
FA
01
F8
FF
FE
F9
00
FA
FF
FB
FF
06
01
00
03
FC
02
FE
F9
FF
FE
FB
FF
05
01
02
FD
00
07
F9
FE
F1
F5
0C
F7
FB
0A
FA
04
F8
FB
00
FC
FC
F9
FB
F9
FC
FE
FA
FC
FA
04
F1
FE
09
01
FD
03
04
ED
02
FC
00
FE
04
F4
F8
02
FE
03
FB
F5
FD
08
FB
F9
F7
01
00
FF
F4
FF
01
F5
F5
F6
F3
F7
00
F9
FC
01
FC
EF
09
FF
FE
03
FC
EB
F9
08
F5
00
F4
F8
FD
FC
F5
F6
FE
09
05
F2
01
FF
03
FE
01
02
F4
FA
FC
F5
02
FC
FD
01
FC
01
F5
F6
FF
FE
05
03
00
03
FF
04
F9
FD
05
FC
F7
FD
02
09
00
06
FC
F7
00
EB
00
05
0B
ED
06
F6
FD
FE
0B
FF
FE
F2
03
FF
02
FC
0A
F8
06
02
05
EA
FC
F8
0F
FE
05
03
02
F8
01
04
01
07
F7
FB
F8
01
F2
01
F1
FB
FA
01
F2
F7
FE
FF
F1
02
FF
0D
03
F5
F6
00
03
F9
FE
07
02
F6
07
F5
F2
FA
F7
FD
F9
02
F8
FA
0B
03
FD
03
02
F7
04
F7
04
FD
F0
03
03
FE
FD
F5
00
00
E8
FD
04
F6
F9
FC
0D
FF
07
04
F3
FE
F9
FB
02
0A
F9
FB
FB
F9
F6
0F
FF
01
FD
04
F3
01
F7
FF
01
F9
03
F2
F6
04
10
07
F7
03
F6
03
FB
FA
FF
F4
F7
FE
F9
F7
E9
FA
07
FD
08
00
F9
FF
00
0A
0F
04
E8
02
0B
09
F7
05
FC
00
FE
08
05
03
00
FC
01
04
FD
FD
FD
03
F3
FD
F0
00
FC
06
F8
F5
FB
06
04
F2
03
FD
F5
01
F3
02
00
F5
F9
02
02
FE
FC
04
FB
07
EC
08
03
01
FB
05
08
FA
FF
F5
EE
00
F9
03
FD
F6
00
00
FC
F5
ED
01
0A
09
F2
04
FD
03
FD
0C
FF
FE
0D
FD
02
03
03
FE
FB
05
F7
FB
FA
05
07
04
07
FD
FA
F9
F4
F9
0C
05
04
F2
F1
F1
07
FA
F6
0A
FC
04
F6
FA
03
FB
F9
05
F4
F3
F0
FD
01
01
FE
F8
00
FF
FD
FC
03
FA
09
FC
F8
FE
FE
FF
FF
FA
00
03
FF
02
04
FC
FF
FE
06
02
04
01
00
01
FE
FE
00
02
FE
FF
F7
FE
FF
02
FE
00
F9
00
02
FD
FF
02
02
01
00
FC
01
00
03
04
00
07
03
03
01
05
02
FA
FF
02
03
FF
00
01
04
01
F7
00
FD
00
00
04
06
FE
03
03
F8
FB
FB
03
00
01
FE
01
02
02
FC
FF
FE
00
07
FA
FC
FE
FD
FF
00
02
04
03
02
FD
01
01
FF
00
02
FF
00
FE
FC
FE
00
FD
06
01
FF
FC
05
01
03
00
FD
00
01
FC
05
02
02
FF
04
FB
02
06
02
03
F8
00
01
FF
FE
03
04
FE
FF
FF
02
03
FF
FC
02
00
03
02
00
06
03
01
06
01
06
02
01
FF
05
01
FE
01
03
06
00
04
04
02
02
FE
FD
03
FF
FD
05
F9
FE
FF
08
02
02
FF
07
08
FF
FE
FC
01
FC
03
FF
FE
FF
01
03
01
02
FE
FF
01
FE
04
FF
01
04
F8
FE
FE
FD
04
FC
03
FD
F9
FD
01
00
03
FD
FE
02
04
02
02
FC
FF
01
02
FD
01
FD
00
01
00
01
00
FF
01
06
04
FC
07
02
FE
00
04
FE
FB
FF
FB
01
01
01
FC
06
FE
FF
FB
FD
FB
F9
FE
01
FE
FE
00
00
FF
FB
F9
03
02
FE
03
05
FC
FD
01
04
FE
FA
FD
03
04
FA
01
F9
07
00
01
FD
FA
FF
01
00
FA
00
01
01
FC
FE
FD
FC
02
FA
04
02
01
FB
FF
01
03
04
02
01
04
F9
FA
FB
FE
00
03
FA
02
03
FC
09
FC
02
04
08
F9
FE
01
06
FC
03
00
FF
02
04
04
FC
07
FD
06
00
03
03
FD
FF
FD
FF
00
01
02
FF
FE
04
01
03
01
02
FD
FE
FE
FD
02
FE
FA
FD
03
01
FF
00
F4
05
FB
FE
F8
01
02
FC
00
03
00
F2
FB
FB
FE
FC
01
FE
FD
FF
FE
02
FF
FC
01
FD
00
FE
FD
03
FE
00
00
FB
FB
01
04
05
01
01
00
04
FE
FF
FC
FE
02
02
00
02
04
02
00
01
FA
FB
06
FE
01
FD
01
FE
FD
FC
FA
03
03
FE
01
F9
FC
00
FD
06
FC
03
FE
01
FC
00
02
FF
FD
F3
FC
02
FA
01
00
04
01
02
F7
FF
F9
FF
F9
00
FD
FF
03
01
00
02
FD
FB
FE
FD
06
03
FD
FE
FA
FF
01
01
FE
00
02
00
FB
00
FC
FE
FD
00
FF
00
03
FE
00
FF
FE
FF
01
FD
07
F7
FE
07
FE
FF
FA
03
FE
FB
01
02
06
FE
04
FC
F8
FF
02
01
08
F6
06
03
02
FF
FC
05
07
FD
FC
FF
FC
FD
FF
01
F4
01
FF
05
FD
00
FF
01
FE
FD
04
02
02
FD
05
F8
FC
01
FD
05
01
07
F3
FF
08
FD
FA
02
FB
FE
FA
FB
FE
F5
FE
03
09
08
FD
FE
03
FF
02
03
02
06
F1
FE
06
FC
00
04
F8
02
01
F8
04
01
00
07
00
FC
FD
04
03
02
03
02
FD
F9
FA
F8
F9
FD
FD
FB
03
FE
FE
01
F9
02
05
FD
FD
03
05
FC
03
FC
04
00
FE
07
FF
FA
FB
01
F9
FC
02
02
FD
F8
FF
FE
FB
04
FE
FB
05
FF
FE
02
FC
FB
01
03
05
00
07
FB
FC
F9
FF
FE
02
03
06
F9
FE
F5
F7
FB
FF
03
FF
05
01
FB
06
04
01
F9
09
01
03
FA
FE
02
01
FC
FE
FC
00
FB
01
00
07
04
F6
FD
07
00
FD
03
03
FF
F7
03
03
04
FA
FE
FA
F8
03
05
FC
F8
FE
FD
FA
02
FC
00
FA
00
00
02
08
FF
FF
01
FC
FD
FF
FF
FE
FC
01
01
FE
F6
FE
FC
02
FD
FF
FC
04
FC
FD
FD
02
04
F9
03
01
07
01
FE
00
FE
02
FD
FD
FF
01
FD
02
FD
FF
05
FE
FE
FE
02
FF
FF
00
FA
01
FD
01
02
03
04
00
FD
04
FA
FA
FF
FD
03
FF
01
00
01
FF
FC
02
00
04
00
03
05
08
FC
FE
FD
03
02
FE
FA
03
01
04
01
03
FF
FF
00
03
FD
FC
FD
FE
01
FC
00
FF
06
FC
03
00
02
03
01
FE
03
FE
01
02
00
03
03
FE
00
00
FA
02
FC
FC
FF
02
01
05
01
04
04
05
02
FF
FF
00
02
FE
01
00
FB
04
FC
01
01
FC
FD
01
00
F9
FE
FE
FC
FE
FD
01
05
FE
FF
FA
FF
FE
FE
03
FC
FF
00
FF
01
FE
FF
FF
04
00
FB
05
FC
FF
01
FF
FE
04
FF
02
FD
03
FE
FE
FC
02
FF
05
00
FE
02
02
00
FA
04
FC
FD
05
02
FB
FF
FF
00
06
00
FC
00
03
04
03
01
01
04
02
01
FF
FB
FA
00
03
FD
FF
FC
FF
03
FC
FE
02
FC
F9
FF
FA
04
FC
01
FD
04
FC
00
FC
FD
FF
FE
FD
00
02
01
FF
03
FD
02
FE
FE
FE
FC
02
00
00
01
05
01
02
03
00
FB
FC
02
FF
02
FD
01
FB
F7
01
05
02
03
01
FF
FE
FD
00
FB
02
FF
FC
01
FD
03
F4
F1
05
02
F8
FD
02
F8
F6
FD
03
05
02
FF
07
0A
FC
07
05
FF
09
06
FE
03
FF
FD
02
02
00
FE
00
FF
0A
FA
F6
09
F9
FD
FD
F8
FF
00
01
FE
02
00
F8
FC
09
F9
F6
F9
FE
04
03
0C
00
F9
FE
FF
04
01
06
08
FF
FE
FE
0A
FF
FE
03
06
F6
06
04
01
FB
F5
FC
0C
01
FD
02
F9
F7
F7
F7
03
00
01
05
FD
F6
FF
FB
F6
02
FE
00
05
05
03
FB
FC
01
00
03
F3
04
FD
FA
F7
00
01
F8
FA
FD
FC
F7
FF
04
02
06
05
FE
F9
01
04
FE
03
09
01
FB
FD
F5
07
F8
F3
FF
F5
02
04
FE
FC
06
F4
FA
FC
FE
FE
04
F9
FB
08
01
FF
F8
02
FF
05
FF
0A
03
FF
FB
00
FF
FC
00
00
08
00
FF
FF
FE
F3
04
FC
FE
00
FE
06
F6
07
FD
01
FB
FE
01
FB
FC
F3
01
FF
FC
07
FF
F8
05
FA
FB
05
FC
08
F8
F4
FE
07
FC
09
00
09
09
FF
FD
F9
F9
09
07
FB
03
FE
F5
0A
F7
01
02
F6
F5
F8
FC
02
00
FE
F5
03
06
FF
FD
08
F8
FF
FF
FC
F7
05
09
FF
00
F2
01
FA
F7
F5
FA
03
FF
07
FC
05
FF
F6
FC
02
F8
05
F7
FD
06
FA
05
F7
FB
E6
FD
00
F6
02
F3
E8
0F
01
FA
FB
F0
0D
03
FD
F4
04
01
00
FB
F9
04
00
07
FF
05
09
F4
F7
02
06
FE
05
EF
05
FA
E9
00
F7
01
04
FB
FF
FD
FB
05
FE
FB
02
06
01
F7
FB
F9
01
F5
F9
F8
F4
F7
0B
F3
F7
01
06
F9
07
FC
FE
F5
02
F9
09
FA
10
00
08
FF
F4
F9
F9
F5
00
F7
FD
FE
F3
FE
01
F7
05
F3
07
01
05
EF
0E
FA
FA
F0
F4
FA
F8
FE
02
F8
EE
FC
F9
F7
F4
0A
FD
FB
FA
F4
05
08
06
F8
08
FF
02
F4
FA
F9
FD
05
06
0A
06
07
02
FC
FE
03
F6
FB
F5
0C
F0
FD
FC
F3
06
F7
02
00
02
00
FD
05
FA
04
FD
FE
FA
F2
FD
00
FF
FF
F9
00
F4
FB
F8
00
FE
07
FE
F5
F8
FF
F7
FC
00
03
F2
F8
02
E3
EF
FA
F9
FD
05
F2
04
F1
FE
F6
F7
F8
F9
FC
F9
01
FF
FC
F1
EF
F7
04
F4
05
FA
FE
F7
FB
02
02
00
F7
F6
F8
FB
06
F8
E9
FB
05
05
F6
F3
FB
F1
FB
FD
02
F8
01
00
F9
FC
03
FD
04
FF
02
FC
FF
05
05
FB
F3
01
FF
06
06
02
01
00
FB
02
04
01
FC
06
01
FD
FE
F8
03
FF
FC
01
FF
FA
00
03
02
00
04
04
FC
F7
F9
00
FF
F9
FE
FF
05
FB
03
FD
06
02
05
F5
02
FD
F8
04
01
07
FE
03
05
FF
04
03
FF
FD
00
06
03
00
FC
03
FB
F9
FC
02
FD
FE
FC
FF
01
FB
04
FC
FE
FC
FD
05
F9
02
F9
FC
FC
F6
FE
FE
FC
FF
04
00
F9
01
FF
F5
03
06
FD
FE
07
FE
FD
FF
F8
00
FB
FF
FB
FB
FD
FD
FD
FE
06
FB
F9
FF
FF
00
F6
FC
FC
01
03
FB
05
00
FC
FD
06
F9
FD
02
04
FD
FC
FF
01
00
03
FD
08
FF
FA
FE
02
FF
F8
00
00
FC
03
03
03
00
FF
03
F8
FE
03
F8
FF
FD
00
F9
F6
01
FE
FE
03
00
FD
FD
FD
09
06
00
FC
00
02
00
FE
FB
00
04
00
FF
00
FB
FB
FD
01
FF
02
07
FD
02
F8
09
FD
FF
FD
FA
FF
01
00
FE
FC
00
F8
05
FD
01
FE
FE
FA
FC
FB
FC
FD
00
FE
F7
FF
FD
F8
FE
F8
FF
F8
00
05
FB
FE
FC
FF
FC
FE
FB
F2
02
FF
F6
FF
04
05
F6
FD
01
F8
06
F8
F7
FF
03
F8
03
F9
03
04
02
FB
F8
FE
00
FC
00
F9
04
FD
01
FC
FF
02
FD
FA
07
FA
FC
01
03
F9
FB
01
01
01
FD
FF
FE
FF
FF
