FC
05
00
FF
01
FB
FE
FF
FC
01
04
00
F9
FD
03
00
FC
FC
FC
01
03
FA
FD
FE
02
01
FD
06
03
04
FE
03
00
FF
03
FE
FA
04
05
04
02
FD
02
03
01
F9
FE
FD
FD
F9
00
00
01
FD
FF
FE
02
F2
FD
04
05
FB
08
03
06
FD
02
FF
01
04
FE
02
01
01
01
FC
FD
04
04
F7
FF
07
FD
01
05
FE
FD
05
FB
FF
FC
FD
F4
00
04
03
FE
00
FC
00
02
00
FA
02
FF
F8
FB
FF
FF
01
01
05
FD
FD
04
FE
F6
FD
04
F9
07
03
FE
03
FC
05
FE
FE
FA
FF
02
05
00
02
05
03
FE
FA
00
F4
03
02
05
03
FA
02
04
01
04
04
F9
FF
05
03
FF
06
FD
02
01
F5
06
F7
01
F8
FF
04
04
06
F6
03
FC
F5
04
01
FC
FF
01
00
F9
02
08
FD
00
FD
F7
01
06
00
FF
04
02
F8
02
07
F8
F0
00
F7
01
FB
01
FD
FD
04
04
08
01
07
FB
06
05
FD
01
06
02
FD
03
04
02
FD
02
02
FF
F9
02
EF
F8
FA
02
F9
FA
FE
05
FB
F2
FF
01
02
00
FD
04
00
FE
FF
02
FE
02
01
03
FC
06
03
00
FB
05
04
F3
05
EE
F5
FF
ED
F5
F1
08
06
FF
F6
ED
EF
0B
F9
F2
F7
F6
F8
08
EE
F0
F5
FD
09
00
F5
EE
FD
FE
04
EA
FB
F7
F8
F4
F9
FF
EF
04
FB
F6
F4
F3
EE
F3
03
FC
F9
F7
EE
0C
05
F6
0C
03
F4
F8
FA
05
05
ED
FA
F9
F4
05
04
EE
FE
01
0C
0E
01
ED
F5
FA
F1
F5
FF
FA
FC
FB
FA
0D
0F
F2
F9
FC
F7
FC
EC
F3
05
EC
08
F4
F2
05
FB
08
F6
F2
FA
F8
FE
F0
F9
F6
F4
EE
F9
00
06
0E
F3
F2
FB
03
F3
FB
FF
FD
F4
F1
0C
F0
FB
F0
FC
08
F5
F6
F5
F9
FD
FB
05
F6
F4
08
F1
EF
ED
FB
F1
F4
EF
F6
F9
FE
F9
03
07
F7
F9
F0
0C
EF
EF
F6
FA
08
FD
F7
01
ED
FD
F6
F2
F6
EF
01
0F
ED
EE
F6
EA
F6
F0
FF
F4
F0
0B
F1
F1
05
FD
FC
F8
06
F7
01
F8
F8
F1
F6
F1
F3
FF
05
FB
ED
F2
04
FF
F5
06
F4
F7
01
09
00
0A
03
04
F1
FA
01
02
ED
F6
03
FD
F8
EA
E7
EB
03
F1
F7
F9
F4
EE
F0
0B
F8
FE
EC
08
F8
EE
F0
FB
F5
E9
EB
F3
0B
F7
0E
EF
03
F8
F6
F9
04
F8
FE
F8
03
FC
07
05
FB
FF
05
F3
FD
06
F6
FD
03
F7
FE
00
FF
FF
FA
01
FD
F3
FE
00
FD
FD
00
03
05
FE
FD
F5
FB
04
02
02
F9
F8
F9
02
00
01
08
FD
FE
00
00
00
FE
FB
F7
FD
FA
FD
FB
05
F4
FB
FD
FC
06
FA
FC
FE
FD
FE
F8
FC
FF
FE
03
FA
F6
F8
00
FE
FC
05
F4
01
FB
F2
FB
FF
F8
FC
00
FF
FB
00
02
F7
01
03
EF
FC
01
FA
FE
FB
03
F8
F3
FC
FC
00
03
06
F8
F8
FB
04
FB
F9
06
FD
05
FF
04
05
05
F6
06
FF
05
00
FC
06
06
F7
05
00
FF
FC
F6
00
00
09
04
07
F8
06
F8
FE
04
08
FF
06
FA
F9
03
02
FA
00
FF
FF
00
F9
F5
FF
F6
F9
FB
FD
F8
01
F7
03
FD
F7
F5
00
06
03
00
FF
03
FF
06
F7
F8
06
03
FD
F6
03
F9
FE
04
04
02
04
02
FC
09
FF
FB
F6
FB
0A
FB
01
FE
F9
FE
04
00
F3
EE
FA
FD
F9
F2
00
F7
FD
06
FC
F8
03
FF
FB
F7
F8
F8
F7
FE
FE
02
FE
FC
F3
01
00
05
FC
02
F9
FE
F9
ED
00
05
02
FB
FB
F7
FF
FB
F3
02
F9
03
FB
04
04
00
02
00
04
FF
FE
03
02
04
06
FB
FF
03
FB
F8
04
F6
F8
FF
05
FE
F3
FD
01
04
03
07
FA
06
F9
F4
03
FC
FD
01
00
F9
FF
04
FF
FF
FD
02
F7
F4
02
01
01
F8
FB
03
00
00
00
FE
06
F9
FB
FD
01
01
FA
FB
FC
07
FD
03
FD
FD
01
FF
FB
FB
03
05
FD
00
FB
FE
FE
FA
F7
03
FA
04
FF
F8
00
01
FB
03
FD
02
FD
F8
06
05
FF
02
00
02
FE
03
FD
03
06
05
07
03
FD
FE
08
00
FC
00
FF
FE
03
FF
06
FC
FB
01
FD
F8
FE
01
03
05
F9
01
F9
01
F4
02
06
00
FE
02
09
FE
02
FE
FF
04
FA
00
FF
F8
F5
FD
06
02
00
FB
02
01
00
00
03
FF
F7
05
F8
01
FF
01
FD
FD
FF
FF
02
FF
05
FE
02
FB
FD
00
FB
FD
00
FD
00
FE
04
FD
02
FC
02
04
00
01
FB
03
01
FF
00
00
00
FD
03
FC
FA
03
FC
FE
F4
FA
F5
03
04
05
FD
00
00
F8
FF
00
FC
02
F8
04
03
F5
02
02
FF
07
FF
03
FC
01
07
FD
FC
07
01
03
02
F9
01
04
00
FC
06
00
02
FB
01
FE
FD
08
00
EC
F2
04
F1
F4
F1
00
EE
FF
F6
ED
F9
F9
FD
F5
F9
F2
F7
FB
0A
FF
FD
F9
E8
E7
ED
FF
E9
06
07
FA
01
FE
F8
08
E7
FC
E6
F3
05
F8
E5
F6
F3
FA
FE
05
F4
04
F1
FD
FB
FC
07
13
F7
FE
F1
F5
FA
F1
ED
05
EA
08
01
F2
F9
F8
FB
02
FD
E8
F3
FF
F4
F4
07
F6
01
F2
F9
01
F2
F8
E8
FA
F9
0C
EE
FE
FF
F2
03
F1
EA
E8
08
06
FA
F2
FB
F6
0D
0A
ED
F8
F6
F1
F7
01
01
05
EC
0A
FD
0C
F8
06
F2
04
F6
05
10
F3
07
00
03
E9
E4
EE
FF
FF
00
F8
F5
FF
F2
09
01
FA
EA
FA
FB
F9
F2
F7
11
F1
FB
F8
F8
F6
E3
FC
11
F6
FC
FA
05
06
F6
F7
01
FD
03
FC
04
09
EE
FB
07
F1
02
F1
F4
0F
F0
10
07
EF
FA
F0
E9
05
06
F4
F1
F4
F6
0A
EB
F9
05
F0
FA
FE
F7
FF
0B
04
FC
F7
EF
FE
03
F8
01
FC
EC
EA
F9
FD
F4
EE
F9
00
ED
FA
F7
03
05
F7
07
F2
EF
F1
F9
FA
01
E9
EC
FE
05
E9
00
F6
FC
E9
F4
F0
06
ED
F4
FD
FB
E5
F7
FD
F1
FE
01
01
F6
04
FC
08
FB
00
01
04
00
F9
01
FD
FB
FB
FD
FF
05
FE
FC
01
05
FA
FC
04
FC
06
03
01
FE
FD
03
FD
04
FD
05
00
F7
FF
FE
05
08
FD
FA
FC
03
05
F9
07
FF
FD
FB
00
FC
FB
FF
FD
FA
F6
FE
FF
03
FF
FB
06
FF
FE
FE
FA
FB
05
FA
02
FE
00
FA
01
FC
01
05
02
FA
FF
FE
F9
F9
F9
FA
FF
03
FB
F9
F9
01
FE
FA
08
F6
FC
FE
02
FD
FE
01
05
FD
03
02
02
FE
F7
02
FF
02
F7
F8
FF
04
FB
FF
FE
FC
F8
FE
00
FC
FC
F6
01
FE
01
F8
03
06
02
00
03
02
FD
F9
06
01
FC
04
04
05
F9
05
FF
F6
03
FF
FE
F7
FA
FF
06
03
FE
F9
FD
F8
00
00
FD
FA
F9
FB
04
FD
FC
08
FE
FA
04
FE
FE
03
04
F5
FE
F9
FA
00
04
F7
FD
FA
FC
FA
FE
01
FA
FC
F2
08
02
FB
03
00
FC
FA
FA
FD
00
FC
F7
FD
02
FA
FA
FC
01
FE
01
03
FB
FC
FF
FD
FC
FE
F5
00
FD
FE
05
FD
FB
03
04
01
00
07
FE
FD
FC
FC
04
FC
FE
FA
07
00
FE
FC
FD
FA
FE
05
02
F8
FB
05
FD
00
F4
FA
09
F8
01
EE
03
FA
00
03
F8
F7
F6
F4
02
00
FA
F8
FA
FD
FF
FC
F5
09
03
FD
E7
F8
F0
EA
05
E8
FF
06
FE
05
FD
FC
F8
07
02
08
F4
F9
F9
FE
FB
04
02
FB
FF
F7
01
FE
F1
F7
EF
FA
07
00
FB
02
F1
FF
04
F5
07
F2
FF
04
F6
EE
00
F9
FB
01
0A
F9
00
F6
FE
05
02
04
E8
02
FA
F4
00
F7
FB
FC
0B
FB
F5
F5
FB
F8
FF
0C
F5
FA
02
F5
F9
F7
0A
00
F8
F2
EF
05
FD
FD
FA
F6
F8
09
04
F8
06
00
0D
F5
04
02
0D
FD
01
09
06
FC
EE
06
04
FF
03
05
F5
F8
F1
FA
00
0C
08
0A
FB
02
EB
00
02
09
04
FD
F1
F0
04
06
F7
02
FE
08
FE
FA
FB
00
F8
F2
F8
04
07
FC
FD
00
FA
F9
01
05
FB
F2
06
FA
0A
FD
05
F3
FF
FF
03
FF
F4
DE
F5
04
07
FC
07
09
F8
F8
FB
FB
F4
FD
02
0E
F6
EC
03
F8
06
05
FC
EB
F8
F4
FD
F6
EF
FA
F7
F7
02
02
00
06
07
05
04
F7
F8
F0
F5
FC
FC
FC
FE
F4
01
FE
0A
FB
04
FE
FC
FF
F7
FD
0A
05
EF
FB
F6
05
F5
F6
04
F3
03
F7
04
F6
F1
02
02
FE
01
FC
05
FC
FF
06
EF
F6
FA
FB
06
F8
F5
F9
F8
F6
F5
F5
03
08
07
02
02
04
FD
0A
04
F6
F8
07
FF
FD
E9
EF
FB
08
FC
07
04
FC
FE
F4
00
08
F7
00
F5
F8
EE
FC
01
01
F8
FA
0B
05
04
FC
02
00
F5
01
FB
F1
07
07
FC
FA
08
01
04
F5
00
FE
F2
01
FF
EE
FF
08
F9
F9
FB
F8
FB
F5
06
EB
01
FF
ED
06
07
00
00
FA
FA
F3
F3
EE
FA
01
F9
00
F5
FE
F4
FB
F4
00
00
F8
04
01
05
02
FF
01
01
F7
FC
00
08
FF
FC
FF
F9
05
04
FC
F8
F1
FA
02
FF
01
F3
FA
F1
08
01
02
F3
03
FD
F2
02
FD
FD
FF
FC
00
0A
F3
F7
02
F9
FA
FA
03
FA
F8
FD
FB
04
F0
03
02
FD
FD
F2
00
FE
F1
05
EE
F5
06
01
FB
FD
FD
EF
FC
FD
03
06
FE
03
F8
FE
F9
FD
F3
FA
06
FA
0B
00
F9
01
06
01
EF
FC
FE
FD
F6
FE
0A
EC
EB
02
09
F9
FF
03
F3
FD
FE
0D
F9
FF
F6
F9
03
FD
FA
FC
FE
FD
FB
07
F1
05
F8
FC
FE
0A
FC
FB
F4
F3
04
05
F7
07
03
F8
05
F6
F5
03
FC
EA
EF
01
02
EB
F8
00
F6
FD
F6
F5
03
07
F1
F4
FB
FB
EC
E7
04
FA
F0
F1
EC
F5
F1
EE
06
09
FB
FA
FD
FB
F9
03
00
FC
F4
ED
FB
EB
04
06
FE
FD
F2
05
FE
FA
05
FB
FF
F9
E2
FE
06
00
F6
EC
04
FD
FF
EA
F5
F6
FE
F7
06
01
FE
00
FB
FD
FF
09
F1
00
FA
02
0E
00
EC
F5
F5
FC
EE
FE
0D
ED
FE
FD
FB
08
F5
EF
F9
F1
F5
FA
FE
F3
FB
FC
F7
EE
ED
08
FB
FC
EE
00
F3
F8
F9
F3
EF
E9
02
03
FE
F7
06
F3
F3
FC
FC
F1
06
F9
02
F4
0A
F2
F6
FB
ED
FC
DD
04
EF
FA
04
E0
FE
0C
F8
08
09
FC
EB
01
F3
FD
0B
02
04
FB
00
FF
01
E7
04
FB
F7
00
01
F9
04
06
FA
FE
F5
FD
FB
FA
FE
02
0C
03
E8
07
08
0B
E2
F9
FB
FA
F2
02
FD
EF
00
EF
FD
00
FF
FB
F9
04
F8
FA
06
F8
F3
0B
08
07
F7
05
FC
F7
04
01
0A
F3
05
F0
F5
05
FB
05
FF
FC
FD
F9
F6
DD
FF
08
02
FB
F9
F3
0B
FB
08
00
F8
03
EB
FD
E5
FA
02
F7
FA
05
FA
FB
07
02
FA
04
03
F3
FE
FE
03
FF
F6
03
01
04
09
FA
04
07
FE
FC
FA
FA
F9
FF
02
02
FB
F5
03
FC
FF
F9
FD
01
FD
FD
F7
FD
03
FC
FD
FB
F8
03
F7
01
05
01
FB
02
FB
02
FF
FB
FF
FA
FF
FD
F6
FB
03
FB
03
F9
FB
01
F7
06
04
02
09
02
00
04
05
FB
FB
FA
FC
06
00
F7
04
FA
02
FE
F8
07
FA
F3
FE
04
06
EB
FE
09
00
01
01
F4
0A
00
FD
08
F8
03
F9
F8
FA
F6
06
F9
08
FD
FB
FD
08
FC
FC
F6
FA
06
08
08
08
00
FC
04
F3
00
FB
F2
05
06
FB
04
03
0A
F5
FD
03
08
FE
02
01
FE
F8
FF
F9
FF
FC
ED
F9
F2
F2
07
07
F6
07
04
FE
FF
F4
FB
08
FC
04
05
FF
05
00
F8
01
FF
F4
F8
00
EF
F8
FC
04
FE
F4
08
F8
FC
05
03
F9
F5
FE
FE
02
04
08
09
F3
05
FF
F5
04
FC
F8
F8
03
00
F9
00
07
02
FF
04
F4
F4
FB
03
FF
FA
FD
FE
ED
09
FF
03
04
FE
F7
FB
03
EB
F7
F4
00
03
FC
F5
04
FC
06
FD
F5
08
00
FC
F9
F7
FB
FE
FF
F7
FB
FC
F9
FB
FE
FF
F3
04
01
02
F9
F4
FD
02
06
01
01
FB
FC
F9
09
00
05
06
07
04
03
01
FB
FE
07
05
FB
FF
04
FC
03
F6
00
02
FD
00
02
FA
FE
FA
FB
FD
FB
FD
FE
01
04
05
F9
FD
F9
02
01
FE
01
03
FC
F6
FF
00
05
FB
06
FA
FD
FB
01
FD
01
03
02
07
02
05
00
F6
02
06
FF
FD
00
F8
F8
FB
04
FC
FC
F4
08
06
FD
06
09
FA
FC
03
FA
FE
FE
FB
FA
F4
00
04
F8
07
FD
FD
FF
05
F6
05
04
00
FE
00
07
FD
07
F6
FA
FE
03
05
FC
01
00
06
F7
03
01
FA
FF
04
FD
F9
FD
FD
F5
04
05
01
06
04
00
FE
FF
FD
FE
04
FF
FA
08
02
03
FD
03
04
F8
FF
01
FB
07
FD
01
01
FC
04
FA
FC
00
02
05
FE
FB
F7
01
F8
FD
FE
04
FC
02
FE
FD
01
FD
02
FF
FD
03
05
FF
02
01
FE
FB
04
00
FB
07
FB
FA
03
01
00
FB
00
04
FE
FD
FF
04
F4
FE
03
02
FD
F7
00
F4
FC
F8
07
F4
FB
FC
F4
F2
F1
FA
FA
03
05
F9
F9
03
01
F9
06
FB
02
F3
03
FA
F3
01
F5
09
FC
01
F9
01
F7
02
00
F6
F6
F4
02
02
F3
FB
FC
FC
07
E4
08
F6
F8
FE
F4
FA
F3
F7
F5
03
01
F8
01
F1
06
EB
E7
00
08
F2
07
FF
02
01
EA
F3
F9
05
06
FB
F7
01
FB
F1
00
FE
FA
F6
F5
05
F4
06
F7
09
F2
01
FE
FF
F5
F5
FF
05
07
F9
F5
FD
EF
FD
0A
FC
0A
F8
FD
0F
FD
F6
F0
00
12
F5
FC
F2
FD
FE
FA
EA
04
FE
00
FB
F1
F8
F5
F3
02
F7
FF
FE
E2
FE
FB
05
FE
02
07
F6
F5
EF
F2
08
F8
FB
FF
FD
F5
F5
F6
FA
F7
FD
F9
FC
F7
11
FC
00
F9
F7
F3
01
E9
07
F5
F0
FA
05
F8
EE
F5
FE
FB
FC
06
F2
ED
02
F4
FA
FC
F8
E0
F6
EA
ED
00
03
03
F6
FA
F7
0B
F4
FE
0D
F6
F2
FE
0A
FF
F5
FA
F6
FC
F9
F7
F6
EF
FA
F7
01
F9
F5
0D
EA
F0
FA
FD
F3
ED
F5
F6
06
FE
06
03
F6
08
F6
05
0B
0F
F6
F5
FC
EE
EF
F5
F0
FB
FF
0E
EA
F1
00
0B
05
FE
0A
FD
E5
F6
0E
F5
FE
09
F6
FB
00
F2
FB
F8
F5
F5
F0
FA
F7
05
06
F8
E7
06
F3
F9
08
FB
FB
0C
FE
E9
FC
F6
F6
07
FA
FA
FF
08
FF
FA
F9
F1
F9
08
02
F7
F1
EE
00
F8
0B
FF
03
04
FD
01
F9
FA
FA
FB
09
F9
F5
F3
FC
FD
EF
F5
FF
FC
F9
04
01
F6
FA
F3
F3
FF
F6
05
EF
FC
0B
05
F7
05
F9
0D
07
03
F9
07
ED
FC
F6
F4
FC
F6
F4
FC
F2
03
F8
09
F8
FB
F7
F6
04
FC
F6
F7
F7
0C
F5
FD
02
FF
FA
FA
FE
F9
FB
F7
02
00
F8
04
07
FE
FA
F8
FB
F2
F7
F8
FB
F0
FE
02
00
07
02
01
08
09
FC
01
FA
E9
F8
FD
FB
F4
03
F2
F9
03
F1
FD
FB
FD
FF
02
F3
06
01
F2
FD
FD
FD
FE
F7
F7
EF
01
00
FE
02
04
FA
FD
FF
01
0E
02
01
F3
0C
0B
05
F6
F9
FD
02
FC
FB
F5
FF
02
F2
00
02
06
F2
F7
04
FD
03
04
05
F9
03
EC
04
FC
06
01
02
FE
F9
02
FC
FE
FB
04
FC
06
FA
01
F4
FD
FC
F1
03
00
F4
FB
FD
01
08
08
FD
00
FB
F4
06
F7
FC
FB
04
F4
FD
03
FB
F5
F4
FB
05
03
FC
FB
FD
FE
F7
F3
F1
FC
09
01
F8
FD
04
F8
F6
FC
EC
F6
FA
0C
F7
FA
09
FC
FD
F9
02
00
05
F8
03
02
F2
07
06
02
F7
FD
FC
02
FE
FD
F4
F8
0A
01
FD
F7
03
FE
F1
ED
FF
F9
0A
06
F7
FF
F3
F3
FB
FA
F3
F2
F8
F4
F1
00
04
08
FF
FB
F1
F5
04
01
F1
01
01
F3
F2
0D
FE
04
02
FB
F3
00
FB
01
03
04
F9
FB
FA
F8
F8
05
F7
02
FD
01
01
FD
FE
FF
F2
FD
06
F8
F8
FA
08
FB
06
FB
F7
01
F5
00
F8
FA
FC
04
02
05
FC
FB
05
04
06
EC
03
FD
F9
07
F5
01
06
03
EA
01
F9
01
EE
FE
F9
FC
F8
04
F6
FB
0E
02
FB
FC
F9
05
01
00
03
0C
F7
F6
FA
F9
01
00
F8
03
F4
04
FF
02
FA
FB
F4
00
FE
FB
FD
F4
03
FB
F9
F9
F2
00
F7
FE
01
04
FF
F5
04
02
F6
02
00
F9
F8
05
07
02
00
EF
F9
FF
03
F6
F4
0A
FA
FF
FB
FD
F3
F9
F9
FA
06
F4
F7
F9
F9
01
F4
FC
06
F8
04
FB
F1
F3
04
08
02
FE
FA
09
06
03
04
EE
ED
F3
F7
F9
F8
FD
F7
07
F2
06
F6
FC
00
F7
0D
01
FB
F2
07
06
05
F8
F7
05
F8
FD
FD
00
F7
F3
F8
F7
FD
F9
F8
FA
F3
F4
FE
F9
F7
F1
FE
02
F9
00
F6
EE
F5
FF
F6
FA
FE
FF
E8
FF
F6
FF
03
FB
FE
FC
06
00
FA
FD
0D
FB
03
FC
ED
F6
F3
01
F4
07
04
00
07
FD
FF
03
FB
02
F2
F5
06
F8
F2
F8
F3
04
FD
FC
02
FA
F4
FE
04
EE
04
07
04
01
F4
F1
00
F3
F3
F9
F1
FF
07
FA
F9
04
FC
04
08
F2
F5
00
FA
02
FA
F7
F4
EA
07
04
F7
00
06
FA
01
0A
F5
FE
F8
F4
FC
00
FB
EB
01
FE
F8
F4
01
FC
FB
FD
F8
F3
FB
FB
FD
06
0A
F9
F7
05
03
FD
02
03
F6
00
01
07
02
01
00
FD
07
F8
F4
FF
08
F0
06
F3
FE
F4
F6
FC
04
00
FF
02
02
F4
F6
03
08
F2
FF
F8
04
F3
F5
FD
05
F9
05
FC
FD
FE
02
F4
F7
F9
0A
05
F1
F7
FA
F6
FC
F3
FB
FD
F5
00
F7
06
03
FE
F7
F8
F8
09
04
F6
F8
FC
06
06
F7
FF
07
F7
F3
02
FC
02
FE
F9
02
01
FD
F3
04
07
FC
04
F8
F0
04
02
FD
EF
03
02
F1
FC
FE
06
FE
FC
06
F7
F6
F4
03
FF
F7
01
F4
03
05
FC
01
09
FF
F4
F2
F7
0C
EF
04
03
00
F1
F8
00
FD
01
F5
00
F3
06
F7
F6
FE
FA
F9
FB
FB
FB
F1
FF
FA
F3
0B
F6
FB
FF
00
0A
F7
FB
05
F4
00
F5
F3
ED
F5
07
EA
03
0C
FB
0E
FB
FB
04
F6
00
F0
F5
FE
FB
F2
FE
FC
07
FA
FA
03
04
FB
FB
06
F8
02
00
06
00
F7
FC
F9
F7
FD
FF
F5
FD
06
02
00
FC
FA
08
07
F7
F5
05
F4
01
03
F2
FF
F1
04
01
F8
02
08
00
FF
09
FD
FA
F9
F2
F6
FC
F2
F0
02
02
01
FC
04
02
FC
FF
FC
F8
01
F6
FE
02
06
FA
FB
01
08
02
F4
03
F8
0C
05
03
05
FF
00
02
09
F2
F6
01
04
F9
0D
F5
F8
FA
02
02
0F
07
F5
FA
04
F9
FB
05
0B
F4
06
F9
01
FD
F4
F2
0A
F5
00
03
FC
FC
FF
EE
F6
05
00
04
F6
F0
FB
05
F7
FA
02
EE
EC
F4
F3
07
02
F9
FA
EF
F2
08
F9
F7
EF
01
04
02
F0
08
FD
F0
F5
FC
F8
FB
F9
FA
04
FB
F9
F5
FD
FE
F7
00
FF
F9
08
FE
F8
02
07
F8
EC
F5
F8
01
FE
F8
FE
F6
FB
F4
FC
FB
FA
FD
EF
F9
03
F9
FA
05
FC
EE
EF
02
03
F8
02
07
06
F0
F5
01
05
F9
F5
F8
F8
03
F8
FF
03
FD
02
F9
F7
F8
FE
04
F9
01
F9
FA
01
F8
02
06
FC
FF
00
FF
FA
F1
FA
F3
F1
02
F8
09
08
F6
08
FF
00
00
FC
03
FD
04
03
01
FF
00
FA
FB
09
F4
02
02
F7
00
FE
FD
00
04
FE
FB
FF
FC
FC
FD
FC
FE
FE
FA
03
FF
FB
F9
FE
FB
04
FD
F6
06
05
04
01
FE
03
F5
01
03
FE
03
F7
01
F8
00
F5
FC
FD
FD
FC
FF
F9
FF
02
02
FF
FB
03
00
FF
06
00
F9
FE
F6
05
01
04
01
FD
00
FC
05
FC
02
02
00
02
05
02
F7
FF
FA
06
F3
FA
FD
FF
00
04
FF
04
02
FB
FF
FF
04
FC
02
02
03
FB
FC
09
FC
FC
FB
05
00
FB
FC
02
F9
05
00
00
FE
FD
FA
FD
04
07
FE
FE
F8
FA
00
F9
07
09
02
F4
FC
F5
09
03
FF
FB
02
FB
04
FF
01
F3
FC
02
FC
FE
FE
01
03
F8
FB
F6
01
FF
FD
00
00
F9
02
01
FA
FD
FE
04
01
FE
FC
F8
FB
06
FD
FD
F8
02
00
00
FF
01
04
06
02
FB
FD
F6
F3
FA
FF
00
00
01
FB
01
01
07
FB
08
07
F9
05
02
F6
01
02
05
04
FD
FD
F9
F4
F8
F7
04
FC
03
00
FD
09
F5
F8
FB
02
00
FB
FB
FF
04
01
05
FE
F3
F8
04
FF
FE
F4
06
FF
FD
FB
FD
06
FE
FC
02
F3
FA
02
03
FE
F6
01
F4
05
01
FF
FE
F6
00
FF
FF
FB
06
06
FE
F7
FB
FA
FA
05
02
FF
F9
FC
FA
FC
05
02
FD
05
FE
09
06
06
F9
F9
F5
0B
F8
FB
F6
03
0A
08
FD
FF
02
04
FE
FC
00
F3
00
FF
F8
FC
02
F5
F4
F9
07
FE
02
FE
F9
F3
03
FF
02
FE
FA
FC
FE
FE
01
F6
07
F3
FF
F9
FD
00
05
F9
01
FE
00
EF
03
EF
03
02
FB
F6
05
FC
F7
F5
F8
04
06
FF
03
01
FC
FE
05
04
FA
F7
0A
09
03
F5
03
F9
F9
F7
F8
06
F9
FA
05
FE
00
01
F8
01
F3
FA
FC
F9
F9
FA
F2
FF
FD
FB
FB
F5
FC
01
FA
04
FD
01
FB
FF
05
00
FA
02
FF
07
F7
F9
F2
02
06
02
FA
F9
00
04
FA
F9
01
F8
FB
04
02
F2
03
0C
09
01
02
F9
F9
F7
FE
FF
F8
F8
F7
FD
03
EF
F2
00
F4
08
FF
FC
03
FA
FB
05
FE
03
03
FF
F9
FC
06
FA
04
FB
00
FF
02
FE
F8
FB
00
F7
F1
FA
07
F7
FF
F5
FB
08
F0
FD
F4
F3
F9
00
F4
F3
FE
01
FB
04
F0
FC
F7
05
FF
EC
FA
08
F1
00
0A
F4
07
FA
F1
F7
F5
FD
EB
FA
FE
F6
F0
F5
F8
FC
05
F6
04
F8
FA
06
0B
F7
02
FA
F8
F5
EE
05
FF
FA
FB
FD
00
F1
02
05
00
01
FE
08
0B
F2
F9
FD
FF
0A
FC
F7
F5
FE
FF
00
01
03
04
FF
FA
FA
EF
00
F9
F9
EC
02
F9
FF
FA
F9
05
FC
05
F7
01
02
FE
F4
07
F7
01
02
06
F0
F3
F9
FE
F7
F8
F9
FC
FC
09
F7
F9
F5
F6
F0
04
ED
EE
F7
F7
FA
07
F7
FD
FA
F4
FB
03
FF
F0
F3
F8
00
FE
02
03
F0
FD
F9
FC
FB
F6
02
FC
F8
F6
07
00
F3
08
FA
EC
02
07
FC
01
01
F3
01
FA
FC
01
F4
F9
FB
F6
FF
FA
FC
00
F2
F9
01
F1
FC
F7
00
FD
FE
FD
02
F6
01
ED
FB
FF
0B
01
FF
FD
F8
F2
00
FA
FB
F9
05
01
FE
0B
08
05
FE
09
F0
F4
FA
01
FE
F5
FC
F5
FA
09
FE
FC
FB
FB
FE
F8
FC
FE
F9
FB
FD
02
F9
F9
FC
03
03
FD
01
FE
F4
F6
06
FE
09
01
F8
03
F5
FD
F7
0A
FF
F4
F4
00
04
F4
F4
F7
FD
FE
0A
F5
00
0D
FF
00
0E
F4
F5
07
01
FE
F3
EF
FB
F2
00
F9
FB
F5
FF
06
F0
FD
07
F8
0C
00
F4
ED
07
F4
03
05
F6
06
F7
F4
07
07
FF
03
FD
FF
04
00
00
00
F8
F7
F2
05
F5
0B
FC
EE
03
03
04
03
F7
FD
F6
FB
02
FD
FC
EE
FF
0C
0B
00
F9
00
09
08
FA
FE
FC
00
F8
02
FD
FC
FD
F3
F5
F9
EE
03
02
00
F5
0C
01
F9
01
FC
01
06
04
FE
00
09
F7
FE
F4
F4
FD
FD
FB
06
02
FA
EA
08
E5
FE
00
F7
EE
02
F4
FA
F5
F6
FE
FF
02
01
FD
04
0A
F9
0A
FA
F6
00
02
05
F7
FE
01
F7
EE
F8
FA
00
02
03
01
F5
02
F2
00
F5
FE
FA
EE
0A
F5
FB
FC
00
F5
FC
F8
FB
FD
01
04
FB
FE
F9
F9
FF
0A
02
01
F8
FB
FD
F3
EF
FA
01
03
FA
FA
F2
0C
E8
F2
02
FB
F1
FE
06
F5
01
07
09
F7
FE
FE
03
F7
FA
01
F8
EE
F3
F6
F9
E9
EE
06
F5
02
F5
FE
0B
FE
F9
03
FC
FB
06
F8
F8
F5
03
F6
01
F4
04
04
F9
02
FD
F0
F4
F4
F8
FB
00
FE
F3
FC
FC
FA
06
07
F8
F1
FC
08
05
FB
FD
F9
FE
0B
F3
EB
02
01
07
04
00
FD
05
06
05
F9
F9
FC
F7
F2
F7
05
FE
03
F6
00
01
01
F9
03
FF
F6
FE
F7
FE
05
FF
FD
F8
FD
F6
FB
07
FD
F8
F5
03
F9
F7
FB
01
F7
03
FC
03
01
FD
FA
F5
FE
00
F6
F4
F6
00
F9
00
04
00
F0
FF
05
FF
F3
FA
FE
01
F8
FE
FB
FB
FD
01
0A
FC
FB
00
FC
F5
F6
FF
FC
FA
02
04
FB
01
0A
04
F9
01
09
F4
F9
06
09
FA
FC
01
FA
FD
EF
02
0B
02
05
F8
FE
F8
03
F1
FC
F0
FF
03
01
02
FA
05
FE
F9
0A
FB
FC
FE
01
FB
FF
03
F8
05
EF
F1
FC
FD
03
F8
F9
00
FF
FB
F6
F4
FA
FB
07
06
E7
F6
F6
F6
EF
00
FD
FC
FB
FA
F2
08
FC
FA
F7
07
06
FA
F7
00
FE
FB
FD
EF
F8
F7
F9
F0
F1
F1
F9
02
F0
F8
F6
F7
FE
01
FA
06
F9
FF
FC
F9
FC
FD
FA
F4
06
07
F6
F4
E9
EE
00
F2
08
FB
0A
F2
F7
01
FF
FF
FF
F8
03
EF
FA
F5
F3
00
F4
0A
09
FE
01
FF
FA
F4
FA
F8
07
01
FE
FF
03
F8
02
02
FB
F9
FF
FF
02
FF
FF
FB
FA
FE
FC
FA
FB
00
05
F5
EE
F4
F9
01
00
FA
04
00
07
F5
FE
FF
02
06
05
F6
FD
03
00
F9
FF
07
FA
F9
04
03
05
08
FE
FF
FF
02
04
01
03
03
F6
02
FF
03
03
01
FF
01
F8
03
F9
FC
FB
FD
F9
05
FE
FE
F4
06
FC
04
FA
FF
01
F8
F3
FB
01
02
FE
FF
04
01
F2
03
05
02
EF
03
00
F3
FF
FD
F8
04
09
FE
FD
F6
FF
04
FD
FF
FB
F8
03
FB
FD
06
03
FD
FA
F8
02
FE
06
FC
07
00
F6
FD
F3
FD
01
FD
02
F5
FF
F9
01
FF
FB
FA
00
02
FE
02
F9
02
FC
00
FF
F8
01
FA
05
01
04
01
00
05
00
FC
FF
FF
F9
FC
FD
06
02
00
01
01
F4
04
00
06
05
07
02
01
00
FA
FF
07
00
FF
00
F5
FB
02
01
00
FE
01
02
05
07
01
01
06
07
06
01
01
0B
FD
FF
02
00
F7
F7
F7
FB
F9
01
FB
02
F8
09
FF
FA
06
06
06
F8
F8
F9
02
01
04
F3
03
05
FE
02
02
FE
FA
FF
FB
03
04
F5
03
00
F5
F7
FD
01
00
FA
00
01
FE
00
04
FC
FF
00
FD
FB
FE
02
FE
FD
FF
FD
FF
FE
01
FA
00
03
FE
FD
FD
FD
FE
02
FF
FD
02
FF
FF
00
FD
02
04
02
FD
FE
02
00
02
FC
02
FD
FD
FF
FD
FB
03
FF
FB
00
FF
FC
02
FD
03
FE
FE
01
01
FD
01
FB
02
02
FE
FE
FD
FD
FE
04
01
00
01
FD
02
02
01
03
00
FC
00
FF
FF
03
FB
FE
00
FD
FE
03
FF
FE
00
01
01
FF
00
01
03
FD
FC
03
FF
01
FF
01
FD
FD
FB
FD
03
01
FD
00
FC
01
FB
FD
04
02
FF
01
FF
02
FF
01
03
FE
02
FC
FC
FE
FD
FE
FE
FD
00
02
FC
FC
01
01
02
00
FE
FB
FC
F9
02
FE
00
FE
04
00
FF
01
FF
FD
00
FB
02
FD
03
03
03
01
03
02
00
FE
FF
04
02
FC
FF
00
03
FF
FC
00
00
FE
FF
FC
FE
02
FD
01
01
04
00
FF
FC
FD
00
00
FB
FD
00
01
03
01
FB
FE
FC
FD
03
02
01
FE
00
FD
FF
FC
01
FC
FD
03
01
01
02
00
00
03
00
00
FC
FC
00
01
03
FD
02
FD
FC
FC
01
02
FC
FC
FB
FD
FC
FC
FA
FE
FF
FE
FE
01
00
00
FE
03
02
FC
FF
FA
FF
09
F8
01
06
F9
01
00
FF
02
F9
05
F7
00
09
F7
FC
02
FC
FF
05
F5
04
05
F6
EE
02
FC
FD
FE
F7
02
00
FB
02
04
00
FF
FA
F6
FF
FE
F5
04
F7
00
FD
01
FD
FD
FB
00
03
00
FF
00
FD
F5
F7
00
FD
03
F8
05
05
FB
FD
F9
00
04
FC
FA
FF
F8
FD
F6
FC
F9
FF
FA
07
09
FF
F2
05
02
06
FD
FD
FF
02
F5
04
FB
FE
FE
F8
06
F9
EB
F6
FA
FF
F7
04
02
F5
07
FA
FD
FF
05
02
FA
03
FF
F9
07
FC
03
F9
FD
02
00
06
FC
05
04
FD
02
FC
02
F2
F8
FA
F9
FC
FD
03
00
09
FD
0A
FE
FD
0A
FE
FC
04
04
FC
FF
FB
FE
01
FE
FC
FD
FA
01
F3
FD
02
FD
F6
01
FB
FB
F8
F8
FF
F8
FF
08
03
FD
FE
03
FB
FE
FD
FD
02
FD
FF
FC
FF
FF
FD
0B
F9
F3
F9
F8
FA
0A
F9
FE
FE
FD
FC
03
01
FC
FD
FD
02
FE
04
02
FA
F7
00
FE
F0
09
05
03
FA
02
FA
FC
FD
F7
FC
FE
F9
03
F7
05
FE
F8
06
03
03
0A
FF
FF
02
FA
FE
FD
01
F4
01
02
FF
FD
FF
F8
FB
FE
FA
FB
06
06
04
FE
05
FC
FB
00
00
FD
FD
FF
01
FD
F8
FC
00
FA
00
FF
FE
F2
03
05
FC
01
07
01
03
05
FC
06
FB
03
02
03
01
00
FD
FF
FF
FE
02
FD
01
FF
FD
FD
02
FB
06
01
07
02
02
01
05
FD
02
02
03
FD
06
FB
FE
FA
FF
FE
03
01
FC
02
07
01
FE
FB
00
02
00
FB
F8
FE
FC
FE
FE
01
03
03
01
FD
FB
FE
03
05
FF
00
00
FD
FE
01
FB
00
00
04
02
00
02
FE
01
FB
FF
01
07
FA
FB
FB
02
01
FE
FA
02
FE
06
F8
FC
02
04
F8
FF
FF
FB
FA
00
FD
FF
01
FB
FC
FE
00
FD
01
FB
FF
FB
00
FE
FC
FC
FF
03
03
FE
FE
02
FB
00
F7
F6
06
FD
FE
02
FD
01
03
FF
05
FB
FD
01
00
FE
F8
FF
03
06
FB
01
FB
FC
02
01
02
09
03
00
00
05
04
04
FD
08
FD
FF
FB
FB
03
05
07
FD
F8
FC
01
01
F9
00
FC
FE
00
00
02
FF
03
02
04
07
01
01
01
FD
FC
FF
F7
FF
FD
FB
05
FD
04
FB
03
03
FD
02
FF
F9
FB
FE
01
FB
03
00
02
04
FC
01
FF
FE
02
FE
02
FA
02
FF
07
FE
00
F3
FE
F9
00
04
FF
F6
FF
FA
03
06
FF
FD
FE
FF
06
FC
F8
05
F7
04
F5
FF
FF
FE
00
FE
04
04
03
04
01
F9
FD
02
03
FE
F3
FB
00
FC
04
FF
09
FC
01
F6
01
04
04
FD
F7
FF
05
00
05
07
F9
F8
01
FE
FD
FB
00
07
FF
FE
F5
FC
01
00
01
F8
04
FE
FB
F7
FE
FD
F5
06
04
FF
F4
02
F6
06
03
FF
FD
00
01
FA
FB
03
F8
05
00
F8
FA
FD
07
F5
FA
F8
FD
FB
0A
FF
F9
FB
00
03
00
03
04
00
02
FB
05
00
03
06
FF
01
00
00
00
05
02
01
F7
04
F5
FA
FD
FC
01
06
08
07
FA
08
F7
FF
08
06
F9
05
FD
F9
F8
FD
F8
07
FA
00
00
FA
FC
FF
F8
01
01
05
01
F8
F3
FA
04
04
F8
FE
FF
FE
F9
01
06
FA
03
FB
FE
FC
03
06
F6
01
F7
02
04
00
FE
01
03
F9
02
F7
F9
F9
F7
05
04
02
FD
01
02
00
00
F6
F2
FD
FE
F6
03
FE
F8
F1
FA
FE
FD
04
00
02
F6
F6
04
F6
FC
F4
06
FD
F9
01
02
FF
06
00
03
F1
02
FA
F7
05
07
08
FF
F6
FD
06
F8
F4
01
02
F6
F8
0D
05
01
FC
FA
F1
FE
FB
0A
FA
F6
F8
FA
05
FE
F3
F8
03
00
EE
09
FB
04
E9
E5
F8
08
F8
05
FC
F6
05
F6
FB
FB
00
F6
FD
F7
03
01
FC
F9
FA
F6
FF
EE
FA
F6
F7
01
FA
FD
02
FA
F5
EF
FE
FF
FB
01
FA
02
F0
EB
F8
0E
03
04
0A
FF
FE
F8
F8
00
04
07
F7
FA
03
F5
F7
FA
F2
07
ED
FE
F0
F4
FD
F3
F9
04
F9
F9
F5
E7
08
09
06
0D
09
07
01
07
FD
04
07
F7
0D
FD
FD
02
FD
F7
F6
04
F9
F6
05
00
06
F6
FF
F8
F9
F5
FA
F1
00
05
F0
FE
FD
02
F8
0A
06
00
F5
01
F5
F8
F2
FB
F4
F0
F8
F4
F0
FA
F7
03
FF
FD
FF
FA
FD
FB
F0
00
01
F9
ED
05
05
F7
07
FD
F8
07
05
02
FA
F1
F4
FE
EE
FE
F8
09
F0
F8
F5
F7
F4
F0
F8
04
F8
F6
0C
05
EE
0A
F7
FC
F5
FD
FE
FB
F7
FA
E3
01
F9
F5
F9
F6
EF
FD
02
FD
FB
FD
07
F8
ED
F9
FB
FB
09
06
F6
FC
04
FF
04
F2
FF
F5
ED
F9
F4
FA
08
F7
F7
09
F7
F6
01
FA
FA
09
FE
E3
FD
09
FA
02
02
F3
E7
12
F6
06
F3
F4
F6
0A
04
FB
EF
F6
F4
F9
0D
F8
00
00
FD
FF
F9
EF
03
07
F6
EE
F1
E3
E8
04
E8
FF
04
01
FF
FC
F5
FA
01
F9
F7
F2
FD
F8
ED
00
02
06
F4
FA
F5
08
FE
F3
FB
FB
F9
06
F7
FC
02
EE
FB
F7
EC
03
F4
00
FE
FA
F1
F3
FE
FE
00
FA
ED
0A
FF
FC
07
F4
08
EC
FF
F4
F4
FE
F8
EE
F6
07
03
F3
F7
F9
FA
FC
03
ED
05
FC
FE
01
07
0A
02
06
F7
F7
FF
FD
01
F5
F6
F5
FB
01
FB
02
FD
08
F4
05
FE
0D
FE
01
05
0B
F8
DD
FE
02
FC
03
04
F1
EF
FF
FE
02
08
07
FF
F9
05
F4
FE
FF
0F
F7
03
FA
FB
01
F4
FC
0B
00
FF
FC
04
F7
F8
F6
01
02
FC
F9
09
FF
02
03
F8
F7
0E
ED
F4
06
FD
0E
00
06
F4
F9
ED
02
FE
F8
E7
F9
FB
06
FF
03
05
FF
FD
F7
F3
F4
FF
04
09
FE
E9
08
FC
F9
02
FB
FB
F5
FD
FF
F2
FB
FC
F0
EF
FF
FC
FA
05
09
09
FA
FC
F0
F3
F5
00
F3
F7
F4
FD
FC
F5
FF
F1
FC
F2
02
FD
F1
03
06
FE
F1
F5
F9
FF
F7
FF
04
EF
FD
02
F8
FC
F8
FB
FD
05
F6
F3
FB
0C
0A
FF
F4
FD
07
04
F7
FB
F7
0C
FE
01
F5
F0
EF
F5
F8
F4
F8
F9
F1
ED
03
09
0A
04
F8
FD
F9
FE
08
F5
01
03
F8
F3
04
F9
01
FF
EF
F4
02
F8
F4
02
06
FE
F1
F7
F9
F8
F7
FA
03
F9
FA
0A
FA
F4
01
F9
04
0B
06
F3
F6
FB
FE
F5
F2
FC
F8
F1
F7
04
FD
04
FD
00
01
F9
F9
FE
03
0A
ED
01
F6
F9
02
F9
FA
FD
FF
FE
07
F8
05
F5
FF
F8
F2
02
05
FF
F2
0B
00
00
FC
F6
03
F4
06
FB
08
FF
E5
F7
FC
07
FD
F3
03
F5
02
03
F3
F8
FD
FA
02
F6
01
01
FE
F2
FC
F6
FA
E9
FB
05
FC
F6
04
00
F7
01
F8
F6
04
01
FD
F7
0B
FF
00
05
F3
F1
F5
FC
F7
F9
00
03
F7
FD
F9
EB
02
FB
F2
05
FB
F9
FD
02
FB
F9
F8
0B
F5
01
F0
F8
F2
FE
02
FB
FD
E8
02
FA
0C
FA
F7
EC
F6
FC
F9
FB
01
F6
06
F3
08
FA
05
02
F9
0D
01
F6
F8
0A
FF
FE
FA
FC
01
F9
00
03
04
EC
F8
FC
06
F7
F8
00
FC
FE
EC
03
F2
FE
F8
F4
FC
F7
F6
F6
07
FF
00
FD
01
FA
00
05
05
00
F6
F8
00
02
FE
F8
F6
FE
04
FB
05
F7
0B
05
00
05
02
05
FD
FE
02
F7
F3
F6
FB
03
00
01
01
F9
03
06
FA
F9
00
FF
FA
F3
F2
03
FF
00
FF
F8
FE
F8
FC
02
07
01
03
07
00
01
F5
F5
0B
06
02
00
FB
00
FA
FD
F6
01
05
F2
00
02
05
F6
F9
01
FC
F8
F7
F9
F2
F8
F2
FC
08
FC
F4
00
07
03
04
01
04
03
FE
F6
F8
FD
00
07
FB
09
F4
F9
01
05
FC
F8
FF
F8
F9
06
06
04
FA
F9
FA
FA
F8
FC
FF
00
01
F6
FF
FB
06
03
05
FE
FE
FA
01
FA
FA
FB
05
F9
F6
FA
01
F2
FB
F9
07
01
03
FF
00
FB
02
F6
00
00
02
FB
03
FD
FB
FF
FE
FE
FE
03
FD
FD
00
FB
F2
01
FB
FC
01
FC
FC
FF
FC
FA
F7
03
00
FB
F4
06
FF
F9
08
F6
FF
FE
02
F9
F5
F4
F8
01
FF
F3
FD
FF
03
FC
07
FC
00
FC
01
05
FC
FE
FD
01
FC
01
03
F8
FD
01
0A
FF
F7
FA
F7
00
FA
EF
FE
02
FC
FC
06
FD
F9
FE
03
F3
FE
FC
FD
FC
04
F5
03
01
FE
07
F3
FA
F9
F7
FE
06
F5
F5
FB
03
FD
03
0D
F7
01
FC
FF
01
05
FB
FA
06
FB
F8
ED
FF
FB
F9
02
F8
07
06
F0
08
F7
06
02
FC
F4
FE
00
00
02
F8
FB
F3
FD
08
F8
F7
F4
EC
06
F8
F2
FC
FC
F6
F9
02
FC
FA
F9
F3
EB
F8
FB
F8
F6
02
FA
06
F8
F8
0A
00
06
F9
F4
FA
04
F3
F5
F2
01
05
0A
FE
FB
F7
FB
FF
F7
03
FB
FA
FB
01
01
06
FF
08
FF
07
FE
F7
01
F8
F9
05
F2
FE
FD
F7
FF
FE
0A
F7
06
0D
F7
FE
FC
F9
00
02
F1
FF
F5
F8
FB
F8
FA
FB
F8
08
03
08
FC
FD
FA
F7
FC
F3
0C
F8
F4
F4
FE
FF
09
F6
FD
0A
FA
01
FC
FF
FD
0E
F5
FF
05
F5
FD
00
FB
FF
FE
F6
FE
F7
07
FE
0C
F8
FD
EB
F6
EE
F9
08
FF
04
06
FA
FE
09
02
EB
FC
FB
EF
FC
02
01
00
FF
F2
F6
F4
FB
F6
F5
EF
F6
F5
FD
02
F0
F9
03
01
05
FC
F8
F8
FC
F8
FD
F9
F2
F5
05
F1
05
08
FE
FA
03
F9
F2
F7
03
05
00
FA
FD
F8
02
FB
04
FD
FF
04
F5
05
02
FD
FC
00
07
F8
F8
F2
FA
F7
E9
FC
FE
EF
05
F6
F0
FD
06
FC
04
05
F9
FE
EF
F0
02
0B
F6
05
F8
00
F6
FE
08
04
01
0A
FE
02
05
F5
06
F4
F8
F5
F9
05
00
F6
FB
08
00
F7
F0
FD
05
F0
FB
EE
F3
FF
FF
FA
FC
F8
F2
F5
03
04
EF
01
F6
F7
F0
EE
FE
FD
EF
FB
05
02
FD
02
F9
0D
FF
FF
ED
FB
F8
FA
F3
01
04
03
0B
F9
F2
F1
ED
F3
F7
00
E6
FB
F9
05
01
FD
06
FC
0B
FD
FA
01
03
FB
0B
F9
FF
F3
FC
F6
F2
F9
F8
09
05
F8
F3
F2
F9
FF
FC
EF
FE
F0
01
05
F8
F6
FC
F2
04
FF
02
FC
F3
F3
02
00
FD
05
01
FA
FB
03
01
05
02
FE
02
F3
F8
FB
FE
F4
00
05
F5
FA
F6
F9
F8
02
05
FA
FA
F6
EC
0C
FB
09
FF
FD
FD
F9
F8
02
05
F4
FE
02
F6
FD
FE
03
F7
FE
FD
F4
F9
00
F7
FB
F8
FD
F4
FF
F2
FA
F2
F1
01
F9
EA
F9
F5
FC
06
07
09
FA
FA
03
03
E6
01
F6
FC
F0
03
FE
F7
03
09
06
FA
FA
F1
FF
04
FE
F8
F5
FD
F9
03
F5
05
03
02
06
FC
06
FF
08
FC
01
0B
03
FE
F5
01
F2
EF
F5
08
F2
00
04
FE
06
F4
F4
EC
F2
ED
FF
ED
EC
01
01
FB
04
F0
F5
F0
03
02
F0
F4
02
EC
FC
FA
01
06
F3
F8
F6
F4
03
F9
01
00
F3
EE
FA
F6
EC
07
F1
03
FC
F4
02
07
EF
04
FB
F7
F5
E1
0A
00
07
F9
F9
0A
F2
FC
FF
F1
01
02
00
0B
F7
F3
F7
02
0D
01
FF
F0
04
FF
03
FF
06
FE
01
F6
F6
FA
FE
F3
00
E9
01
F4
05
F8
F0
03
F1
06
F3
FF
FF
FB
F8
05
03
F0
00
FC
ED
F1
FC
F6
F2
F4
F6
EC
F2
0B
FB
FE
FF
F7
F2
F9
EE
F5
EC
F8
F5
07
F1
0B
F7
F2
FC
F8
F9
F4
FA
FB
03
F6
F5
F8
F2
F7
F3
06
F1
F1
09
FC
FF
FF
07
03
F1
0B
F4
EE
FD
0A
F6
00
03
FC
00
FF
01
FC
FB
F3
FE
E9
FA
01
00
01
F9
F6
FF
F5
FC
EC
FD
FA
FA
F4
FE
F5
F6
FA
FD
07
0E
FD
04
F7
F3
EF
FD
F2
F2
FE
0C
FE
FF
06
05
07
F9
0D
F2
F9
FA
0B
F2
F2
07
F5
FF
0A
FB
F7
FF
00
EF
F7
FD
FC
02
ED
00
FE
F0
02
EF
02
04
F6
00
EC
F3
FF
00
00
0C
06
F8
07
FC
FF
FA
FE
0C
FE
07
FA
FF
04
FA
F9
FF
FA
FF
FE
F2
F8
F9
F8
06
FF
06
F4
FC
FD
FF
F9
F8
FD
F9
FF
FF
FC
F5
FE
FB
09
FE
09
FF
FA
F0
05
FD
FE
FA
02
06
F7
FB
FC
F8
FC
F1
FD
01
FA
FB
F6
FF
00
05
0A
08
06
FC
FC
F6
FE
FC
FA
FE
F9
07
08
F3
FE
F9
FD
04
0A
00
FF
FF
01
FA
00
FA
F9
01
FA
F9
FE
FE
02
FD
0A
01
01
04
F7
FC
F3
FB
00
01
FF
F8
F9
FE
F6
F7
F5
FF
FD
FE
FA
03
00
05
FE
F9
F9
02
FE
01
07
FF
FB
00
02
FA
F6
04
FB
04
07
FA
FC
03
05
FC
FE
F6
FE
03
F3
00
05
09
FC
EF
F1
09
FF
02
03
05
00
FB
FF
FF
F7
F8
F5
F2
FE
FC
05
07
00
F9
FE
FE
FF
04
F5
07
FD
03
FC
02
FC
FC
FF
FE
FE
EE
F7
FE
F8
01
FB
FE
01
F9
03
FF
FF
F8
01
FD
04
F6
FE
06
FD
FA
0A
F9
FD
01
FC
FB
FF
F5
F9
01
08
0A
FD
F7
01
05
00
04
FC
03
FF
02
09
F6
01
FC
EF
FA
FF
FE
00
05
03
F0
F8
02
F7
FF
F6
00
FE
FB
FC
FB
00
01
FF
FB
F3
0B
FA
02
F6
01
FB
F3
03
08
F8
FC
F3
F8
FF
F5
02
F8
F3
F9
EC
09
F1
F3
E3
FA
01
01
03
00
FF
F5
FB
F0
F1
F1
0B
FB
FA
F3
F5
F9
07
E7
F9
F8
00
FD
ED
FA
01
FA
F7
E1
FE
FE
EA
F8
04
F9
F8
00
0B
0E
FD
F6
F6
FA
05
F6
F4
F6
F5
ED
FF
F7
FF
F4
01
01
0D
F2
F4
F4
ED
FC
F1
F3
F2
EE
F0
E6
F7
FC
FA
F4
FA
DF
08
0D
00
01
02
F9
FF
F9
F9
ED
02
F5
05
EE
F2
03
02
F1
F1
08
F7
06
0E
08
F9
F2
FA
F1
FB
F2
00
04
FF
FE
EC
0D
F8
0B
E8
FB
F2
FE
F6
F3
F8
FC
F6
EB
F7
F7
F8
F5
FA
F9
F1
09
01
08
03
07
F6
F6
EE
05
FA
F4
F8
F0
FC
EB
0D
05
EA
05
FC
F5
FF
F5
F4
04
03
FF
F4
03
E6
FA
08
F5
F9
F2
F7
F7
F4
FA
0A
F7
F0
06
F8
FA
F1
FD
07
FF
FF
F3
04
07
F8
FB
0B
FD
F4
FB
00
F9
F0
F5
04
FE
F0
0C
F9
F7
0B
05
F0
F3
F4
04
F9
F1
03
F2
F7
F4
F9
FA
0C
F4
E9
0A
ED
FA
F8
F8
F0
00
F7
F9
EA
FD
F7
01
02
0A
F4
08
FF
03
FD
02
05
FD
FA
00
03
01
03
FF
07
FE
07
06
FB
03
07
02
F1
07
01
FF
00
FF
FE
04
02
FA
FE
FE
FF
03
FF
FE
01
01
04
04
FE
FE
05
FC
FD
02
FE
FE
FD
03
FC
02
06
02
02
FF
FD
F7
FC
03
02
05
FB
FA
FE
FF
04
08
FE
00
03
04
02
02
FF
F8
00
05
01
09
F8
FC
01
07
FF
01
03
FF
FC
01
FF
FB
04
FF
FD
F9
00
00
FA
FB
03
04
FE
03
FF
04
FB
FC
04
F9
05
00
01
01
03
FC
FD
02
FC
F9
00
FD
08
F9
05
00
00
F8
FE
FC
01
03
FF
02
FF
FF
09
04
07
06
01
06
00
03
00
FB
01
FA
01
07
FF
02
FB
02
03
FF
FF
FD
01
04
FA
05
06
00
FE
02
FE
FF
01
FE
FC
FB
01
07
FE
03
FE
FE
FC
01
FC
07
05
FE
FE
07
F9
00
FC
FD
FA
FE
04
02
F9
03
FC
02
00
01
00
FB
03
05
01
FA
04
F8
00
FF
00
00
02
08
FF
FF
FE
FA
07
F7
03
FF
FF
04
FA
04
FD
FD
06
FD
FE
FA
FF
01
01
FD
FF
F6
07
01
01
04
FD
FF
02
01
FD
FD
03
FD
F7
00
06
FD
00
00
FA
08
04
FB
F6
FF
00
00
F4
0A
06
FD
F8
FB
02
01
F6
F9
03
FC
01
02
FC
FD
F1
ED
F6
01
EE
FF
04
F8
FF
01
FE
04
FB
FF
F9
FE
06
03
F8
FF
FA
F7
FC
FA
07
00
F6
F9
FD
FD
04
00
07
03
FD
03
02
FD
F5
FC
00
FD
01
09
01
04
FF
01
02
F1
03
08
01
01
FD
F7
FE
03
F9
01
F3
FF
F1
02
06
00
00
03
FD
F9
FC
06
F7
F0
09
07
04
06
03
F9
04
07
F3
00
01
FD
08
03
07
F8
00
FA
02
FC
FD
FF
00
00
00
FF
03
FC
F5
06
FB
F2
F8
00
02
FF
FD
02
F5
0A
00
00
F2
F7
F3
FA
F7
FE
FA
F5
FC
F2
F6
F6
F4
FB
FD
FC
02
FD
FB
FA
02
01
02
FC
FC
04
FA
03
04
FE
FE
07
FB
F5
01
F7
F8
01
F1
01
02
FD
F9
F5
EC
F8
FB
F8
F1
08
09
FC
FF
03
FF
00
05
FA
06
01
02
04
F6
FA
EF
06
FF
0C
F8
00
F4
F9
FF
02
07
FA
FB
FD
F3
FB
00
07
06
F7
02
F7
FF
FB
05
02
01
F3
FA
FE
00
04
0B
F9
FC
00
F6
F3
06
FB
FE
01
FD
EF
01
05
FC
FC
00
FA
FB
FF
F4
01
01
FE
FB
03
08
FA
F4
05
FB
04
01
0B
FD
05
02
F7
06
08
01
00
04
FB
FC
F3
F5
04
F4
08
F7
01
F8
F7
FC
F9
00
06
06
FB
FA
F9
F9
05
02
05
04
FC
00
FB
FD
00
FB
F9
F9
F2
03
05
01
F0
F8
00
F5
FC
F7
F5
03
02
FF
FB
FA
FA
FE
06
FF
FC
03
FF
FB
F9
FA
F5
0A
FC
F5
FE
01
02
09
01
04
F4
F5
01
EE
03
07
F9
FF
03
F6
FD
00
07
F2
F6
FC
FA
FD
04
FE
F6
01
FF
06
FA
09
FD
06
FE
FD
FC
03
FC
F9
00
FF
03
05
EF
05
09
FA
FA
F7
FE
F0
F7
03
F7
01
0B
06
FC
07
FC
FC
03
F7
F7
03
FC
F6
FE
09
F4
EF
02
FC
FB
F1
FF
FE
F5
F3
04
00
06
FE
F6
00
FC
01
F9
00
FB
04
FA
FE
F6
F7
08
F0
02
FD
00
FF
01
FE
F9
0A
01
01
02
01
06
FE
FE
FD
F6
F5
FA
0A
F7
F3
03
F1
06
FC
F5
F6
F3
F6
F8
FC
FF
FA
FB
FD
03
02
03
02
03
FF
FE
F3
ED
00
FF
FB
03
F9
FC
F5
06
0A
06
F2
08
FC
02
01
F1
0B
08
06
F6
FD
FC
FD
FD
FA
02
EC
FE
F7
05
F5
02
F9
00
F3
F8
FC
04
FE
04
F7
FF
06
FC
FF
FC
05
FF
01
08
F5
F5
F4
ED
F5
07
F1
02
09
E8
FA
F3
FB
FD
FE
FE
08
FB
FF
FA
FE
02
FB
01
FF
F9
FB
FC
FA
F1
FE
F9
F6
03
FD
FF
03
ED
F6
00
F8
FD
F7
F6
FD
00
00
FC
F7
F9
FD
00
FF
FD
02
FE
F3
05
08
F3
F8
02
F6
FC
F5
F6
FB
FD
F7
F7
F6
FC
00
F8
08
F2
06
0A
F1
02
F4
05
02
01
F1
FA
F5
F6
FF
F4
F9
02
08
00
F4
09
FD
FB
07
FF
02
FF
04
F2
08
01
02
F2
05
08
FE
08
02
FF
F9
01
07
02
FF
06
FE
02
03
FA
FB
F4
03
01
F4
F9
F6
06
04
FF
01
02
FE
FC
F6
06
F6
03
ED
F9
03
FD
09
FC
F6
01
FD
FD
09
FD
FA
05
F8
03
00
08
F2
01
FE
FE
FC
F8
EA
F3
FF
F7
01
FB
00
08
00
F0
F1
F5
02
01
FD
FD
F1
02
F0
FE
FB
FC
F2
F5
FE
FC
FB
F7
03
01
F9
00
FC
04
05
02
02
04
F2
FB
FC
FB
FE
EA
FA
FD
02
07
07
FB
F8
05
FA
F0
00
F6
F4
0A
03
E9
01
F7
FE
FC
05
F8
ED
F0
F8
FC
05
FD
03
F3
FA
00
00
FA
F9
00
FA
00
01
00
FD
FD
01
03
F6
F5
00
0D
06
06
08
FC
02
F8
F4
FD
FC
FE
F7
F6
F9
FC
03
04
F6
02
05
00
03
FF
01
02
FC
F6
08
F8
FA
08
F4
F9
F3
F9
FA
05
FF
03
04
F7
FF
FD
FD
05
F7
01
00
02
F9
05
F6
F8
FB
05
FB
FC
F0
0B
FC
01
03
FD
04
00
FA
F6
FD
F7
04
08
F7
FE
F6
03
F4
F5
FE
02
FF
01
F6
FB
09
05
03
FE
02
FE
F8
FB
F9
FD
FF
FB
F8
F4
FC
F7
02
FD
FB
F8
02
F3
FF
06
03
FD
FC
F7
F9
FC
FC
F9
FA
FC
F5
01
00
00
FD
03
02
FE
F0
00
FC
FF
F7
F9
03
F8
FA
F3
FA
05
FE
F6
03
02
01
05
F2
F5
F6
FF
FC
F7
FC
00
F6
FF
05
FC
FF
F5
FA
02
F9
05
FF
FA
00
03
0A
02
FF
F3
01
02
F8
FA
F4
FF
FC
F8
FB
FC
F3
FE
02
F7
F9
F8
FC
FD
05
07
FC
FD
02
0B
FF
F5
06
F7
FD
FB
F4
F8
F2
00
04
01
F8
FF
F2
05
02
F8
FE
FB
F5
F8
FD
F6
05
FF
F9
05
FF
F9
06
07
00
FF
02
FE
FD
01
09
09
FC
02
F2
00
F9
05
F8
FE
F3
02
04
01
05
FC
04
03
01
00
02
F9
FB
09
FD
F8
FD
F4
FD
FD
F8
FC
05
F8
F3
02
04
00
FD
F8
FC
F7
F9
05
FD
FF
08
00
F7
00
F6
01
07
F7
FC
04
F4
FE
F8
FD
08
FB
FB
FC
00
FA
FC
01
F7
FF
02
00
FE
FA
F7
03
03
05
FD
F9
FD
03
FF
FF
FA
F9
F7
F5
FE
F8
F3
FF
04
FA
FC
F9
FA
F8
04
F8
04
06
FE
0A
F8
02
00
03
03
04
F2
FA
03
F3
F9
FD
00
FD
FD
07
00
FD
04
FF
FB
02
01
FE
FC
01
FD
F4
00
04
FC
04
FD
02
FB
03
05
01
02
03
FD
FF
FC
F8
0C
FF
05
F9
02
08
FF
FF
05
F6
03
02
FB
FC
FF
FF
F9
04
00
FB
FB
FA
08
05
00
FE
FA
F2
01
F6
07
FF
03
01
FC
01
FB
00
F8
FB
FA
04
FA
01
FB
FB
FE
03
01
07
FD
FB
FB
F7
00
02
01
FF
FD
01
F8
00
FD
FC
05
F3
FF
FD
01
09
F4
F8
F8
FC
FC
00
06
00
FF
FD
FC
FE
FF
F7
FE
FC
FB
FC
F9
F8
02
FA
FA
05
FF
07
F6
F9
04
02
FE
F3
00
FD
05
FB
FC
FE
FE
01
F5
FF
03
0A
FC
01
01
FA
00
F7
F8
FD
05
FD
FF
01
03
FA
07
03
F7
00
0A
04
F6
F9
F2
F8
FA
F8
FF
03
F8
F1
FB
F5
03
03
0C
FF
F0
FB
05
09
F5
09
01
F7
F8
FE
F9
FF
FC
FB
FB
08
FA
F8
01
F9
FA
07
FD
07
FD
02
08
FD
F7
FA
FF
01
FA
06
FF
F3
FA
00
F4
09
02
F8
07
06
FC
F3
03
00
02
FE
01
F6
01
07
FB
F1
03
F8
F7
02
F7
F9
FD
04
05
FA
FE
FE
F4
04
F7
EF
F5
FF
02
F6
09
09
FA
07
F7
FE
02
FA
04
FC
0C
FC
08
FB
04
08
FE
02
FB
F9
01
02
FC
FA
0D
05
0B
FA
0B
01
F1
06
07
05
FE
F4
FC
00
04
02
01
FD
FB
08
F5
02
FD
F6
FB
01
FC
FC
06
03
F4
F0
03
FB
01
02
F4
FD
F8
04
FA
04
00
FE
FE
FD
FC
EE
FD
FD
FA
04
FB
F9
FA
FB
F8
01
F6
F7
FF
F9
00
01
FA
FE
F4
FD
03
FE
00
FB
F9
FB
FE
FC
01
FF
04
06
00
06
01
05
F9
FC
FA
FF
F1
FD
00
08
FC
FB
FC
03
FD
04
FC
01
FE
F6
E9
FD
05
FC
09
F6
01
F6
FA
FC
00
F5
F3
FC
00
FF
01
FD
FD
F7
F8
02
FC
FA
02
05
FD
01
FD
02
FC
04
00
FE
06
FE
FE
FD
FD
FC
F4
02
F5
FE
FF
F6
FE
01
05
06
FE
FF
FC
02
03
01
F9
FF
FF
FB
FF
02
04
FD
FC
FF
03
FA
FE
00
03
01
F7
00
02
FC
02
FE
02
F9
02
00
FD
00
FB
03
FE
00
04
05
00
01
02
05
F8
01
01
01
FF
01
FD
05
FF
04
FF
02
01
F7
00
00
03
FD
02
FE
00
FE
03
03
FF
04
FB
01
00
FD
FA
04
02
FC
FB
05
03
FE
09
FC
F7
00
01
02
00
FF
FE
04
FF
FA
FB
01
05
FC
03
FD
01
FD
00
FF
FF
00
FB
06
FE
03
FF
FA
00
00
F8
FA
FF
F9
FC
08
00
00
05
F8
08
FD
FE
FE
FF
03
02
05
FB
07
05
00
03
03
01
FA
F8
02
FA
FC
02
FC
02
FF
F3
04
01
04
F6
FE
00
FC
F7
FF
07
FD
FF
FB
02
01
07
FF
FA
FE
F9
03
04
FE
00
02
03
04
01
04
FF
F9
00
FF
FA
FF
01
FE
02
FD
06
02
03
00
01
01
02
F7
00
04
00
01
FD
FB
01
FC
01
FC
FF
02
FD
04
01
F8
05
FD
FF
FD
02
FC
04
F1
FE
F6
F9
FA
F4
EE
F4
0C
00
02
F5
F3
F0
0C
FD
F2
F5
F0
FB
06
F4
F7
F8
02
05
F2
F5
FA
FD
FD
FF
F5
00
F8
00
FC
FE
04
F5
02
00
F7
EB
F2
F3
F1
F9
F6
00
F6
F5
0E
04
EF
0E
00
F8
FC
F5
07
11
F1
F4
F6
FD
F4
07
F9
F6
07
06
0B
09
EA
00
F1
FD
FF
FC
F9
EF
03
F9
09
09
FD
F2
02
FF
FA
EC
FC
05
ED
08
F7
F8
01
F9
02
FE
F5
F9
F6
FF
F6
F1
F5
FB
F1
08
08
0E
06
FB
F3
F7
01
F7
F1
01
FB
02
F4
08
F8
F7
F3
FE
F5
F9
FC
F6
F9
FF
F7
00
F6
F7
0B
F6
F1
F6
F6
F0
F5
F0
F2
FA
F0
F2
FD
02
FB
FF
FB
FB
FA
EF
01
F9
0A
09
FD
F9
F4
FF
FA
F3
F8
FB
FB
0A
EB
F0
EF
EB
F7
ED
FA
F5
F9
08
ED
F7
08
F3
F0
F4
02
FD
F4
03
04
F2
05
F8
F5
0D
0F
FD
F6
F6
03
F5
ED
08
F7
F1
0B
05
F6
04
0E
0B
F0
03
04
FB
EE
FD
FC
F9
EF
F4
E5
F7
F6
FF
01
F7
F5
E6
F9
03
F6
03
EF
FF
02
EF
E9
04
F0
E7
EE
F2
01
FE
0C
EC
07
FE
F1
FE
F8
02
00
07
F9
F7
FB
04
FE
00
07
00
FB
FC
09
00
06
04
FE
04
05
F7
02
02
02
FF
FF
00
F9
09
06
FE
FE
F9
FA
FB
FD
04
FF
F9
02
07
FF
FD
FD
FF
FC
01
FA
FF
F8
FF
02
00
00
04
FF
00
01
00
02
01
F6
FF
01
00
FF
04
03
07
06
01
FF
00
F2
FC
FA
05
FA
FB
F7
05
FF
02
05
03
F9
FD
02
09
FB
01
FA
04
FD
02
02
FA
FD
08
04
FD
02
FE
FA
FD
FA
FF
02
F4
00
09
00
09
08
0A
FF
02
02
F0
00
05
05
FC
FB
04
FE
F8
FB
04
FE
F8
09
FE
00
FB
06
FA
FE
03
05
F5
F8
FD
FC
FB
01
FB
02
FA
F6
FE
FB
FF
02
FF
FC
FE
00
F5
F7
FF
07
FD
00
FE
03
01
FC
FC
FA
FE
FD
05
F3
F8
FC
FE
FC
00
FD
F8
FA
FC
FA
05
FA
FC
FB
06
08
03
FD
FF
F7
F3
00
FD
FD
06
08
FB
F4
F8
00
FD
FD
02
FE
FE
FD
FE
FD
FE
00
07
FD
FC
08
F9
00
FB
07
01
F7
F7
ED
F7
FB
00
00
F9
01
FA
FA
08
FD
09
03
03
02
F6
FB
05
FA
F7
F4
01
00
01
06
FA
09
01
FF
F7
00
00
03
03
FF
06
03
04
00
0A
05
05
00
03
01
00
06
06
04
09
02
FC
02
05
FE
06
07
05
02
08
05
01
06
00
03
03
06
02
06
02
06
03
01
02
04
08
03
06
FF
FF
05
02
03
FE
06
01
02
01
FE
03
07
03
05
FE
03
04
04
06
02
00
04
03
00
FC
03
02
04
05
02
03
04
07
05
07
04
03
03
03
01
00
FE
08
FE
03
04
07
FF
01
05
01
06
03
07
06
06
00
00
07
01
05
06
05
FF
03
05
0A
FC
01
00
02
03
06
07
FD
FF
02
07
03
04
04
02
05
05
FE
04
01
05
05
03
00
FE
08
00
06
00
09
04
00
09
02
02
03
03
FE
09
06
06
04
01
FE
02
03
00
02
04
07
06
00
00
FF
FF
08
02
FE
02
FF
05
FF
01
04
00
06
02
01
FE
05
00
01
01
06
FF
01
03
05
00
01
06
01
06
02
FB
01
00
04
06
08
00
02
04
03
05
02
06
02
FE
05
02
06
06
06
07
06
02
05
03
FC
04
07
01
03
03
04
04
04
00
02
04
FF
05
06
03
03
05
00
05
04
02
03
07
03
FC
05
04
FF
07
00
FA
F0
F5
FF
FA
01
F8
00
FE
02
F3
FD
05
03
02
FF
04
08
03
04
08
F3
FE
0B
FF
03
04
FE
FE
FF
FF
F9
01
00
F4
FE
F0
F3
02
03
06
F0
FD
FF
04
F7
05
02
FB
F8
FA
FA
FC
FE
02
F7
02
01
02
F8
FE
FD
04
FA
F1
F7
F7
06
FE
F4
02
FB
04
FE
09
FA
F9
F6
01
FA
03
E8
02
06
07
00
03
05
00
02
F5
00
EE
00
06
FA
FA
FE
04
F3
F7
FC
F7
FA
03
F8
F1
08
01
05
03
F9
EF
F9
01
FC
FD
08
FF
FE
F7
F2
FC
02
01
FF
02
01
F4
09
FF
00
03
F6
EF
FC
ED
03
F4
03
F2
07
04
FF
03
02
FF
FE
09
FE
07
08
FD
F9
FC
FC
F8
F9
F5
03
04
F0
FF
FD
FD
F9
01
FE
FF
F8
FA
FE
FA
FD
06
F5
05
03
FF
FD
FC
F9
04
FF
04
F6
F9
01
FE
05
FF
FE
FA
F9
FA
FC
F8
F8
03
FD
F8
FC
F6
F7
FC
02
F7
F0
FD
F7
FA
01
04
FD
00
04
FE
02
FC
08
F3
FC
03
F8
FA
F7
05
FD
02
FC
FA
F5
06
05
FC
FF
FF
F8
04
02
F5
08
02
F5
07
05
FF
03
FF
04
F4
03
FD
FE
FD
00
F9
FF
04
FD
FA
F6
F5
F9
FC
F6
05
03
F6
FB
F9
FF
00
F7
F4
02
F2
0B
02
05
F4
FB
FC
FC
03
FD
02
03
F6
06
FF
04
06
F4
F8
FC
F9
08
F7
F6
03
F4
FE
F7
03
05
FB
F6
01
FC
F4
05
04
05
05
FA
F9
00
FB
F6
F2
FB
01
FD
02
02
01
FC
FC
04
F4
05
FF
04
00
00
FC
FF
F3
FE
F6
00
F9
FD
03
04
02
00
02
FC
FE
FF
03
FB
F7
03
FF
00
F7
FA
01
01
09
EF
FF
00
FE
FC
08
05
01
FE
01
04
04
FC
F6
F9
FA
07
FE
04
FB
FD
00
01
01
03
02
05
FA
01
F8
F6
00
03
F7
FD
02
F3
FA
01
F5
E6
FC
FC
F5
FA
01
00
FD
FD
03
04
FD
FB
03
00
02
FD
FA
00
FC
04
07
00
FD
F6
07
FC
F4
01
F6
FB
06
F5
F9
02
03
01
F4
F2
03
03
F4
FF
F5
04
F6
FC
FD
00
01
00
F5
FA
00
06
03
EF
FD
FA
03
03
07
F0
FF
F8
F3
FB
02
F8
EF
00
05
F7
F8
FD
0B
01
02
05
F4
F8
F9
05
02
FD
FB
FC
03
05
00
07
FC
F8
FB
F3
EF
07
F4
F0
04
01
FE
01
F8
F2
FD
FF
F1
00
01
FE
03
FD
00
06
01
FD
06
FC
F8
02
04
06
FE
FC
FE
FF
07
FE
FA
FC
FB
02
02
FD
00
05
06
FB
F7
02
01
FE
FF
07
FA
FD
F4
F5
F9
F5
06
FB
04
01
FF
FE
F8
FE
FB
01
F9
02
06
F7
FE
00
02
FD
02
FE
00
04
F9
FE
00
03
03
F8
07
FB
02
FB
04
00
06
FE
02
F7
F4
FC
FF
01
03
FA
01
03
03
FC
FE
05
00
00
02
F8
00
FD
FF
F7
F5
06
06
07
01
F3
FA
04
05
01
FE
FA
F8
FD
FE
FD
F9
01
FE
07
01
FB
FA
02
FE
FE
FD
FF
01
FD
FE
FE
FC
03
F4
01
FA
FE
00
05
00
FE
FE
FA
01
F8
05
03
FC
FB
FC
05
00
FA
F6
FE
F9
F9
F8
00
FD
F6
F6
05
04
FC
04
F6
04
FA
F7
04
00
FB
FF
FF
01
05
F1
01
F9
FE
05
F9
04
04
04
F9
09
FD
FF
00
03
01
FE
01
FE
FC
01
03
FC
F1
FC
03
00
04
F8
FA
01
00
F9
FF
03
00
01
FF
05
F9
FA
FC
FA
FA
FA
F8
F5
01
00
08
04
FF
00
F8
00
07
FE
01
FD
F9
04
00
F7
04
04
F6
06
01
01
FF
FF
04
FC
08
F6
F4
03
06
FE
FD
FA
07
FB
01
FD
03
01
02
FD
F9
FD
03
FD
01
04
00
F8
00
08
F4
F0
07
03
FE
00
00
03
06
FA
FD
03
FB
F4
FD
F9
F6
02
09
03
F1
FF
FE
05
FA
07
FD
FD
F9
FB
F7
F9
00
03
F6
F8
F9
F9
FE
01
FD
02
F3
FC
F7
05
02
04
FB
03
FD
08
00
08
FB
00
F6
04
F4
04
F2
FF
04
02
F4
FE
05
08
FC
FC
00
F6
FC
03
FF
F5
FB
F5
F9
FC
FD
F7
03
05
FA
F6
03
02
01
04
06
F4
F9
00
05
FA
0A
FE
FC
FB
FC
03
05
FA
03
FB
FB
F3
07
FB
07
03
F8
F3
FC
F0
F6
01
04
FD
04
0A
04
FB
02
00
FB
05
F4
FB
03
FE
F5
F4
01
FA
FF
F0
FE
07
F1
08
03
F8
FD
06
F3
F7
F2
FA
F8
FC
02
FA
F3
FE
FE
F2
F7
F6
FD
09
F4
FE
F9
01
F6
F9
08
06
F5
01
FE
02
FA
02
F3
FD
03
F6
F3
F3
FB
FF
FB
F1
FD
F8
FB
FC
FC
F5
01
FF
06
FF
02
00
FD
FA
07
05
F8
FE
F3
FF
01
FF
F4
FE
FD
08
F9
FC
03
01
F5
FE
F1
FD
FF
FC
F6
F9
04
05
09
FC
07
FF
FE
00
F9
F9
FC
0A
09
FC
FB
F6
FD
FD
F5
FE
FD
F5
FA
FB
00
FD
FA
F9
FE
05
F8
FF
00
00
F3
FB
FE
03
03
F5
02
FF
FE
F6
F2
0B
FA
03
02
F7
F1
08
05
F9
FC
F1
09
FA
01
04
01
06
05
FB
F7
00
02
04
F8
FC
FD
FF
01
00
03
FE
01
01
F0
FB
F9
FC
F9
F5
FC
F8
FC
03
FD
FB
0A
FC
FF
04
F2
F5
00
F6
F9
F6
F2
06
F5
06
FE
F8
FC
04
F1
02
FF
F5
FA
FC
F4
FC
06
03
09
FC
F1
F1
F1
04
04
F3
F0
01
F6
FD
F0
FE
FA
F3
FD
03
FA
FD
F9
05
F3
FD
F2
F8
06
FC
F9
F9
FD
FF
FA
01
F6
00
F5
FD
F2
04
0E
F1
03
FE
05
06
01
FB
F9
05
00
01
FA
F6
0D
F6
FD
FE
02
F6
04
FB
03
09
02
F7
FE
FA
01
FC
08
07
05
06
FB
00
FF
FB
01
00
04
0C
FE
FD
FD
FB
F5
03
00
F4
01
FF
01
00
05
08
0A
00
02
02
01
F7
04
FC
FC
02
F8
FD
F8
08
FB
F9
04
FC
06
F1
F9
00
01
F7
F9
FD
FA
F9
03
F0
00
FB
FB
F6
FD
F2
FB
FA
02
06
03
04
02
FB
F5
00
FB
FA
03
FE
07
05
03
FF
F9
FE
FF
FE
03
02
FD
00
03
FC
FD
FC
01
03
F9
FA
FF
FB
03
FE
FF
F7
00
03
FF
01
03
FB
05
FB
FC
FD
FB
F9
01
FC
03
04
04
05
FB
F5
05
03
FC
02
00
FC
FE
FD
03
FC
00
FC
00
00
FC
FB
02
06
FF
04
08
FF
07
FC
FF
FE
FC
01
F8
00
04
00
00
FA
01
05
FE
05
02
00
FC
01
03
00
FF
FD
00
FD
FF
FC
FF
05
FD
FD
01
FD
F8
01
FC
FC
F7
01
FA
FA
F8
F9
00
01
FA
01
FD
02
FD
05
00
FE
F8
00
FD
FF
06
06
F7
01
FF
01
03
08
00
03
FE
FB
01
FD
00
FA
FD
FD
03
04
03
F7
03
00
00
07
01
FE
FD
F8
F2
FE
FD
04
F9
FB
FB
09
01
00
05
FD
FD
05
00
FF
FA
01
01
F7
01
F9
02
03
00
FB
01
00
FB
03
FE
FC
03
01
00
FC
04
F8
03
FE
03
FF
FF
F9
F9
04
FE
03
FB
FC
06
FE
01
01
FC
00
00
04
FC
FF
FE
03
03
00
FE
FA
FF
FD
01
FF
FA
04
00
FC
02
05
F9
02
FC
05
04
FE
F8
03
FB
01
03
01
00
FA
FF
05
02
FA
05
01
FC
F7
FE
05
FD
FF
09
03
FF
04
F8
08
FE
00
F3
03
FB
FD
03
F8
FF
00
05
FF
F8
F8
04
FB
00
07
00
F9
FA
F8
F5
F7
EF
FE
FB
FF
F0
03
05
02
F6
FF
06
FF
FC
00
FD
04
FF
02
FB
02
FA
06
FA
FC
FC
05
FF
0A
FE
FD
00
01
01
FC
F6
FB
F8
FC
FB
01
F8
FD
02
FB
F9
02
02
00
FD
F9
01
FF
FC
FC
00
07
F9
F1
F7
FE
F5
FC
FF
04
01
FB
01
F5
01
F4
FF
05
F4
03
F2
06
0A
08
FC
06
E7
00
FF
F6
00
04
FE
FE
02
05
00
FA
F6
F6
FC
F9
04
FB
04
01
FE
F6
06
05
FB
02
F6
FA
FB
0B
05
02
00
03
00
00
04
08
04
F6
07
02
01
08
01
00
FB
04
06
00
FE
F8
00
06
FD
03
FD
01
FA
FE
0C
07
FB
F8
04
ED
07
05
01
06
F8
06
FE
01
FB
FE
ED
FD
02
08
F4
00
F6
00
FD
00
FD
03
05
00
FB
FA
05
05
F6
00
FA
01
FD
F8
FF
FE
FF
F8
F9
FC
FC
00
EF
FB
01
F9
FA
00
03
03
03
F7
FB
F9
03
FD
08
EF
02
FE
04
02
03
FA
01
01
FE
02
FD
F5
FB
F7
02
F1
05
FF
FC
F7
07
F9
00
06
F9
FA
00
F8
07
F9
FD
02
F6
FE
FE
04
0A
F4
00
00
03
09
00
FD
F9
FA
06
F9
FB
FA
00
04
F7
FE
04
00
06
FD
04
FC
01
FD
F8
FB
F7
01
F0
01
06
01
F8
02
02
04
02
F4
02
01
F6
FB
FE
FB
FE
00
01
FF
FA
FE
FD
FE
00
01
04
FD
FD
06
02
04
FD
09
FC
05
00
FB
03
F9
07
FA
F6
05
08
04
FF
03
FD
FA
F8
02
FF
F9
FD
F8
01
F8
08
FE
03
01
FF
F6
08
02
0B
FE
FE
FC
FE
FD
FD
F7
04
F8
FE
04
01
02
03
FE
FD
03
FA
FA
FE
F6
FA
FD
FF
00
05
00
F8
F5
00
FD
06
03
F9
01
FE
FB
09
05
FA
FC
08
03
FC
FF
FF
FA
02
FD
02
FE
FB
F9
01
02
03
05
FB
02
FA
F9
FD
01
F7
02
FE
F9
00
FF
FF
FF
00
03
F7
02
FC
09
F6
07
F7
FF
02
01
FB
05
F9
F6
F8
00
00
F8
FC
F5
02
00
00
FB
00
FD
FC
01
01
F9
06
04
03
06
04
02
F6
FC
FF
03
FD
FE
F9
00
08
F4
FC
FB
F7
06
FF
FB
FB
FC
FE
01
FB
FA
06
08
F9
00
07
04
FE
FD
03
FF
09
F5
F3
01
FF
FF
FC
01
00
06
FD
06
FF
FC
00
FC
FE
FD
FE
F9
FF
00
F8
F4
00
01
FD
FE
03
03
F5
00
F5
04
FB
FA
FB
08
F8
00
03
FE
FB
06
09
FA
FD
EF
09
02
FA
03
FC
04
FB
07
FE
F2
FB
FA
03
08
03
01
FE
F5
F9
05
FA
08
FF
02
FF
04
FE
FA
F1
FC
F7
05
06
F1
FB
FC
04
00
00
F4
04
04
F4
F7
F2
FD
03
05
01
FF
FF
09
03
FA
08
F0
FC
F9
F9
F6
FC
03
01
FB
F4
FE
F7
08
03
00
FE
04
FB
05
FF
03
FE
FF
F5
FB
FF
00
06
03
0C
03
03
F9
02
01
01
03
FD
FA
FE
FB
01
03
04
02
02
F7
03
FF
F8
FC
06
08
00
F9
ED
F6
03
FD
01
02
FF
FF
01
FE
F8
FB
FF
05
FD
00
05
FE
05
FB
FB
F9
FF
0B
00
04
FC
0B
FB
01
F4
FC
FD
00
06
F0
F9
F1
FA
09
FB
FB
02
00
02
05
F9
FB
00
02
02
00
FC
FB
03
FC
03
FD
ED
F9
FA
F9
F3
F4
FC
03
08
07
FB
04
FA
01
01
FA
F4
02
FB
04
08
FA
06
FE
00
FE
FA
03
FF
F9
FF
FB
FA
FA
FF
FD
01
F7
FF
F5
F8
FC
01
01
FF
F6
F5
F5
0A
FA
FC
FF
F7
0E
E6
F4
F1
EC
F1
F6
EF
EB
F9
F4
05
03
EB
FE
F2
00
F6
E6
EE
FC
EE
F7
F9
0D
FB
F3
FA
EF
FE
0C
FE
03
F7
EF
F1
02
F3
F5
FE
F7
02
F9
00
FB
0D
F1
07
F3
F9
F6
F0
07
0B
0B
F5
F9
0E
F1
00
05
F6
01
EB
FE
10
FB
F4
F0
FF
0F
FF
04
F7
08
01
02
F6
FD
FE
05
FD
F9
F8
FC
F9
FE
FB
FD
F8
F0
F5
F1
F5
F4
F3
FB
FB
F2
F6
F8
F9
F7
EF
07
05
EA
E9
EF
F9
ED
F7
F4
F9
EC
0E
F5
EF
03
F3
EE
01
E7
02
EB
F4
FC
03
F8
01
EB
F3
FC
FC
FB
F4
F3
05
00
EF
F9
FF
ED
F8
EC
ED
F7
F7
06
FB
03
F2
0C
FA
F0
0F
F8
EF
FD
06
F6
F7
FB
FF
EA
F1
F6
FA
FC
F9
FE
F7
FB
F7
03
FB
F5
F3
FC
EE
EB
F6
F6
FF
01
FD
FF
F5
F8
FE
09
11
13
F8
F2
FA
FC
EE
F8
FB
F5
FB
10
F3
EF
F7
0C
0B
F4
0B
FE
F5
FB
13
ED
EE
0B
EB
F8
05
FD
F9
FC
FC
F2
F0
F4
FB
09
F5
F9
FE
FC
FC
E6
FF
FE
FE
FD
F6
E8
01
EE
F2
0F
00
FC
08
01
FF
02
FF
02
F7
FF
FB
FE
F7
01
FA
F9
FB
F8
03
FE
F9
F6
07
F6
FF
06
00
FE
F6
EF
F7
04
F4
00
06
F3
01
FB
FB
02
03
00
04
F4
02
F0
01
06
F8
05
F9
03
FC
01
F4
00
FD
F6
05
01
03
FF
05
F2
01
01
F8
03
FC
FE
FE
01
FE
03
F9
02
FE
02
02
FD
01
FD
02
02
04
F9
F8
FB
FA
FE
F3
02
FD
01
F8
FD
04
FE
FE
02
01
F6
03
01
F9
F9
F9
02
00
FE
F9
FA
FD
FE
FE
FF
FC
FF
08
FE
FE
01
00
05
00
05
00
FF
04
F9
03
03
02
F4
08
06
FF
07
FE
FB
F5
FF
00
05
FD
08
04
00
03
F7
F6
FC
07
F8
F8
FF
06
02
03
FE
04
02
FC
FD
FE
FA
02
02
FA
FB
FD
01
07
03
FD
FB
F8
F4
03
F7
F2
07
F2
01
FF
07
FD
FF
01
03
FD
FD
F8
FD
01
FF
00
FE
FD
01
01
F4
00
02
01
01
00
F9
F6
05
01
04
02
01
FD
F1
FD
FD
FE
F2
FA
03
FC
01
FD
03
08
07
05
FD
F5
F5
FF
FE
00
00
FC
FE
02
04
02
F5
FB
0A
F9
F1
00
EE
F1
05
03
F1
FD
FC
F3
F7
01
03
F0
F8
F5
F8
FD
FC
0A
FA
F9
F3
06
F8
F9
05
F3
01
F8
EE
FB
03
FB
00
F9
F3
F7
01
01
05
09
FC
01
01
FB
FA
06
F2
F5
F4
FB
01
0B
01
FD
01
0A
F9
F1
FA
08
F5
FB
EE
F8
FC
F7
F8
F5
F2
EF
EF
00
03
FA
05
05
FF
06
F0
F1
F8
F3
FD
FD
F4
FA
0D
FB
FD
FD
02
F1
07
F8
FF
F5
F6
FD
03
02
FB
F6
F4
F2
F6
F7
0C
F3
F2
FB
06
FC
FF
03
FB
03
F9
F6
FB
03
F7
07
F8
F9
F3
FA
FE
F6
F9
F3
FE
02
02
F5
FA
FE
FA
F4
F1
03
ED
F5
07
05
FA
F6
F6
FB
FD
01
F6
F4
F0
FC
F9
06
04
01
07
FC
FC
FE
08
F9
F2
FD
F4
FB
02
F9
F4
05
08
F4
F7
F9
FC
F8
00
FD
F4
F6
FF
F1
03
F9
07
FC
09
FD
F7
FE
F8
04
FF
FC
07
03
F7
FF
00
FF
F7
F1
F2
00
F9
F9
FE
F9
00
F9
FC
F7
F7
F8
EC
04
F0
E8
EF
01
02
02
07
FF
FC
F6
FC
05
FB
03
01
08
F7
FE
02
F4
0A
07
0A
F9
F9
F9
02
0C
01
F3
FC
FB
F9
02
01
0A
FC
04
09
F8
00
FC
01
FB
FC
05
06
F9
FC
06
F5
F3
05
FB
FF
FF
FB
FF
FA
FC
06
00
04
F7
FC
FF
F8
03
03
F5
02
07
FF
F9
F5
F9
F9
F7
09
00
07
05
F7
0D
EC
FA
01
04
FB
FD
FC
03
01
FF
F9
ED
FC
05
F8
FF
F3
F9
FD
FE
F7
F9
00
F8
F3
04
FC
FC
FD
02
FB
F8
FC
FD
FD
03
FC
01
FA
01
07
F9
03
00
00
EF
00
FC
F1
FC
FC
FB
07
FA
FA
F6
F8
F6
F7
FC
FD
F5
F7
01
F7
04
06
01
FF
06
FB
F3
FE
FC
F3
03
F8
00
03
FB
00
FF
05
F9
06
0A
06
06
08
FE
07
02
F8
07
EE
FE
00
FC
03
F8
FE
07
07
02
FE
F3
FF
FF
FD
02
07
FC
F8
EB
02
02
00
FF
F6
0A
03
FB
FB
04
F7
09
FC
F5
00
02
F4
F9
FB
04
02
F9
01
FA
08
03
05
F7
00
00
FA
F9
FF
09
06
00
08
06
FE
03
FE
FC
FD
FB
FA
04
01
06
02
F1
FE
F5
01
F6
F7
F9
F1
FC
FA
F5
FB
FD
01
FE
01
00
FB
FC
F8
07
F5
F9
06
01
00
0D
00
FD
09
F8
FF
F8
F6
F5
00
02
07
02
FD
07
02
00
05
FF
FB
05
FC
FB
08
04
FB
F9
00
FF
02
FB
FA
EC
05
02
FF
FE
FB
00
FF
FC
04
F5
FF
00
03
08
F6
F8
02
FC
06
00
05
03
F9
FF
03
F2
EC
05
FE
F5
F0
02
01
FD
06
FD
00
03
03
04
01
F9
00
01
02
07
06
F3
05
F3
01
01
F9
05
FE
02
FA
F8
F7
00
01
07
05
FA
F8
F9
02
FF
FF
FC
FF
F7
01
05
07
F8
09
F0
04
05
00
F9
00
02
02
F4
FF
FF
FC
FB
0B
03
FD
F8
08
FF
00
01
F3
FE
FC
FE
02
F4
09
FE
F3
FD
F7
03
FB
FA
01
04
FD
05
02
FD
FA
FF
04
F8
03
0A
02
FD
03
FB
01
02
EC
0A
05
0B
F9
00
FC
EC
F4
FD
00
07
0B
01
FE
00
F9
0A
FF
01
F4
00
01
04
FE
03
F1
FF
FB
FA
02
03
F8
03
00
00
03
F7
04
FA
FD
03
FB
F9
F6
FE
F6
F8
FC
00
FC
00
0B
FC
02
FE
08
FF
06
FF
FE
FC
06
08
07
04
FF
FB
FB
06
FF
F6
FA
07
04
F6
F6
08
FB
FD
00
00
F3
F9
06
FF
06
00
FB
EF
FE
FF
FC
04
00
FC
FF
02
F3
F6
F9
FB
03
FA
FC
05
F7
01
03
F5
06
FE
06
F4
F5
02
00
07
E7
FB
F9
FD
FA
00
01
FD
FA
05
F5
F9
05
FB
FD
FF
03
00
F4
FA
08
F4
FC
F6
F0
07
03
F5
FA
FE
EE
FB
F6
00
FC
F8
F3
F4
FD
FE
FE
03
05
FE
FB
F5
FC
FD
03
FE
F6
F9
FA
FF
F8
FE
FF
F7
01
FC
03
02
00
01
06
FD
F9
F4
00
04
F8
F9
F8
03
F9
05
F1
EC
FD
FC
00
05
FB
F7
F6
F4
00
FB
00
F7
03
08
08
08
FD
FC
FE
FC
01
FC
FC
09
F4
02
00
FC
02
F0
F5
FC
F7
F5
F6
FF
F8
03
FF
FE
FE
F3
04
FF
FE
F2
07
FF
F7
FD
F8
F1
E9
FC
01
02
03
0B
F8
FF
F8
F8
F7
00
F1
04
F0
08
FD
F9
FF
04
F9
F9
07
02
FF
00
FA
04
04
05
01
09
F4
F6
FC
FF
FA
0B
FB
05
00
00
04
FD
F8
04
FD
F5
01
FF
F7
01
01
FB
04
02
FE
FA
07
05
F7
09
02
F1
05
0B
09
F8
F8
00
08
F3
F9
04
EF
FD
02
05
FE
00
FF
FF
03
FD
FA
07
F8
F9
FE
04
FE
FE
06
FF
FF
FB
FC
07
F7
F9
F5
F2
F5
FD
05
04
FB
FB
FC
FC
F8
00
06
09
FC
F7
03
07
EF
02
00
F7
FE
01
F8
FA
FA
01
FB
02
FA
F8
01
03
FE
05
F2
FB
FD
04
02
F8
03
00
F3
FE
FC
FE
01
FF
01
FF
08
F7
F8
F1
FC
F9
04
07
FF
06
F6
FA
F7
00
FE
03
03
FB
F3
F9
F4
F1
FE
F6
04
EF
F3
09
FF
F5
FC
F6
04
06
00
FD
0B
FB
FF
F0
F0
F8
0A
00
F9
FC
F9
FF
03
FE
F9
F9
FA
02
04
FB
FC
FA
01
F4
F9
00
FD
FA
05
FC
FC
03
FD
03
F3
F0
FA
02
FA
03
F8
F7
F7
FA
05
F5
F2
02
FA
01
F5
02
F3
07
00
FB
EF
F5
F8
FB
FA
F9
FC
F9
F8
F4
FC
F8
FA
FD
FD
01
FC
FF
F7
FA
FF
F6
F9
FA
F6
01
F9
08
FC
F9
01
F8
FB
E7
00
EE
FE
08
F7
FC
FD
04
0A
0B
EF
F7
F9
FE
FF
FF
F9
FF
F9
00
05
05
FB
FD
EF
FD
00
05
04
FD
00
FC
FE
03
00
01
00
F8
F5
07
01
F6
01
FC
0C
03
09
F5
FD
F3
01
F2
F4
FF
01
04
FB
FE
00
01
04
06
02
01
EF
04
01
0D
05
06
06
02
04
FD
F2
F9
F1
F9
F8
F7
F8
F7
FD
04
FD
F5
F5
06
F8
03
FA
FF
FC
FA
F2
04
F4
FC
03
EF
06
01
F6
F8
08
FD
01
04
FA
F9
04
0B
00
E9
04
F7
FC
FE
02
04
F9
FC
FA
FE
09
FF
FA
F8
F8
01
FE
F8
01
08
FE
FA
F6
FD
0A
02
FB
04
09
FF
06
F9
FC
FB
07
09
01
00
FB
09
FE
04
01
01
03
FF
FA
09
F6
06
F7
F5
F2
FD
FB
02
07
08
F3
F5
FA
02
FA
FC
F3
FE
F7
FE
FA
F5
F7
FF
FB
00
07
07
F0
F5
F8
FD
FB
FE
FC
FC
F8
03
F8
05
F5
FB
03
FD
F9
E5
0D
FE
00
03
FA
F3
FE
F7
FB
F1
01
FF
F6
EF
03
FB
00
00
F4
02
03
F8
00
0A
02
FB
FD
F3
06
F7
01
00
09
FF
0A
FE
FE
08
F7
F7
FD
FB
FA
FC
F6
04
FE
0B
FE
0C
F9
FD
05
04
00
02
ED
F3
FD
03
FF
F7
FE
06
F6
03
F0
F4
F6
F3
FA
07
09
FE
FF
00
FE
F4
F9
05
08
06
FD
07
03
06
F7
F7
02
06
F4
01
F6
08
F6
08
F9
FE
F9
09
F8
FB
01
F9
02
F8
04
03
EB
08
09
EE
08
00
FA
F8
F7
F6
F6
F9
FF
F7
F1
FE
00
F9
F8
01
FB
0A
FA
F2
00
02
09
F4
09
02
02
F2
06
FD
0A
07
00
FC
FF
03
FE
09
FF
04
06
F9
FA
05
FE
F8
FE
FE
FE
04
FD
FC
0B
F4
02
FF
FD
01
F8
F8
FE
FF
04
FB
FB
04
FF
FE
01
FF
01
FD
F2
FE
FC
F1
F9
F1
FE
00
F7
FE
00
FE
02
00
FF
FF
07
FE
F2
FC
FD
F9
FD
03
05
04
06
F7
00
F7
F5
06
FF
05
FF
FA
F9
04
FF
FD
00
06
00
FD
F3
F7
FF
F7
FC
00
FA
03
FC
03
F5
03
01
01
FE
FD
00
04
FB
F6
FC
00
04
05
03
02
F5
07
07
06
09
F8
F7
F2
FC
F7
FB
04
FB
F7
FD
F7
06
F2
05
01
FC
FE
01
FE
02
00
FB
FB
F6
FB
FE
FD
04
09
05
FB
FA
FE
FD
F9
06
FE
F7
06
FC
01
00
F8
F5
F8
00
FB
00
F2
FA
FD
09
FA
FD
04
05
FF
06
FD
09
03
F4
02
FD
FE
FB
FB
F5
01
FE
02
03
08
FC
FD
FF
FA
FE
F6
FF
FB
05
05
01
04
FF
F9
F8
07
F8
F6
F9
00
04
F9
FC
02
FC
09
FC
06
00
06
FE
F9
FF
F1
04
03
FF
FF
FD
FD
01
F6
FB
F9
F4
FE
04
0B
05
FF
FD
FD
FE
00
00
F9
FE
00
03
0A
F4
FB
FF
FE
03
FA
02
04
01
03
F3
FF
FE
FA
FD
F9
F8
FC
F5
FA
FE
02
FE
FE
FF
09
F6
FB
0A
F5
00
01
FF
FA
F6
F3
F8
F6
F9
F1
F3
FC
F8
FF
00
05
FE
04
FC
EE
F8
FB
FF
F3
05
EE
06
F6
08
FD
03
01
09
07
FD
05
EC
FC
05
FA
FE
F2
02
07
01
FA
F6
FA
F4
08
FB
07
04
FC
EE
03
06
F8
06
00
FE
00
FA
EA
00
FB
FC
01
FF
00
F4
05
03
03
FF
FE
F0
05
FD
FB
F4
F3
05
09
00
FD
05
09
05
06
0B
FC
F9
EF
EE
F7
ED
F9
00
FF
FB
F6
F9
FB
07
FD
0B
05
FD
FA
07
FE
F6
FA
F6
F4
F0
02
05
F9
0D
07
09
03
ED
03
00
05
02
FA
F4
F7
F4
F6
FD
FD
04
03
FD
09
F9
F7
FC
04
FD
F9
FF
FA
FC
FF
00
EF
08
00
01
05
FB
04
F9
FD
FF
00
06
FA
FA
06
F4
FA
F9
01
02
FB
09
F6
01
00
00
FE
F9
FB
FF
03
F8
FE
F5
05
04
FB
FF
09
F9
09
08
01
03
01
03
00
01
F8
06
09
06
05
02
ED
F5
F4
FD
F4
F2
F9
06
FD
FB
01
FF
EC
03
02
F8
F9
F7
01
04
01
FE
FE
01
FD
06
FA
06
F8
01
F6
F7
01
F5
00
FF
04
F5
FC
F5
F0
F6
F9
07
F5
FF
FD
FE
FC
05
FC
06
FD
00
FC
F9
FE
FE
FB
F7
FC
F1
F6
F0
F9
F9
04
03
F4
F7
F2
FB
F8
F6
F6
F9
F7
04
FB
FB
FE
FF
09
FD
02
FA
03
F9
05
F6
02
F1
FD
03
FB
FB
04
F8
F7
F5
01
01
FA
F8
F7
F7
02
05
08
0D
09
FE
F7
F2
FA
F7
FD
F8
F4
00
07
FB
02
F9
01
04
0C
FB
F8
F5
FC
FC
F4
F3
FA
05
FB
FE
F9
FC
05
03
05
EE
FF
02
F5
FE
F7
F6
03
02
E9
F8
F8
F7
F2
F7
F5
FE
F6
07
F0
02
FF
05
FB
F3
FC
03
FC
00
05
01
FD
F9
FC
F2
FB
05
F9
01
FE
FC
FA
04
FB
F6
01
FE
F6
FA
00
F3
06
02
F2
F3
F9
05
FC
0A
01
07
04
00
02
00
FD
FF
FA
F4
FD
F9
08
0A
01
FD
FD
FA
06
02
F6
08
FE
06
00
03
F8
F9
00
FF
02
FC
F2
F7
F8
FD
FC
FF
00
FE
02
00
FF
FA
07
03
02
FB
FD
07
00
F7
09
FA
EC
FD
F4
00
F9
FA
F7
FF
FF
09
03
F5
06
05
02
03
FA
04
FF
FB
05
F5
FC
03
F4
FA
FC
FD
FA
04
FD
FC
FA
F9
F1
FF
F0
EE
F6
FC
F9
00
04
09
FC
FB
FB
F9
03
F4
F6
F4
FB
F6
F3
03
04
FB
F7
F8
FD
FF
05
00
05
F5
09
FD
FD
F4
F7
F9
F8
0A
F6
07
04
F4
01
02
06
07
F9
FA
F2
F9
07
05
F3
01
F2
F6
F9
F4
0F
F7
F5
F8
FE
FC
01
F6
08
0D
FC
F8
F9
F7
FA
F6
02
F9
F6
04
FF
05
01
FD
00
EE
FD
0A
08
02
F9
F5
F5
F7
00
F8
F5
02
F5
0B
0B
FD
FA
0C
F4
F0
F3
08
F9
F3
FE
F7
02
FB
09
00
F8
01
FF
FE
FE
00
04
0B
09
F9
FE
FB
08
FD
03
F4
F8
FE
FF
FC
FB
03
FA
FF
04
F5
F5
FA
0A
F7
04
F3
F1
05
04
F0
FB
FE
F7
FB
FE
FA
F7
F9
FC
F4
FA
F9
01
F4
F4
F8
FD
FA
FF
F6
04
FD
02
FA
FA
03
02
0C
F6
EB
03
02
F0
F7
FE
F1
FA
F3
F8
F4
05
FC
F3
F6
F6
FC
F5
F7
F4
03
0D
F4
F5
00
01
FC
FF
F2
01
00
F6
02
F3
FE
F9
FC
FC
0C
F0
FE
FF
FA
FF
FF
00
FC
02
FF
EF
FB
01
03
F7
01
00
F6
FB
F8
0B
07
F1
F1
F5
00
03
0B
04
08
F4
F5
F8
F5
0A
F8
F8
05
02
F7
FD
FD
FC
FA
FA
EF
02
03
07
01
FF
03
FA
04
01
05
F2
FC
01
FF
03
F7
FD
00
FA
F3
FD
FA
03
01
01
02
EB
F0
FB
FF
F8
01
FE
04
F9
00
02
01
08
05
FE
FD
03
01
F6
02
00
00
F8
06
01
00
00
FD
FC
06
01
04
FF
04
FE
02
06
00
01
03
02
FF
01
03
07
03
FC
FF
00
FB
03
FE
03
FD
06
00
01
05
FC
01
F8
F6
F1
04
06
00
06
08
02
FD
02
05
01
F1
03
00
FC
06
FE
02
07
04
FE
04
F8
03
FC
06
FD
00
FF
04
FD
01
FE
01
04
FB
FB
FF
FF
05
09
03
FD
F1
FD
FD
FC
02
FA
02
FD
02
FE
03
FE
FB
03
FE
03
01
FA
FC
07
F8
FC
00
FA
04
02
07
04
05
00
FF
05
02
FF
03
03
04
05
FD
02
09
06
F9
FD
F6
07
FE
03
05
FF
0A
03
FD
FB
FE
FE
FE
03
F8
FC
FE
01
FE
05
00
07
FE
06
02
02
FF
06
03
01
05
FA
09
02
00
06
00
F1
FD
F8
02
04
01
FF
04
FA
01
FF
FC
03
01
04
FE
01
F6
04
02
02
FC
FA
04
FE
00
03
00
FD
00
F8
FC
02
F5
FC
FB
FC
F1
FE
FE
FD
FC
02
04
00
03
0E
F9
F6
F9
FB
FB
F9
05
F5
F7
01
FA
FB
F7
03
FD
FA
04
F4
FB
FA
FF
F6
06
F0
F3
02
F5
FD
F3
F6
FB
F8
06
FE
02
FA
F6
FD
00
02
F8
F6
F1
08
F2
F6
0A
FE
04
03
FE
FA
03
08
00
00
FD
F4
02
0B
FA
FD
FE
FA
03
04
FA
FB
01
01
FC
FC
FC
01
01
F5
F4
0C
FE
FB
04
04
00
F7
FC
F2
FB
FE
08
01
04
02
FC
0B
00
F8
F4
F8
F9
FF
02
FB
F3
06
05
F5
FC
F5
FC
FD
06
06
02
F9
04
F3
FA
F5
F7
FF
F5
F4
03
02
05
F7
00
FD
F4
F8
FB
08
02
FA
00
F9
04
04
0B
F3
F5
F6
FE
F2
FE
08
F1
FB
FB
00
06
00
06
FC
FE
FF
05
FE
F1
09
02
01
08
01
F0
F9
FE
03
01
08
F4
04
FB
F2
FA
FE
06
01
F6
FD
FB
FF
FC
FB
01
04
01
FD
00
F7
02
01
FD
FD
FD
09
F5
06
FD
04
01
00
06
FB
01
0D
F8
FD
FB
F7
FE
F9
FF
01
FE
F6
04
F3
02
F9
FA
F2
F4
01
F9
F9
FA
06
01
0B
F8
FA
03
04
F6
FD
FD
FE
FA
FC
04
00
00
F9
F3
EF
EF
FF
06
00
FD
04
05
FF
FE
03
F2
FD
F6
F8
02
04
FD
F1
07
06
00
03
FB
04
0A
FC
01
FB
FB
F7
F5
04
01
EC
F3
FD
F3
01
F8
06
FF
FF
FC
FF
FB
03
F8
FC
FA
FC
09
FA
F9
00
03
FC
05
F3
05
04
F7
FD
0A
FB
FF
F5
FB
00
F5
02
FA
FB
08
04
0A
03
FB
09
03
01
03
FB
FB
00
01
F9
FB
FF
F4
04
02
FC
FB
F5
FF
FE
F7
FD
05
07
EF
FE
FB
07
F9
FB
EF
04
FD
00
06
01
F3
FE
F2
03
04
FA
FF
00
F5
02
03
06
F9
FF
F9
FC
07
0C
0A
FE
FA
05
00
F8
F6
FE
E8
F9
01
FE
03
FB
04
F2
00
FE
04
02
F5
00
04
FE
00
FB
04
00
F4
03
02
03
05
07
F2
07
05
FD
F1
F6
02
FB
08
08
FE
F2
FD
F5
F5
FB
FE
FC
FC
FA
F3
00
F2
0B
00
FF
F8
F8
05
06
04
00
04
00
03
FB
04
FA
02
F5
FD
FE
FE
FC
F5
F8
F0
FE
03
F8
FC
04
01
03
FC
FB
F0
FF
02
02
FF
F5
00
F1
07
FB
07
F7
F6
F4
FE
FC
E7
00
F5
FF
02
FA
FB
02
F8
FF
FF
F3
FD
FC
05
F9
F9
03
F2
FB
F8
FB
FE
FD
F8
FA
02
F3
F5
FD
ED
F7
F8
01
FA
01
FF
04
FF
01
0A
FE
FC
00
FF
0B
02
FA
F8
FB
F7
09
F9
05
05
05
F7
01
FC
01
F9
05
02
FF
F2
F3
F9
F8
FD
F4
00
FD
FE
FA
03
F7
FE
F9
FF
FE
00
F8
06
F8
FB
FF
FD
02
02
FD
F5
FD
F2
00
01
06
ED
02
F8
04
00
FD
02
FC
02
F9
FA
F4
FD
F5
01
04
02
03
00
08
F8
02
FA
01
FD
04
F5
07
FF
04
07
FE
FD
FD
FB
01
F9
FB
F5
05
FE
FB
03
FB
F6
F7
05
02
FE
04
F9
04
F6
FF
06
F9
FD
05
00
FD
F7
01
06
01
00
FD
F8
FB
FE
FC
FA
F4
00
FF
FC
01
06
03
FD
02
08
F1
05
01
07
09
FC
01
FF
04
F8
02
FB
F6
FF
F5
FE
05
FB
FB
FC
FC
F9
FB
07
FE
06
F7
02
00
F2
03
FA
FC
F9
02
06
FF
FF
FD
08
02
FF
FB
02
F1
01
00
F5
02
F8
F9
F9
F8
FC
F5
05
08
FB
02
FD
FB
FC
04
FC
03
00
FC
06
FB
04
04
FC
FB
05
F9
FD
FC
04
04
FC
F5
FF
00
0B
07
FD
07
FD
01
01
03
F5
02
00
F2
FD
04
FC
00
0A
FE
FD
05
F4
FA
F8
06
FE
F6
FE
03
08
00
03
00
F8
04
F8
FE
FA
F9
FC
FC
FF
F8
F1
05
05
01
02
05
04
FF
00
FB
FD
02
FC
F6
03
FA
FD
02
FD
00
02
09
05
00
FC
06
00
FC
FB
02
FC
04
00
F8
FD
01
FF
FD
FB
04
FB
F6
FC
FB
FF
FD
06
09
FD
FE
05
F8
FD
FB
FA
FC
03
08
F8
03
F6
FC
04
05
02
03
FC
01
FD
F4
09
FE
FE
01
05
FB
FE
F9
FF
02
03
F6
F4
FD
F8
F9
01
02
FF
FF
06
F6
06
06
F9
FC
02
00
FA
03
FD
FE
FC
FD
F6
FC
FB
F6
02
04
00
03
FC
04
FF
FA
03
F7
F9
00
01
05
F9
FA
FF
04
FA
FE
05
F9
FB
FF
07
FA
F6
F8
F9
FF
07
F1
FF
FA
FD
FE
02
00
02
FB
FF
FD
F7
07
01
01
F6
FE
FD
06
0B
02
05
00
03
F7
FA
00
00
03
F6
FB
FC
FE
02
F7
02
F7
F3
03
03
07
05
02
00
01
03
FB
FB
FF
00
F4
F8
07
F8
FE
01
FF
FA
06
FC
FD
FE
09
03
FF
FD
F1
FF
03
00
F8
FC
FC
03
03
FA
08
00
F6
01
F1
FC
FE
F8
06
F9
04
F8
FA
F2
04
FE
05
01
EF
03
02
05
01
07
06
F3
FA
FE
F3
04
07
08
ED
FC
FE
F6
FD
EF
01
FE
F6
F4
F7
FE
EF
01
FB
F7
EA
EB
F1
FC
EE
FF
F6
09
F5
FE
FC
FA
04
06
F1
FA
FB
F6
F0
F5
01
F0
F8
01
F8
06
01
FB
0B
F9
09
F9
FE
01
EF
F9
0B
FC
F3
09
FE
00
06
FE
00
0B
EF
08
0A
F1
FF
EA
FC
08
07
F7
02
FF
05
08
F5
FB
F2
FC
03
08
05
F5
01
F3
0B
FB
FA
EA
F4
F5
F9
FA
FD
F2
03
F4
F6
F6
F9
04
F7
03
07
FC
FE
F4
FF
F6
F1
01
03
FC
04
F6
00
0A
FA
01
01
E1
F7
FA
FD
06
FA
F9
FA
F2
04
03
FD
F5
F8
FB
FE
F7
01
F3
02
F0
FB
FB
F6
02
FE
F8
FC
0B
F2
03
F8
F7
09
00
03
F0
FD
FB
00
FB
08
F4
F5
F2
F9
F7
FF
04
FB
FE
ED
03
F3
F4
FA
03
FB
F0
F3
F2
FF
05
FB
01
F7
F7
09
04
0B
06
FD
FC
07
08
F5
FF
09
FC
08
0A
F3
EE
FE
09
06
F4
05
02
F5
08
02
02
EA
02
F2
F6
F7
F5
FE
FA
0B
F5
F8
F2
FF
FE
FD
02
F8
F6
F1
FE
F9
F2
FD
F3
F1
E8
01
FA
E7
06
FE
06
FF
FA
00
FC
01
05
FB
F6
F7
06
02
F2
FB
FC
F7
05
02
F5
F6
FC
00
FE
02
F9
F9
F7
05
FE
F7
FD
F6
FB
FA
FA
00
04
FD
04
F2
FB
FB
06
06
F4
00
FC
F7
F9
02
FE
02
FF
F5
04
04
FB
09
03
00
05
F9
01
05
F7
F7
EE
05
F9
03
F9
EE
04
01
FE
04
FB
03
FF
FE
F7
03
03
F1
FE
FF
01
0C
00
F1
00
FD
00
04
08
FE
F4
05
FF
FE
05
FB
FA
FB
F5
F7
FA
07
04
F6
01
F5
FD
F3
09
03
04
FB
07
F9
FE
03
FB
F6
F2
FF
00
04
FE
FF
08
FB
FD
F9
FA
FF
F2
00
F4
08
FE
00
02
F4
FB
F8
FE
F6
FF
FC
F6
FE
06
F9
FE
04
F3
F7
00
FA
FD
08
FA
05
03
FE
01
F9
F1
01
03
FD
03
04
FA
03
00
03
00
F8
04
F5
FA
08
FA
0D
FE
F7
04
05
FD
FF
FC
FD
F6
FA
FB
06
FF
02
FC
04
02
06
02
F7
02
F8
FE
03
01
F4
05
03
FF
F8
00
01
F2
FD
00
09
ED
04
F9
03
00
03
00
F5
FB
00
06
03
F9
FE
05
FE
FF
F7
F9
05
F8
FC
F6
06
F4
F3
FE
F1
FE
00
02
F1
02
05
F4
FE
FF
F5
01
FB
0A
FF
F8
F0
F6
FE
FE
EB
FE
F8
F6
EC
F6
F6
FE
FD
F8
FB
FE
EE
F0
F7
F9
F6
02
EE
0A
02
F8
09
FD
EA
F2
05
08
05
F5
01
ED
08
FE
FA
FE
05
F8
FE
F6
F9
F7
FF
EC
02
02
F3
FB
FF
F3
FC
08
FF
FC
01
F8
00
F9
ED
F2
E2
FD
09
06
EC
FA
02
04
F8
09
01
EC
F6
05
FF
FF
F9
F7
FE
FE
ED
F7
FC
04
F3
02
FE
FA
F7
03
EF
F0
EA
03
F3
F6
E3
F5
FE
E7
F6
FD
06
F6
FB
02
EF
07
F7
FF
F2
F5
09
02
00
F5
06
F0
F9
FC
05
FA
F4
FE
0A
F3
0A
EF
F7
FF
02
05
01
F9
06
EE
F9
F7
09
03
F0
F5
F5
FB
F7
00
FE
F4
01
0F
F9
F6
FE
EF
F5
F7
10
F7
FF
F8
F5
F6
F9
06
08
09
EE
FF
F1
0A
FD
09
FB
F4
F8
08
FD
F2
EC
E8
FA
F9
03
00
FC
FF
EC
FD
FD
02
F5
F8
04
F5
F4
FD
02
FA
FE
0D
E9
FE
F2
02
F2
F1
06
F6
00
F5
0F
F5
01
0C
F6
06
FC
0A
F1
00
EE
EE
F8
FC
F9
FD
FE
F0
0A
08
FF
F9
01
FF
F6
0E
FF
EB
F0
E6
FE
0B
FC
FD
02
03
FD
FF
FF
01
F8
02
00
02
F7
04
FD
F9
FE
FE
F8
F5
F0
F7
FE
08
F9
01
F5
F7
F5
EF
ED
03
F6
05
06
02
01
FD
FC
FA
01
06
FE
01
FF
FA
FE
FA
00
01
02
FE
02
04
F9
FE
01
F7
07
05
FA
00
00
FD
09
00
FD
01
FF
FD
03
FA
02
FF
FA
FA
06
FD
FA
FE
05
03
01
02
07
FE
FF
05
F7
FD
F6
FA
02
09
FC
FB
00
FB
FE
08
FB
ED
05
04
FC
00
FD
FF
06
FD
F6
FB
FD
FA
03
03
05
03
00
FD
F4
03
03
07
FF
02
08
05
FF
FE
00
FB
FF
F9
03
FC
FE
01
05
FC
01
F9
FE
02
03
FE
04
FC
09
FF
F9
FB
0B
FA
FC
F4
F1
06
F8
FF
04
02
FF
05
FD
02
07
00
FB
FA
04
F7
06
FE
02
FF
02
01
03
01
F6
06
FC
09
FA
04
F5
FD
F7
01
FF
F5
F7
F8
02
05
00
00
FA
01
FE
02
04
0A
FD
FC
07
FA
F7
05
00
00
04
09
EC
FA
F7
FF
FF
F1
08
FD
F7
FD
08
FB
06
03
FB
01
FD
04
01
FA
FD
F6
F2
FA
FA
04
01
FE
FE
05
FD
FA
00
FC
FC
01
FE
F3
FC
04
FF
0A
FF
07
F9
04
00
01
FE
01
05
02
F8
FE
03
02
00
05
01
02
FF
F8
01
05
F7
FF
05
02
FC
FE
FE
01
FF
02
F9
FF
FF
F7
02
FD
FE
03
06
01
00
FF
FF
03
FE
FE
04
01
FD
03
FF
00
05
05
FA
FB
F9
FC
FB
00
05
FF
FB
01
FF
00
C0
01
FC
FC
FE
FB
FE
00
FE
FF
FE
FF
01
03
FE
FF
FF
02
F8
F7
FD
03
02
FE
FB
F8
FC
F7
04
03
FE
FB
06
FF
01
06
06
06
06
03
02
FA
00
F8
FD
06
FA
FC
FC
FF
FC
FE
06
FB
02
05
06
FF
FD
FE
09
02
FA
01
00
FC
FF
FC
F7
05
FF
04
02
01
FE
00
01
02
FE
02
04
03
FC
FE
FF
FF
00
FC
FB
02
02
F7
FF
01
00
08
FB
01
02
FF
00
01
01
04
FE
03
01
02
07
01
07
05
FD
FA
00
FF
FE
02
FE
05
07
F9
FE
08
04
FA
FF
03
FD
02
01
09
00
FC
FE
00
FA
FC
03
07
FC
01
06
FC
FF
04
FF
FF
00
FE
FE
FA
04
03
FB
00
02
FD
F6
07
00
02
05
01
02
03
00
02
FB
FC
07
FA
01
02
FF
04
03
FD
01
02
06
F9
04
FB
01
FF
03
02
00
FC
00
FC
0A
FE
01
00
FD
02
07
FD
01
F9
F9
F5
00
01
03
FA
F6
FD
06
F9
FD
04
00
F8
FC
01
F5
F7
03
FC
FA
04
F8
06
F8
FB
FE
03
FF
FE
00
FE
F4
FC
FC
02
FF
FF
FC
FC
00
FC
04
00
F0
FF
FF
F8
F3
03
04
00
03
00
FC
01
F9
F8
01
FC
FD
FA
FD
06
01
F8
08
FB
09
01
01
FE
FE
F8
FF
01
07
FD
F5
FB
06
F8
FE
FB
00
FD
FF
FA
FE
01
FE
06
FD
02
05
00
02
F8
F7
08
FC
F8
FD
FC
FD
FA
04
FC
00
FF
00
FD
FE
07
03
FF
FB
FE
07
FC
F8
FD
FC
02
00
05
FF
06
FD
F6
05
FE
04
FD
00
05
FA
F8
F9
07
FD
EF
F6
05
04
00
03
03
04
04
07
07
FD
04
F8
F8
FB
05
F9
03
07
01
05
03
05
05
FB
F0
FF
F5
05
01
06
06
FC
01
06
02
FC
F9
FB
F7
FE
01
04
02
F7
FC
F6
FC
07
F9
01
04
F1
F2
FF
FB
F8
FF
05
03
FF
04
03
FD
FC
05
FB
F7
FB
03
F8
00
06
03
03
04
02
F4
F7
FE
F9
F9
FE
FA
FD
F7
FC
FF
01
02
F9
01
05
F9
09
FC
F3
FC
06
05
07
FD
01
FF
EE
F9
FF
03
F7
05
F9
F1
04
FF
01
03
08
01
00
FE
00
FA
FA
07
00
01
F4
03
05
F3
FB
04
FE
07
00
FC
FA
FC
F9
08
F9
FE
F7
02
F6
FA
05
00
02
FC
FF
FB
F6
FB
FB
02
F9
08
02
FD
FE
FC
F2
05
FF
01
FF
03
F5
F5
F5
F8
01
04
01
00
FF
03
07
01
F9
F8
06
F7
FF
FE
03
01
FB
EC
04
04
00
F4
FE
F8
FA
F2
0B
F5
F7
08
EC
FD
07
01
04
02
07
F4
F3
FE
06
04
FB
02
03
01
03
04
05
01
04
08
F4
08
02
09
FA
F8
F8
FB
F3
FF
FF
07
06
01
F9
01
01
E4
FF
FD
F9
F5
09
FD
04
FB
03
FF
FE
F4
FC
F2
FC
F9
F5
07
F1
FB
F5
03
04
FC
FF
07
04
F6
09
F8
06
FA
F6
05
01
FC
01
F7
F2
00
F3
00
F5
02
05
E8
04
02
00
FC
FE
00
01
FB
F4
03
FD
01
02
F7
EF
04
03
FC
F5
F5
FB
FF
F4
FC
FB
F6
FD
F9
FF
04
02
0C
06
01
FC
F0
FE
FE
FC
FF
F4
00
04
07
FB
FA
FA
F8
00
FA
03
F2
FE
02
F6
E7
00
01
FC
FA
FB
FD
07
04
FD
06
01
01
FA
F8
F6
FC
F3
04
08
01
FC
FF
04
F6
FF
0D
04
FA
F4
F1
09
FB
F1
FA
F7
FC
02
02
FC
F1
0B
08
08
04
FF
09
FC
00
FD
F7
05
F8
FE
F8
FF
FB
04
F8
FE
04
FA
FD
F3
07
00
FC
02
FC
09
FD
F9
FB
02
F8
FF
F9
07
FF
FF
0C
FE
07
FD
FA
02
FD
FD
09
F7
F7
F5
FE
F2
01
00
05
01
FD
03
F8
01
0A
FE
F7
F8
FA
02
F0
F5
07
01
FD
FD
F6
0F
FE
05
00
FB
FF
FE
04
F9
FC
F5
02
F6
0A
F8
FF
0C
EF
02
F2
04
FA
F4
00
FA
FE
FD
06
00
FC
F9
F8
0B
FC
F4
FC
02
FC
03
07
00
F8
07
F6
FA
EB
FE
F5
FE
F8
F6
F9
FE
00
FE
FB
FD
F5
02
03
07
F7
FC
FD
0C
F9
00
02
FB
F9
F8
FF
FE
FE
03
09
FE
F4
FC
FC
FB
F9
FB
00
01
0A
F5
F1
FC
05
00
00
00
FC
02
0B
FB
FD
09
FC
FC
FD
F8
04
FA
FA
00
04
FF
02
00
FF
02
FD
0B
FF
FB
FB
FF
00
FE
04
F5
FC
F3
F4
F9
FC
FE
FC
0C
FE
FE
02
F9
FA
03
06
FF
FD
FE
01
FB
00
F5
F7
04
F8
FC
FF
0C
F6
06
F9
04
00
05
08
FA
FC
03
03
F5
FE
FC
FF
FC
F2
FF
04
FD
FE
F6
FF
04
06
01
03
EF
02
F7
00
01
F6
FB
06
03
03
00
03
F6
08
FC
0C
FF
F4
F9
F4
FB
00
08
F3
05
F9
01
F0
F6
07
F4
FE
F9
FF
04
FE
F7
00
00
06
FC
FF
F8
FB
F2
FA
FA
F6
06
01
03
00
FA
03
F8
FE
02
FB
06
F3
F8
F1
FA
FD
F9
F7
01
00
04
02
FF
04
03
F6
02
F4
FC
FD
F0
02
F7
02
06
06
02
FA
FD
03
02
04
01
FE
FB
FD
F8
F7
02
05
FD
08
F9
F8
FC
06
FF
00
01
02
01
00
FC
F8
FC
04
ED
05
FC
F5
06
06
F4
FE
00
FE
07
FA
05
FA
FF
F5
F6
FC
FC
00
F7
FE
FA
FE
F7
01
04
02
FD
01
08
F7
04
F9
02
F3
F5
02
08
F4
FE
FE
FA
FF
F8
FF
F3
05
02
F2
00
00
FF
FC
FF
FF
03
05
F5
FE
01
07
FC
01
F6
FD
FE
F9
FD
F3
FF
03
F6
F6
02
F9
FF
F9
F1
FF
FB
FD
00
FB
FD
F4
F2
FE
FF
00
FB
08
01
FF
F4
00
02
FC
FC
FA
03
00
00
FA
FF
F3
FC
FF
01
03
F9
03
07
00
FC
05
FE
01
F5
F4
F1
FF
0C
F0
06
01
00
EA
02
F6
00
F1
FC
F6
ED
FE
02
FC
F4
F6
F4
FC
02
FF
09
FB
FB
F2
E7
F0
03
EE
04
05
05
F4
F8
F5
F9
F1
08
F4
FD
04
FC
EE
00
FA
07
02
F3
FC
04
F8
01
03
F9
05
12
F6
F9
FD
F1
F8
FD
F0
07
F7
FC
FE
FF
F3
FB
FC
F7
FD
F2
EC
FA
04
FC
08
FA
07
FA
FF
03
F6
F9
F6
F8
F7
03
F6
FF
FD
F9
F9
FE
F2
F5
02
02
F7
FE
FB
09
0C
09
FE
F2
F2
F1
02
FE
FE
00
F8
03
F7
0A
FA
03
ED
F9
FA
FF
08
F8
08
03
FF
ED
FD
FF
F7
00
FC
F1
F6
04
F9
03
0A
07
F7
F7
09
F7
F7
FC
0D
EF
FB
FA
FB
FA
F1
07
06
F9
F8
FB
07
FF
FE
EE
FB
05
07
F3
0B
04
EF
F8
04
F8
0C
F8
FA
0E
F2
0D
FA
FB
F7
EF
EC
FC
FF
F2
FD
01
FA
06
F8
F4
02
04
FD
03
FD
04
09
09
01
FE
F3
04
FF
F4
04
FE
F7
F0
FB
F7
00
F5
01
F0
F0
F5
FD
FB
FD
05
03
EE
F7
FB
F7
FF
02
F3
EC
F8
FD
FB
FB
FA
FA
F1
F6
F4
05
EF
FC
02
02
EE
F4
FC
F7
03
07
FE
ED
FB
01
FD
02
00
FF
F8
F9
FE
00
01
06
08
F7
F9
05
02
03
08
05
FD
01
00
04
FE
01
04
FA
FC
F6
FC
FE
FD
00
FF
03
06
F7
FE
FF
04
FC
04
01
FD
F9
F3
FC
01
FE
FF
F8
FA
FC
00
FF
F5
01
FD
FB
FC
02
FA
FE
FD
02
FE
FE
05
02
08
FF
02
FB
02
06
04
FD
FC
01
01
F8
FF
FD
F9
FF
00
F6
03
FD
00
FD
FC
03
FD
FA
FD
FF
05
05
FA
07
01
05
F9
F8
F9
02
00
FE
FA
02
03
F9
01
FA
00
04
F7
04
FC
05
F9
01
01
FD
FC
01
FA
FE
FD
F8
00
FF
FA
FE
03
FE
FE
08
02
FD
F8
F9
09
F9
FF
FF
FB
FA
0D
01
02
02
01
FD
FB
FB
FA
08
F9
01
FE
06
09
FE
FF
F0
07
FA
02
00
02
F9
05
F7
0E
FC
FC
FD
00
01
FF
00
04
F2
03
02
02
F5
FD
04
03
02
07
00
05
02
06
03
00
FF
F8
02
FE
FD
FD
02
04
04
FC
02
08
FC
02
FF
F8
F8
01
08
F7
F7
04
FD
F3
03
06
03
FE
05
FB
FC
F5
05
07
02
FB
FF
FD
03
FD
0B
FB
02
07
F5
FE
FF
FD
06
FE
FF
F3
FF
01
04
01
FE
FC
FF
FF
FE
FD
FD
01
FA
03
FB
FC
FD
FD
02
FC
FD
FF
FE
00
FE
FD
00
00
01
FF
FB
FF
FB
FF
01
FB
FF
FD
FE
FC
FD
02
01
00
02
00
01
01
FB
01
00
01
03
02
FB
FF
FD
FF
00
02
FF
02
FE
00
FE
FA
FC
FB
FC
01
FD
FD
01
FF
01
02
03
FB
02
FF
FD
01
00
FD
FB
03
FC
01
FD
02
FE
00
01
00
00
00
FC
00
00
FE
01
FE
FB
FC
00
FC
03
FB
FD
FE
01
FD
02
FE
FF
00
FD
FF
FD
FC
02
03
FE
FC
FB
02
03
FF
01
FD
01
FD
FB
FB
FD
00
FE
00
FF
01
03
FB
FD
FC
FC
01
FC
02
01
02
FE
02
01
FE
02
FF
FD
FB
02
01
FE
FD
FC
FD
FF
01
02
FC
FD
01
FB
03
FE
FE
FE
00
FF
FC
FF
FD
FC
FF
FB
00
FD
FC
00
01
FF
03
FC
00
FE
01
03
00
FE
01
FC
FF
FF
FF
01
FD
02
FB
02
FF
01
FF
00
01
FC
00
02
FC
02
FE
02
01
00
00
02
FC
FF
FC
03
FF
FF
00
00
01
01
FD
FC
02
FD
02
FE
FF
FE
FB
02
00
FD
FE
FE
02
01
00
00
00
02
FC
01
FD
FD
FE
01
F6
F2
F7
0B
05
04
FC
FE
02
05
F0
F5
FB
F2
04
FC
FB
F5
F5
03
0B
F7
EF
01
08
03
05
FD
01
01
00
F5
08
F8
F4
FB
F6
F9
03
0C
05
00
FA
09
05
F2
01
0A
02
04
FA
01
F6
02
00
FD
01
F9
FB
FF
01
FE
08
FB
FE
07
F9
FC
01
F9
FC
F5
FD
01
08
F8
EB
06
05
FC
02
FA
04
FF
04
FB
FF
03
06
F9
FA
F7
05
FF
07
F6
04
FB
08
F1
ED
F9
EB
FF
FF
FF
FF
05
FC
FC
00
02
FE
FA
F6
F7
02
FE
FC
F9
FA
F7
F5
04
FF
F7
F7
09
F9
04
00
00
02
F8
F8
00
EC
04
00
F1
EF
FB
FD
04
F3
02
06
F4
03
FF
08
F7
F5
F0
F0
FA
04
F6
F8
F9
06
FE
FA
FF
F9
F6
09
00
F3
FC
FC
FA
F4
F5
06
01
0D
05
FC
01
01
FE
F8
F8
00
01
F6
FD
EE
0B
03
FD
FD
F4
F0
FE
F6
F6
07
02
00
F8
00
FA
F1
FD
F9
F3
F3
FE
03
FC
03
F8
00
07
00
07
F7
08
05
09
F6
EC
01
F6
03
03
07
F6
04
FB
08
07
FE
F4
07
F3
FA
FF
F6
0B
ED
01
0A
FC
F8
00
FA
03
FC
00
07
03
FD
04
01
FC
FD
F2
08
F7
06
04
00
EE
FA
03
06
01
FB
FA
FA
03
FD
F5
00
04
05
F8
EC
F4
EE
F8
F9
EE
F5
F4
08
FB
FE
FE
04
0A
08
FE
00
FE
08
F6
FE
06
F8
FA
08
F7
00
04
F6
03
F8
FE
FC
FF
06
FC
F9
03
F7
01
09
04
FA
FE
F2
02
01
F6
F7
00
FB
03
FD
FE
F8
02
FA
0C
FD
03
FF
F9
F8
F7
FC
06
00
02
FF
FE
F0
00
FF
08
F4
FD
F5
FF
FE
FE
F8
00
F9
FB
F8
F8
01
F5
01
FD
F2
FF
01
FA
F9
09
05
F9
F4
F9
05
F4
08
01
06
FC
EB
FB
F9
02
04
FA
03
F9
F8
FB
00
FE
F4
00
01
00
F3
FD
F5
F9
FA
FE
F8
FB
09
04
FD
EF
0A
04
F7
02
F3
04
02
FD
EF
F6
06
05
07
07
FF
F0
F7
00
FE
FC
01
05
FD
02
01
00
06
07
FF
00
03
F2
F3
02
FB
FB
FD
05
FE
03
05
06
03
04
04
0A
FF
F8
06
00
07
04
04
05
FB
02
00
FF
FD
F7
05
FC
0C
FB
FD
02
00
04
FA
FA
FA
00
02
07
FA
F8
05
F9
02
FF
01
FF
00
F5
FF
FC
FD
00
F8
F9
E9
FA
F1
FE
FC
F9
07
FD
F6
01
FC
F5
07
02
02
02
00
00
03
04
0A
FE
F9
FD
FC
06
06
F7
F7
03
04
FC
F4
02
02
00
F7
00
F9
00
01
FD
01
03
FE
08
FF
04
FB
01
01
FE
F7
00
02
02
02
F6
FC
FB
00
FF
F7
FF
F5
F7
FE
03
F9
02
00
02
FE
03
05
03
EF
09
FE
F9
FE
FF
04
05
FD
00
F6
F9
00
FF
FB
FB
FD
FF
02
03
F3
FF
FD
FA
F8
04
FA
03
06
03
03
05
FF
FD
FD
F7
F7
FD
FD
FF
FB
F7
FC
F7
01
F8
FD
01
05
FB
FD
07
02
05
03
F5
00
FC
FB
01
F9
FB
02
FE
FE
02
02
FE
08
09
FA
F9
00
FB
F5
06
05
02
F8
F4
00
F6
09
FD
FE
06
02
05
FD
FC
02
05
FB
02
FD
F8
00
05
F0
01
00
02
FD
FA
02
F8
03
FF
01
FC
01
FF
FA
04
F9
00
03
03
FE
01
03
03
F6
FD
FD
FE
FC
03
F9
00
FA
FE
FF
04
FD
FA
01
01
00
00
FE
FC
00
07
02
FC
FE
FC
F6
FA
08
04
07
FE
FF
FD
02
00
06
F7
FF
02
FB
FC
01
02
08
FE
FA
03
00
05
01
05
00
F8
02
FE
FB
FB
FE
FF
FC
FD
FB
FD
00
F7
F2
F8
00
FA
05
02
FC
FC
03
03
FE
02
09
F8
05
F7
F6
00
01
FB
FB
FB
01
FB
FD
06
07
FE
FB
02
FC
FE
FF
FD
F8
00
FB
FE
FA
03
00
01
06
05
FE
F3
FB
01
F8
FC
FF
F5
08
FF
F9
03
FA
FD
02
05
00
02
FF
FF
FC
00
F9
06
FA
F4
02
05
03
F3
03
08
FB
F9
F5
06
00
FA
FD
03
03
07
04
01
FD
FC
FF
F6
03
03
00
F9
FD
06
0B
FA
FB
01
00
03
F5
04
FE
03
FD
05
FD
04
FD
03
01
F5
02
FD
FE
08
FA
FC
F0
F2
00
01
04
00
FB
F6
04
F6
F7
FB
00
FF
03
06
04
02
FF
00
F1
05
08
FE
00
F0
FC
FB
08
FF
00
04
F8
00
FE
F8
FF
02
F7
FB
01
F8
FB
FA
F8
F2
01
FC
FB
FB
05
01
02
F5
06
01
FA
F7
FF
FF
F8
04
09
00
03
03
FB
FC
FD
FC
05
FE
FB
FF
04
02
03
00
FB
05
F9
00
FD
03
01
FF
FC
FD
FC
05
07
FF
FD
F9
F7
F4
FF
0B
F5
F2
F5
F9
F6
FF
01
FD
05
08
00
03
02
05
05
03
F8
03
06
03
FB
05
F8
F7
05
02
FA
00
04
FE
00
02
FB
04
FC
02
FB
03
02
F9
FF
F9
F4
04
FF
00
06
04
FE
05
02
01
09
02
F6
FE
FA
00
00
02
F8
FE
07
FA
04
06
FC
03
FF
F7
02
03
00
FF
F8
FB
FE
F7
00
01
FF
F7
FB
FB
FE
F7
FD
FD
00
FF
01
FA
07
07
FE
FB
F5
F7
F6
05
04
F7
08
02
02
07
01
01
02
F8
FC
FA
04
FB
F7
FB
F5
08
FD
01
04
FD
F3
F6
FF
FF
03
05
F6
01
F4
0A
F6
FF
01
03
03
F7
FB
FD
01
FC
01
05
05
EF
FF
FC
F6
00
04
04
F4
03
01
00
06
06
0A
00
F9
07
FC
FE
F7
00
06
FF
03
FD
01
F6
06
F8
FE
05
07
F8
05
FF
00
ED
00
FE
FE
FD
FD
03
06
FE
FF
05
F0
0B
F6
F2
F3
F7
00
F9
FA
07
FC
FC
03
FE
F3
F9
FD
06
F1
F6
FE
04
F0
03
06
03
01
FC
FD
07
03
FD
00
00
00
03
06
FC
01
FB
00
F5
00
FA
F7
FC
F4
FA
08
04
FB
04
02
FD
F7
01
FC
00
FC
02
FD
F8
06
08
01
F9
0A
0C
F9
FD
F2
EC
FE
FB
F7
F8
06
FD
F7
03
FD
07
FA
00
03
FC
00
02
F6
FD
00
FA
05
04
FC
F3
FB
F7
02
FD
FA
01
F5
FD
08
FE
F7
01
01
09
FC
07
03
FA
FB
01
03
05
F9
F7
F4
F3
F7
FB
F2
04
07
00
FE
03
F7
FD
00
FB
F6
01
F9
FF
04
03
03
F3
04
0A
F5
F8
FC
FD
05
F8
F8
FD
EF
FE
FD
F9
FF
F5
FE
FC
F7
FD
04
05
02
02
07
04
F0
08
FC
EF
00
FF
0A
FF
FB
FA
FC
F9
06
02
FC
00
00
02
FF
00
FA
FE
FC
F9
F6
07
FE
07
F8
04
04
FF
FE
F4
FF
F2
F8
F6
F6
08
00
F5
00
EB
F4
FE
02
FF
F3
F7
FF
FA
01
08
03
FE
F6
F9
FB
05
ED
FA
07
FE
00
FB
FB
FB
03
05
F2
F6
01
00
FA
04
03
01
00
F1
00
00
09
05
FA
F3
FE
01
FD
01
F8
FD
06
F4
FB
FF
01
09
F2
03
00
F2
F9
F5
F9
F7
FE
00
0B
03
F1
02
FF
FB
FC
FB
08
09
00
02
F7
08
F0
F8
01
FA
01
F4
EA
EE
02
FC
FA
FA
F4
FA
FF
0B
F2
FF
FA
04
01
FE
FD
EF
FF
FE
F8
02
05
11
06
04
05
04
FC
FA
FF
F3
FE
F0
FC
FB
02
07
FD
FC
F6
FA
02
04
FC
03
FD
F3
FA
00
FD
F5
07
01
EE
F9
F8
F3
FC
04
01
FC
FE
FE
FD
04
FB
FB
F2
F9
FE
05
0B
07
F8
FC
F9
FD
0A
F9
FB
02
F3
F6
FC
FB
01
04
08
FC
F6
06
FC
02
FD
FD
FD
04
FC
F8
F8
F0
09
FE
FA
04
02
FF
FD
F9
F7
06
F2
00
FE
FB
FB
FD
FC
00
F9
F3
FE
FE
00
F2
00
FF
FE
00
F9
FA
04
FC
FE
01
09
F1
03
F7
FB
00
F4
FC
01
F7
05
0A
F6
FE
FF
F6
F9
00
FE
F3
FD
05
FD
01
01
01
03
FE
00
F7
F4
03
FD
08
FB
01
F8
FE
F5
F9
FF
F7
03
09
09
FA
FD
02
03
F5
F7
FD
FC
FA
01
FD
FD
FE
F5
07
00
01
FB
FA
01
04
05
FF
05
FA
FF
0B
02
05
FE
02
FA
FD
FF
FD
F8
00
FA
02
02
F6
F6
F8
FB
02
FE
02
05
F5
F7
F7
06
F1
04
FD
00
02
ED
02
01
FF
FF
FA
02
00
FF
FF
05
FC
F8
03
FE
FF
06
03
F9
F6
FF
F1
F8
F2
F8
07
F5
02
F9
F9
FC
01
FF
FA
FD
00
F8
FA
07
04
F7
FA
FE
FC
F5
06
FD
F9
05
03
FD
FF
F9
F4
04
04
00
F5
F5
FC
FF
02
FF
FC
06
F8
00
04
06
FF
FF
F8
F2
0A
FF
F8
00
FF
F5
E7
FA
F8
FD
03
F2
F6
F4
01
05
FC
09
FD
01
FC
FC
0B
0B
FF
03
0A
F6
06
FC
05
07
09
01
01
04
06
EC
03
E8
FD
FE
F9
FA
00
FF
FD
05
01
FF
EE
03
04
F2
FE
F5
FA
FA
F7
F3
F6
FC
FD
FA
07
FC
F1
F9
FA
EE
F2
F2
FF
FD
02
F7
FD
FF
F7
06
F7
02
F7
F8
F6
F8
F5
F7
FC
01
00
04
06
01
F8
FA
F2
F9
F9
FC
E7
FE
F9
04
05
05
FD
FA
04
00
FE
01
01
F7
06
FB
08
FA
FA
FB
03
03
04
04
05
F8
FE
07
F7
02
01
F1
01
F8
03
0A
F8
05
FB
F6
00
FD
00
F9
FB
F9
03
05
07
09
02
F9
F5
0C
F9
06
01
F0
0A
F6
F9
F1
FC
F7
07
FA
F8
FA
F4
F6
F7
04
F5
03
F9
FA
F3
0B
F8
0A
FC
01
FB
01
FA
FA
06
F6
03
07
F9
F7
07
02
04
FD
05
EF
F7
F9
03
FA
F3
F1
F4
F2
F7
F9
F2
E6
02
FD
EA
01
F0
F3
01
03
FF
F7
FB
00
FD
EE
04
F1
F0
FF
00
EC
03
07
00
02
F6
FB
F1
05
05
FF
FC
FA
02
01
06
F6
04
F9
FE
05
00
02
0A
08
F7
F7
0B
F5
F5
F3
F8
F4
08
FC
01
FD
05
F7
FF
01
06
F9
FB
00
02
03
F8
FC
04
F9
00
FE
FB
F2
FF
04
06
08
09
FE
08
FD
F3
03
F7
04
F8
F9
FA
FD
FD
05
F8
01
07
FE
FF
02
00
06
F7
01
04
FE
FE
08
FF
F8
F3
FA
03
02
01
04
01
FD
03
0A
03
FD
FE
FF
FE
FF
FB
02
F7
FA
FC
00
FD
01
FA
05
FE
02
03
FD
FF
F9
FB
05
FF
F2
08
04
05
F2
F9
0A
F6
F3
FC
FB
FD
FE
FC
FA
0A
03
FD
02
F9
FA
F4
FF
FE
FA
FE
F4
FD
00
FE
FA
FE
FE
FB
FC
F9
EE
FA
06
00
00
FD
F5
F9
01
FC
F8
F6
FF
F8
04
00
FD
FB
09
03
01
F6
FF
03
0A
FD
F8
03
FD
FA
F3
FC
04
F8
FB
F9
FD
05
FE
F6
F9
F4
FD
F7
F5
FD
01
F9
06
0D
F9
06
F2
FA
FE
00
FE
02
FD
FB
02
08
00
F5
06
02
FA
F4
FC
EF
05
FC
FE
FB
EE
FF
08
02
F4
03
F2
02
FD
01
04
F7
FD
03
08
FA
04
07
02
FF
03
FC
00
F8
02
02
FF
ED
FB
F8
02
05
FC
05
FC
F4
02
FD
F9
04
01
F5
06
04
FD
FE
05
02
F5
FD
FB
F6
00
04
FC
00
03
04
03
FD
FF
FC
FA
05
F6
FA
FC
F4
03
FA
FD
00
FE
08
01
FB
FB
00
04
FF
02
F5
FA
FE
FB
F8
FC
FF
04
FE
FB
FC
00
04
0A
FA
FC
03
04
FD
FC
08
FE
08
01
FC
FF
FA
00
F9
00
FE
FA
FA
FB
FA
06
04
00
0C
FD
FE
05
F4
F7
00
FA
FF
05
00
FF
FF
FD
03
02
FD
01
F8
00
07
FF
F6
02
FB
F8
01
07
05
FF
FA
03
FF
02
F8
F8
FE
F8
FE
03
FD
01
03
03
FF
FF
F9
F8
F6
02
F9
00
FD
02
01
FD
FA
FC
FF
04
FA
FE
01
FF
FE
04
00
FC
FB
FC
FE
F7
03
00
FD
F9
F9
FC
F9
00
FE
0B
FE
FA
06
06
FC
01
07
F9
FD
03
00
FF
00
03
01
FB
01
02
04
01
04
FD
06
05
FF
F7
01
01
04
04
02
05
FC
04
03
02
00
02
F6
F9
02
04
FD
01
FC
03
01
FD
05
00
FD
02
FF
FF
03
07
FF
F9
FB
03
F7
F8
01
00
FF
09
FC
F8
FF
F5
02
FD
06
FF
06
FA
FC
00
03
02
04
07
FD
01
03
FE
FE
02
FE
01
FB
F9
09
FE
05
FA
F9
03
FB
FB
FD
FE
05
00
FF
00
04
01
03
FB
FE
F3
09
F8
F3
FB
0B
F5
FB
FD
03
FD
01
02
F6
03
08
FC
FC
0C
FC
F9
06
03
FF
05
FE
FA
03
FF
01
04
F2
05
01
FB
FB
01
FB
FF
FE
07
F8
05
01
03
FF
F5
01
FE
01
FB
EE
04
F4
F8
F7
02
05
F7
ED
F9
EF
FE
FA
FE
FC
FA
00
F8
FF
FB
F3
F9
F8
05
FB
F1
F6
EF
FD
FB
03
F8
FB
F3
08
02
05
F8
04
FF
FA
F9
F9
03
F7
00
FD
01
FB
F7
05
F9
F4
FF
0D
0B
F8
04
01
FD
F6
01
01
FE
0A
01
01
00
FA
01
ED
01
FA
FD
F0
FC
04
FE
FB
00
00
F7
EE
F6
F8
FC
FD
F8
01
FA
08
01
06
0A
07
0A
F8
F6
03
04
FD
F6
FD
EF
00
F7
F5
F7
02
FF
EF
01
FF
08
FC
FA
F4
F8
FB
00
04
F3
FE
01
06
F4
05
FD
03
ED
F3
FE
02
EC
F7
FE
06
0A
FF
FF
F1
F2
04
F2
F5
03
F4
F8
EE
FD
FA
FF
FE
F9
F5
FF
FD
FA
FE
F6
FA
F2
FD
07
F4
F9
01
FB
F8
04
FB
F2
FA
F8
F8
F6
F7
01
F5
0B
FC
F5
03
FC
FD
07
F9
FA
FD
01
FB
01
0C
F2
09
02
00
FB
09
FF
F2
FA
ED
FC
F7
FB
06
F8
FE
FC
FB
06
F1
FA
05
06
02
F8
F8
FC
FD
05
02
03
FD
EC
FC
07
F9
F2
06
03
FB
F6
FC
FA
00
FD
03
04
01
F9
FC
FB
F7
07
FD
02
03
FF
F8
F2
06
F2
04
F7
0A
00
FC
F6
02
FE
FD
07
02
F8
FD
F6
01
F2
F9
09
FC
03
FC
02
06
FA
F5
06
FA
0B
F8
F8
F8
04
FD
F8
EA
04
04
02
05
FB
F8
06
EF
FF
F4
00
00
EB
FC
FA
09
04
05
01
F6
FE
02
03
03
FB
FF
09
03
F5
FA
FF
04
F6
05
F9
FC
FC
09
FF
F5
FD
FC
FB
07
FC
F7
F8
07
EF
04
F9
F3
FD
02
00
FF
04
F7
FA
FA
FE
0A
00
F4
F1
FB
FD
FA
F6
FE
FD
F6
F7
FE
07
02
F4
06
01
F3
07
EF
0A
ED
FB
07
03
F7
F9
FC
F9
FD
F4
00
F3
03
FE
F1
FD
02
07
F7
02
FD
04
03
F3
FC
0A
FF
F9
FA
F6
05
05
F4
FB
FA
FF
F6
F5
FF
FD
F4
04
00
F8
07
0A
06
07
04
F4
EB
F8
F9
F8
F6
F5
02
FC
0A
FE
FC
FC
F1
02
F9
FE
FA
F9
F6
00
ED
F6
FD
07
00
02
04
FB
06
F4
FE
04
08
00
FB
F8
01
F5
02
F6
07
00
F2
04
04
F8
01
FE
02
FA
04
08
00
04
01
F4
00
09
F8
F2
04
FF
FE
06
FE
F9
09
FD
FF
04
ED
03
00
F8
FF
FC
00
FF
F2
FD
02
05
FD
03
FF
01
FA
FD
FD
00
F2
FF
F7
FA
00
FA
04
F8
F9
F9
02
05
FB
06
FE
FB
06
FD
02
00
EF
F8
FF
FF
FE
F3
FC
F4
05
00
FD
FD
05
F3
FC
05
06
FE
FE
F5
06
F5
06
FE
FD
00
00
FE
F2
F8
03
FF
F8
F1
05
04
F0
02
FE
F7
FA
05
03
01
0A
FF
F8
04
04
0A
F3
F9
05
01
F9
FA
02
0A
FC
07
FE
00
F0
05
EE
F9
F7
FE
02
04
04
FB
02
01
01
06
F9
FF
02
00
02
FD
FF
F8
01
FB
F7
ED
F8
01
F8
FA
06
00
F3
FD
F7
FB
F5
FE
04
EC
FA
04
04
F6
03
FE
00
F8
FC
FE
07
F7
00
01
06
04
FE
02
F8
F8
F8
F8
F8
04
F6
F6
FD
F7
FE
00
08
FE
FD
FF
06
F4
FA
FE
00
F9
FD
FE
FC
00
03
05
FC
07
00
F1
F7
ED
EA
FE
F8
00
F9
09
FF
FA
08
FD
FF
04
FB
FF
F5
02
F4
F5
06
F5
05
07
FF
00
F8
FC
F9
05
FC
F4
F5
00
FA
F6
08
F7
FB
FF
02
04
01
07
02
FA
FD
FD
FC
06
FB
00
03
F8
FD
03
01
00
06
FF
08
02
01
F8
01
F1
F9
F8
01
F5
FB
F1
F8
0A
05
FA
FC
02
F7
FC
F6
F2
FF
FE
02
FF
01
F9
FB
F5
0D
01
FF
FC
03
F3
F2
F9
F8
FE
06
F9
02
FC
FE
05
FB
03
F7
FD
F3
F3
F7
FC
FE
FA
F3
04
07
FF
F9
F5
F7
F5
F8
02
F3
F9
FF
F8
08
05
06
08
03
00
FC
F9
01
FD
05
F8
01
F9
FD
FA
FE
FC
FD
04
08
FC
04
03
F8
FF
FC
FA
FB
F0
FC
01
FE
02
FC
F2
04
06
F6
F9
F7
FA
FB
00
07
06
FF
FA
01
FD
F6
F9
FD
FB
F9
FC
06
F1
FF
F2
FF
F8
F0
00
FF
FD
FC
FF
01
00
F4
FC
FC
05
F9
04
F9
FB
FF
F7
00
F7
FC
FE
FA
04
08
FE
F9
FF
05
02
FB
F2
06
01
00
FD
F2
F7
01
FB
F5
F4
FB
FA
02
F1
FD
FA
FD
F9
FE
FE
03
FD
02
03
FF
F4
F2
01
F5
F7
0D
F6
01
06
FE
01
F4
F8
FD
05
02
FE
F3
FA
01
F5
FE
FF
01
07
F4
00
FE
07
00
04
F9
FF
07
F4
F4
F8
FB
F4
FF
04
FA
F8
07
FC
FD
06
F8
FB
FA
05
00
F3
FD
06
FD
F3
0B
FB
FB
F8
06
02
EA
F8
07
FD
03
F5
F8
01
F6
FE
FF
F6
FC
FF
0A
F4
F4
FF
03
05
FD
03
ED
FF
F4
F6
00
F2
05
01
02
F8
FE
F3
03
FB
06
05
FF
F4
F6
F9
03
01
FD
07
F4
04
01
0C
FC
F4
F9
07
F6
00
F5
00
02
FC
EE
03
FA
FF
F4
FD
02
EF
FA
0A
FD
EF
07
E6
F7
FD
FD
01
F1
0B
F9
EA
FD
FE
06
01
03
00
03
00
08
FC
FD
FE
05
F7
04
04
08
F9
FC
00
FA
F1
02
FB
0A
08
FB
FA
FD
01
E6
F8
03
00
01
08
07
05
04
FB
FA
07
F0
F6
F4
FA
F2
FD
0D
F4
FA
F7
FB
02
F2
FB
05
FC
F8
03
ED
FC
F5
EE
FA
F8
F8
FE
F8
F7
FE
F3
02
F3
F9
0C
F0
07
01
FE
FC
F5
07
EF
FE
F8
07
00
FC
08
F7
F6
07
FD
F5
EB
F4
FE
FA
F3
01
F9
F7
FF
F6
F2
F2
04
04
FE
FD
FB
F1
FE
09
01
FD
FE
FD
00
FC
F0
EF
F7
F8
05
FB
FF
F6
01
FF
02
E9
04
FD
FD
F2
EF
FD
06
07
F2
05
EC
F9
F8
F7
F3
F4
05
FD
02
F6
F8
00
09
FF
FC
F9
03
05
08
02
02
03
F6
FD
02
FC
FD
06
FF
F9
F6
FF
01
00
FD
FF
02
FE
05
02
01
FA
03
05
FE
FC
F8
04
FE
FB
01
05
00
00
02
01
05
05
00
03
F6
05
F8
FE
03
02
FC
FE
F9
07
03
FB
00
FE
F7
01
06
03
FD
02
FD
FE
00
FA
02
06
FC
04
F3
FB
FD
FF
02
01
FC
FE
00
FB
FC
01
F7
FB
05
05
FB
0B
06
FA
FF
FF
F2
FF
04
FA
F6
F5
01
01
03
02
FF
FA
04
F9
FA
07
04
01
F7
FD
06
FF
01
FD
01
FD
FF
FB
F7
00
03
03
02
FD
FD
00
FD
03
F8
FB
02
04
F5
08
F7
00
FA
02
FA
03
05
FF
FA
FC
04
02
FE
03
FD
FF
F7
04
FB
00
03
02
05
02
FD
00
00
05
F8
01
01
FF
02
01
02
02
00
FE
07
02
04
FC
FB
FF
02
F8
01
07
FE
01
FF
FF
FF
01
04
06
FA
01
02
00
02
05
00
05
FF
01
01
FB
03
02
FB
F2
05
FD
FC
05
01
05
FF
FA
FF
02
FB
05
F8
FF
05
FC
02
05
01
FF
02
F6
03
03
00
04
FE
F4
FE
F7
00
04
FE
05
04
FF
F6
06
E9
01
FA
F7
F3
06
F4
F3
07
05
FA
FA
F3
04
03
FE
F9
F6
F5
02
FF
FD
EF
EA
FC
F7
F6
05
07
00
F9
FD
03
FD
08
04
02
FE
FC
05
FE
01
FB
F0
FD
F7
02
06
00
F4
F5
F9
F6
06
F5
06
0A
FB
EC
FC
FD
FD
05
03
08
FE
F3
0C
FC
F7
F7
02
F4
00
05
FE
F6
00
F1
01
F8
FD
F2
F1
F5
F1
02
0D
FF
01
06
FA
F8
05
06
FF
EE
08
0A
F5
FA
FC
EF
FD
FD
F3
F7
EA
FF
FD
0A
09
03
03
FD
FE
F8
F9
03
06
08
EF
FD
FD
05
F4
00
F9
FA
F8
02
08
04
F9
04
F6
F7
F9
FD
F8
F3
01
FA
FC
F6
F8
F8
FC
F2
FB
FC
F9
02
FE
F2
02
03
F6
F8
01
FF
FB
FF
04
F2
03
04
F3
EB
FE
FD
F2
F3
F6
FE
F5
F8
FF
FA
FB
F4
F3
F7
08
FC
F8
FD
FC
FD
06
FF
F2
FF
FC
F8
FE
F5
FD
03
03
F9
F7
FF
F5
06
09
0D
FD
02
EF
EF
F7
FA
F8
F7
F7
0D
F3
09
FA
09
00
F4
FF
F0
F9
F4
08
02
F8
F8
FA
F7
FF
FE
0A
03
F8
00
EE
F9
05
F9
F7
EF
F6
F2
F5
FC
F6
FF
F1
F2
FB
04
FD
F3
FC
04
03
FF
FA
0B
F3
FA
00
FE
0A
FC
00
05
00
08
F9
FB
FA
F3
FB
03
01
FF
0B
FE
FB
F5
FE
07
FC
04
04
FE
F5
F9
FC
FC
FD
05
F0
F3
02
01
F2
F7
F5
FF
04
FE
08
04
F8
F5
F3
F1
F1
03
04
EF
F5
F4
F6
FB
04
FE
F9
02
02
03
01
FC
FA
04
ED
07
FD
F2
ED
06
03
FC
FA
FF
09
FB
F6
00
FE
FB
FC
FF
F4
F7
00
01
F8
EE
09
03
03
FF
F8
FF
04
FE
FF
F7
F8
F8
FB
FC
F5
F8
FD
F4
F9
FA
F9
FB
00
FD
F7
FB
00
F6
FA
F9
FD
FF
F9
EF
00
F4
F1
F9
04
02
04
FF
FE
FB
FE
F9
06
00
F8
F2
05
0C
FE
F1
FD
F5
FB
EF
F5
FF
FD
FF
04
04
FD
FE
F2
00
F7
F9
03
02
FF
E9
FF
04
05
F8
01
F4
FD
FD
FB
FA
F8
06
F5
08
05
05
F9
FC
F7
06
F8
F7
F8
05
0A
FE
F9
F9
06
03
07
F2
00
F5
00
FB
09
F3
0A
0B
0B
08
FE
F2
F8
EF
EF
F2
F4
EE
FC
E8
09
F3
FB
F4
FF
01
01
FC
00
F2
F9
FF
FC
F6
F4
0A
FD
FC
06
F5
F8
00
01
03
05
F7
FB
FF
04
F5
F1
02
08
FC
FC
FA
09
F4
EA
04
03
0A
01
F5
F8
03
02
01
01
04
0C
FC
FE
0A
F0
EE
05
09
F7
07
FE
EE
02
05
04
06
09
FE
F0
F0
FF
0B
F4
04
07
FE
F6
FF
01
F6
07
F1
02
FD
F6
F1
02
05
03
01
EB
FA
F9
03
F5
F9
F9
0A
06
F9
F7
FE
FD
FB
F9
05
FE
05
F2
EC
FA
F7
FF
F7
EA
FF
FF
FE
00
01
FC
02
F2
01
F6
08
00
EB
07
FD
06
01
05
01
ED
FB
02
FF
03
00
FD
FD
F8
F5
03
07
FC
F6
05
02
FE
03
FF
07
F3
FE
FE
04
FC
EE
FB
FB
0C
F8
04
00
E9
FD
FC
F2
F4
02
FA
FF
FC
02
07
FE
F7
F1
F8
F8
F9
FC
05
F3
F7
FA
FB
01
00
ED
FB
FC
FD
05
FD
09
F2
F4
FE
FF
F2
F8
01
F6
FE
F7
05
F4
FF
FC
E7
FD
03
F9
FE
02
FA
05
0B
FA
02
03
09
FC
F5
EF
F7
FA
F6
FD
00
F4
F1
02
F4
09
FC
FF
FB
F5
07
F8
FC
0A
02
FE
F6
08
F6
FC
02
F6
07
FC
08
EF
FF
FF
EF
FD
F8
FE
F6
04
05
06
F0
01
F8
06
FF
FB
05
06
00
F1
F8
FA
08
FD
F0
FB
F9
03
06
00
FE
FE
01
03
FF
03
FC
FA
06
01
03
FD
FC
FD
FE
00
F9
F5
00
00
F8
04
00
FE
01
FA
FA
FE
FD
FF
FD
02
02
FF
04
F6
FD
FB
00
05
F7
FD
08
F8
F9
03
FF
02
06
FE
FA
04
FD
FD
FD
00
03
01
03
FE
03
FD
07
02
FA
01
02
01
01
FB
FF
FC
07
05
00
00
05
02
FA
06
F4
F8
01
F9
FB
F8
F7
FD
00
05
03
FC
FC
02
FF
02
FC
F8
FD
03
FE
F9
03
02
FA
FF
FB
FF
FB
00
FA
F7
F9
06
FA
FB
06
FB
FE
FE
FC
FF
FB
FF
00
FF
F8
F8
FC
FC
00
FE
F6
FE
FB
06
FF
FD
FB
FA
FC
02
FA
00
07
FA
FA
00
02
04
FF
FF
FC
02
FB
FF
03
FD
06
FD
02
02
01
FA
F8
FB
02
08
05
F9
FC
FD
04
FC
05
00
FF
00
04
FF
02
05
00
FD
03
07
FE
FC
00
FD
03
00
00
FF
02
FA
03
FC
FF
05
02
01
FF
05
04
FA
04
FE
FB
03
FB
FE
FB
03
F8
F9
FB
FC
FA
F7
01
01
04
00
02
FA
FF
FE
06
FA
04
03
FA
FB
F8
F8
FE
FE
FC
02
FC
FE
FD
F9
FC
FC
03
FE
FD
FE
02
01
06
FD
F3
FF
FD
FB
FC
00
08
F8
FE
FD
04
FC
07
F6
01
FF
F3
FD
03
F2
05
00
04
F8
EB
0A
07
F8
08
01
07
05
FD
FE
00
0B
06
04
FD
F6
06
00
09
03
00
02
F0
FA
05
00
09
F5
F6
F9
FF
FB
04
04
0A
F1
F9
00
03
01
FC
F9
F9
02
00
03
05
F9
03
F7
FC
09
01
F9
FA
EF
00
F3
FE
FC
F2
F2
06
01
07
FA
08
09
F8
00
F0
07
FD
E8
02
FA
FC
01
03
FB
FB
04
F0
FF
F3
06
FF
08
FF
EB
02
04
FF
F6
03
01
FC
FD
F8
FE
F6
04
FB
04
FA
0C
04
01
07
00
F6
01
F7
02
02
F7
00
FB
0C
F7
05
F8
F4
03
F7
F6
FC
EE
F3
01
02
FC
FA
02
FD
FF
04
F1
FF
FC
F0
FE
F5
03
00
FA
00
01
FB
F6
04
02
FA
FB
FD
FD
06
FC
F4
F2
0A
FC
01
F7
06
FE
09
FB
00
FF
06
FD
06
FE
00
01
FF
02
FF
F6
0B
05
F6
09
FD
00
ED
F9
F7
FD
FB
01
F3
F8
FB
02
FB
FC
FE
FD
08
F6
F3
05
07
07
FA
06
02
05
F2
02
00
06
04
07
EF
FB
08
F5
02
FD
03
00
F9
04
FF
F7
FD
FD
FC
F8
F9
F3
01
FE
00
F7
07
06
F4
07
04
07
04
F2
05
0C
02
F2
04
02
02
F9
0B
03
E1
EE
F7
F5
FE
F4
F9
FD
F3
FA
04
FE
FE
FE
02
FC
EF
07
FC
FF
FA
FD
F6
00
EF
FD
F8
EE
06
06
FD
F2
02
03
FA
FC
02
02
F2
F8
F4
FD
04
01
06
02
F8
02
04
03
04
FA
E9
04
F8
02
F9
05
05
FD
E1
07
FA
02
03
05
03
EF
F1
03
FA
F6
01
E7
04
03
01
04
FB
FF
F4
ED
07
08
FE
07
03
FF
FA
FD
0D
FC
09
FD
01
05
0B
05
02
02
FA
04
FB
F1
06
EB
01
0C
08
FA
F7
07
FA
FC
06
00
FA
FD
05
FF
F9
04
FB
05
F5
F9
F7
F9
F1
FC
09
F1
FB
F7
FE
FD
F3
FC
08
07
FE
FF
FA
07
F1
FB
04
F6
F4
03
E8
FA
FE
F4
FF
F6
FB
00
E7
0A
FF
FA
F9
F8
00
01
FF
FB
FB
06
03
FE
FA
F6
02
F9
F3
E9
FD
03
EC
F3
FD
04
F8
02
EF
FE
F1
08
07
F9
FE
05
F1
07
FE
0C
06
F3
01
02
0A
F8
FB
F6
FB
03
FC
FD
FE
F6
08
06
EF
05
01
FD
F4
01
03
02
02
E4
06
F5
F5
FE
F1
F7
F7
FF
FF
FB
FA
FC
F7
03
05
FD
F6
01
F4
E6
F9
FB
01
FF
FE
FD
FA
F2
F8
08
FA
EA
FA
F5
F9
FD
FA
06
FA
04
FD
FD
F4
02
07
0A
00
F6
06
F0
FF
00
FD
F0
F7
F9
0A
FB
FA
F5
FE
F0
0A
F4
0A
0B
F2
FA
06
FA
06
0B
04
F3
FC
F8
F9
01
F8
FA
06
F6
00
F9
08
FF
02
FA
02
F1
00
FA
F8
F9
F3
04
0E
FF
04
06
FA
F0
FF
0E
F7
FB
F9
FF
F3
F8
F9
F8
00
F9
F8
F2
F2
03
F8
08
09
F8
FF
F5
FD
F3
F2
F4
03
F9
FD
F5
F7
0C
F7
02
02
F7
04
00
FC
07
FE
FA
FB
FA
01
FE
F9
F8
FD
E9
04
F7
F4
F8
F9
F3
F6
F3
F4
08
01
F8
F8
0B
F3
FA
F9
F6
02
F3
E9
ED
07
05
FE
F7
04
F5
F3
F6
FA
FD
FE
05
FD
F8
F8
FF
ED
EF
FF
FB
DF
F4
F6
F3
09
00
FE
FE
FC
FA
08
01
03
07
03
FF
03
FB
FB
08
02
0B
FF
01
F8
FE
F7
FD
F6
F1
F8
04
FB
03
00
FE
F5
02
F9
F3
F5
FC
08
06
02
F4
FA
F2
F4
0B
0B
02
F9
05
F1
F0
0A
FB
F8
01
F3
F8
FA
F2
F3
FA
FC
00
01
F9
04
FA
07
01
FF
03
0B
05
FF
F5
03
04
F8
00
F1
FD
05
F8
FE
05
03
F9
02
FD
01
01
FD
F8
01
FE
FC
04
F7
03
01
FE
02
01
FF
02
FE
FC
04
FD
FA
FC
03
01
08
03
FD
FB
05
FD
03
FB
06
07
00
00
00
01
03
0A
FE
00
00
FE
FF
FE
00
01
04
FE
03
00
FC
FC
02
F9
07
FD
07
FE
FC
00
00
02
0A
02
FE
03
02
FA
06
09
FC
FE
F9
FC
FA
EA
01
F5
FF
F3
06
03
FA
03
F9
03
0B
00
00
FE
03
FE
01
06
FA
F7
FF
FF
FE
04
02
01
03
06
FD
F9
04
04
FB
F9
FF
F9
01
FB
FF
F5
05
00
04
06
FD
FF
FB
FD
05
02
FF
FB
FC
FB
FB
FF
F8
FC
FF
00
03
FF
FF
FF
FB
03
F9
F6
01
F9
FC
FA
FB
06
03
FF
04
FF
FF
FA
F9
01
07
FE
FD
FB
01
05
03
0B
F8
F3
00
F3
03
03
05
05
FB
FC
03
06
00
01
03
01
06
02
00
FC
FC
FF
03
FC
FF
09
01
05
03
05
FB
F9
FF
FB
FE
03
00
0A
00
FF
02
FD
01
00
FD
09
FD
FD
FB
02
00
FD
06
F2
F8
FD
02
FF
02
08
FE
09
FE
09
F5
0B
F7
F7
FB
05
FE
01
06
04
00
FB
02
FB
0A
02
FB
FA
04
FF
06
08
01
04
FC
FF
06
02
08
FE
05
FD
FC
FB
FC
FF
F5
FC
01
FB
FF
05
02
01
FD
05
F7
FB
FD
04
FF
FE
F7
05
FB
09
FA
FD
07
FB
FF
F9
FE
F4
FC
FF
FA
08
FF
03
FD
02
F0
FC
F9
07
01
F6
FA
FD
00
F3
F5
FA
F7
FA
FD
F6
F7
FA
05
FF
FB
05
F9
FD
FB
F3
01
00
FD
06
FC
08
02
06
00
01
FB
01
0A
F9
FB
02
05
09
FB
06
FF
FB
05
03
F7
05
03
FF
04
04
F8
03
FE
05
06
02
F8
FF
F4
0B
03
02
02
FF
FF
01
01
FD
F7
02
04
FC
FE
F6
FF
04
05
04
05
FF
FF
F3
03
05
FB
FE
FA
02
FC
FC
0B
06
00
02
01
F6
0B
FE
FA
04
FC
03
05
FE
FA
FD
F5
FE
06
F4
09
00
F8
FA
06
F8
05
08
01
F5
FC
F5
02
05
F5
F9
FB
04
F6
F7
F8
F5
FA
FA
F8
00
FC
00
F5
EE
F8
F5
F4
FB
03
00
04
F7
F4
00
FE
FE
02
00
FE
02
FC
FE
FC
FE
F9
FF
FB
FE
FC
F1
03
FF
06
04
FB
F9
FC
F7
04
F7
F0
FE
00
F8
F5
FA
04
FE
06
00
01
F4
00
05
00
F6
FE
07
0B
02
FC
FC
05
FA
01
F7
02
07
05
F4
03
F8
F9
FE
F8
07
04
FD
FD
00
FE
F8
FA
FF
00
01
02
FF
FE
03
FD
FC
02
FB
01
01
FF
F1
01
01
FF
01
00
02
FD
FA
FA
01
02
F3
00
FD
FA
04
FE
00
04
02
F8
F9
00
FC
F4
02
04
02
00
F9
07
FD
FE
00
00
FD
FA
00
FF
FD
04
03
F6
F3
FC
FE
F7
F9
FD
FC
0A
FC
F5
03
F8
00
FD
F6
03
FF
03
F8
FF
FA
FC
00
FB
FF
F9
02
F7
FE
02
03
01
02
03
FA
FF
02
FC
F5
01
01
FC
FF
05
05
00
FB
00
01
F4
02
08
04
FD
F8
00
F7
F8
FF
01
04
02
F4
02
05
07
F6
FB
07
F9
FA
00
F8
EF
FA
F7
01
FF
FE
06
F2
01
FF
FB
07
04
01
03
07
04
F9
FC
FE
F5
01
FD
F4
FC
01
01
FD
F9
F9
FF
06
06
FB
05
06
00
02
05
FE
FB
FF
00
04
F7
00
03
01
02
04
F5
F9
03
00
FE
01
FC
FE
00
09
01
FE
02
FF
FA
08
03
01
02
07
FB
00
00
F4
FE
03
FE
F8
FF
F9
FA
02
05
03
F6
08
EE
F9
0C
FA
02
FD
FC
FC
F7
06
0A
F3
FD
08
F1
FC
FD
F0
01
FC
03
FF
FD
F8
06
03
F2
FB
F7
FD
FD
FE
01
F5
05
FD
07
F5
F7
F8
00
00
09
00
FB
FC
ED
00
05
F4
FD
01
FE
FF
02
F6
01
04
03
0D
FE
EA
02
FA
00
FB
F4
F8
E5
FF
01
06
F3
FC
F8
0C
FE
03
F6
FC
03
F7
F9
04
00
F3
FD
0A
04
EE
F1
0C
FC
FC
08
FB
F8
FB
FA
07
EF
0B
F9
F2
F2
01
08
00
F8
F5
EF
F4
03
00
00
FE
01
F9
FB
00
0D
06
F6
03
FC
FE
FB
F4
0D
06
FB
F8
03
F5
03
EF
02
00
FF
09
FE
F6
01
F7
03
FC
04
FD
F3
FA
ED
02
0B
FC
F5
FB
05
0A
FE
F4
07
FA
F6
00
06
05
FF
02
02
FB
F9
06
FB
FC
FB
FB
FE
FF
FB
0C
FA
FF
FF
00
FC
F8
F8
EA
FF
FC
09
0A
04
01
FB
F5
FD
F7
F8
F9
06
01
F2
F7
F9
01
F2
04
F4
00
EE
05
FD
00
06
00
EE
F2
0B
04
04
0E
04
00
04
05
EF
F2
F9
FC
02
FA
F4
FD
FA
02
FD
0A
01
FF
F4
06
FA
0D
FE
F2
01
EB
FD
00
F8
F6
07
02
04
F3
FB
04
00
F7
01
06
FD
01
07
03
F5
F9
FE
F3
FA
05
F7
F3
06
FF
F5
FA
FB
F0
F7
03
F0
FB
FB
F6
03
02
FA
06
FA
FA
F9
F2
06
03
F7
EE
FF
F3
FD
09
F9
00
F1
06
FF
F2
04
07
F9
03
F0
05
09
F7
FB
09
F6
05
FC
FA
02
FF
03
FA
07
F8
03
FC
F8
03
08
02
FD
F3
FA
FE
FC
09
ED
F3
F8
06
F1
03
04
F2
06
FA
00
F9
05
FA
08
FA
05
F4
06
05
F2
EE
06
FA
F2
08
FF
FD
F6
05
F8
FA
04
04
00
EF
04
03
FF
FA
04
03
F9
F3
FA
F6
03
00
01
08
01
FB
F6
03
FA
FB
F3
06
F7
F1
00
ED
05
FB
F6
F7
05
FF
F5
03
02
03
04
FD
08
FF
04
FF
06
F4
02
03
FE
02
FB
FF
01
07
F8
F4
EB
07
FB
06
02
FE
05
01
F9
06
09
04
F5
F8
FA
03
F3
04
04
FE
02
FB
02
04
09
03
04
F8
F0
00
03
00
FF
02
FC
FB
01
07
F8
F2
03
07
F6
0B
03
FB
04
FC
08
FD
02
F8
00
F9
05
EE
F8
01
FB
F2
FE
FF
02
F3
FA
FD
FF
00
F3
00
F4
F3
F3
03
FB
02
00
06
FE
F9
F2
FE
FB
F1
F9
06
0A
F3
FF
06
04
F9
03
FF
01
04
FD
F9
FF
00
F7
F3
02
00
FD
F8
FD
05
02
08
01
01
07
F8
F7
F9
05
02
FD
F7
F2
07
FC
05
F7
04
04
FD
FC
FD
FF
06
FA
FB
F5
F5
F9
07
07
00
F2
01
F8
00
F9
02
F9
01
0D
F8
06
00
01
F8
F6
FF
FE
F9
F5
F5
00
EE
FB
F9
F8
FD
04
FF
04
F7
05
F3
F6
FF
FD
FF
FE
F7
0A
07
04
FB
05
04
F1
F4
FA
F9
02
0A
0C
F7
F8
FC
0C
F5
00
03
F4
FD
07
0A
FD
F0
03
0E
F1
02
FC
FF
03
0A
F8
FD
FF
03
01
F8
FD
F6
FF
01
05
F5
02
F8
F4
05
F9
F4
FC
F3
FE
03
03
F7
FF
FE
FB
02
F5
01
F7
F2
01
02
04
FB
F3
F5
FD
05
02
02
FE
F7
F9
ED
01
F9
FD
FB
FE
F2
06
F9
F7
F4
03
02
03
FF
FD
F3
F5
03
FF
03
F4
04
EB
F1
FF
F9
FE
01
F5
02
FC
01
FE
04
04
F3
FA
F9
07
00
F3
09
FF
04
FD
FC
EE
00
03
02
F7
FA
FB
09
F1
F6
FD
FE
03
07
F3
00
FB
F7
F5
01
04
FB
04
FC
F7
07
05
07
EF
00
F4
FA
FF
05
01
F9
07
00
FE
01
FC
FF
00
FE
FD
FF
F8
F9
01
00
FE
FA
FC
02
F8
0A
04
01
0B
04
FE
01
00
FB
07
00
FE
FE
02
FA
F5
FF
F9
00
FC
FA
07
F8
F7
01
00
FC
08
FF
04
03
FB
FD
F3
FD
FE
09
FE
FD
08
03
01
02
FB
06
00
03
05
FA
05
F9
F9
04
FF
06
FD
FA
02
0A
FB
FE
FC
05
FD
FA
FA
FD
00
F9
00
02
FE
00
F9
F8
04
FE
03
04
07
FC
FC
FD
00
04
08
FD
FD
F7
FD
F9
F7
03
FC
FE
FD
05
FC
F7
04
05
FA
FB
FB
F7
F9
03
00
F5
FF
01
00
FC
F5
FE
FA
05
FC
F8
F3
F9
F7
05
0B
F9
FB
F4
03
04
F9
05
FB
FE
03
FF
FA
06
FA
F7
03
04
04
FE
03
FB
FD
FE
01
00
FC
00
FF
F7
03
FA
03
00
02
05
F8
F9
02
03
04
07
03
06
FF
00
05
03
F9
03
FA
00
05
02
FE
F8
FE
FE
08
FE
FD
FC
01
01
02
01
08
03
01
0C
05
FE
FD
04
07
F9
02
00
F8
F7
0D
03
FB
F2
00
F7
FD
F8
FA
FB
04
F9
FB
FE
FC
08
FD
07
03
06
FA
02
03
05
04
05
FE
07
02
06
F5
07
07
F9
FB
FD
FA
FC
F7
FD
FC
FF
06
06
01
03
F5
FE
00
08
F5
FD
00
0B
FB
E8
FF
0B
F7
00
07
F6
05
FA
F4
F3
F7
01
F6
F9
FF
08
F0
FA
FF
FF
02
F4
02
06
FD
00
01
03
F8
07
F2
F9
03
02
F5
F8
FD
02
F8
FA
02
05
F8
01
08
00
F8
F4
F4
06
07
02
02
F2
03
FA
FD
FD
F3
03
FF
FC
FC
02
F9
FD
FA
FC
F4
00
FD
F4
FE
05
07
03
0C
04
07
0A
F9
FB
09
F7
0A
FB
00
F5
FD
FD
FE
05
FE
01
FC
06
FE
FD
FA
FB
00
03
FE
F2
FE
02
FD
FD
01
FE
F3
06
FF
05
02
05
EE
F8
FE
FF
FC
FF
08
EE
F8
FB
02
01
01
01
02
FC
F4
01
04
FE
FE
F6
F7
0D
FB
F3
06
01
F6
06
04
01
07
EA
F1
00
F9
09
02
FC
F3
FB
F3
00
F9
FF
FD
09
F9
01
00
04
F9
06
F2
F7
F9
03
FE
07
03
FC
F2
FC
01
F2
FE
F7
02
01
06
F9
03
03
02
EA
ED
FE
F5
F2
FE
FF
F8
FE
FF
FE
F7
FE
FD
F9
EB
F6
F9
FC
FD
F6
F0
F9
F4
FE
FE
04
FA
FE
05
F0
FD
0D
02
05
0A
FF
EA
F7
EC
F3
05
FA
FF
FB
00
05
EF
FE
F2
F9
FF
FF
F5
FA
FD
01
01
08
F4
EE
02
02
03
EA
FB
03
EE
FE
09
00
09
FB
F4
F1
F6
FF
F3
FF
FD
F9
ED
FB
F9
01
04
EF
05
FD
FA
00
0B
F8
FF
FE
FC
F6
F3
09
FE
F8
F9
F8
FE
F0
06
01
F9
01
02
0B
0C
F2
F5
02
F8
0D
F6
F4
F9
FF
09
02
F7
05
04
04
FD
FD
FE
FC
F3
FE
ED
F8
F7
FF
F9
F4
08
F9
07
FF
FB
FC
02
F5
06
FB
F9
02
08
F5
F7
FB
05
F6
F7
F7
F9
FD
07
FD
01
FA
FA
F5
0C
F2
F6
FE
FA
F5
0B
F9
FD
F5
F9
F7
09
02
F6
F2
00
FC
FC
07
FB
F0
FE
FC
FE
F8
FC
FA
FF
F4
F7
07
F9
F2
0D
F8
EC
02
FF
FE
F3
F8
F5
FF
FD
F9
FC
F6
F2
F7
F5
00
00
FC
FB
F8
F9
06
F3
F6
F4
02
01
00
F7
07
F2
F8
F2
FD
05
09
F7
FC
FA
F8
F1
F2
F5
F7
FA
05
04
F8
0D
0C
08
00
06
F1
F0
F7
03
01
EF
F6
EE
F9
02
FA
F7
F9
F9
04
F6
F8
FD
F7
F6
01
00
F2
F9
F7
05
02
00
FE
01
F2
FE
02
05
08
FC
FA
FB
F9
FE
05
FE
0A
01
02
FE
FE
02
01
01
02
FB
07
FB
F1
08
FC
FB
FC
00
00
F5
08
06
05
00
FC
02
04
FD
00
F8
FA
01
FB
FF
05
03
03
FF
04
08
FE
FA
FB
05
FC
FC
F4
FF
FE
03
FC
05
FE
FE
FF
01
07
04
01
02
F9
06
FA
FF
05
F9
FF
FF
FF
00
00
01
FA
05
FE
FC
04
FA
04
03
02
07
FB
FF
F9
F8
F9
F9
FF
FF
01
F8
01
04
03
F8
00
FF
FE
00
FC
FB
FB
01
FF
04
02
FD
FC
FB
01
F2
03
F6
FE
FC
F3
FE
F8
07
FC
F9
FE
01
FE
F7
08
FC
F7
F7
01
FF
FB
02
FF
F9
FA
01
FC
00
FF
FC
01
F7
F9
00
06
FE
FF
FB
FC
FF
04
FC
FC
FC
02
00
FD
02
00
00
FD
06
FD
04
03
F8
02
06
03
03
01
05
FF
03
03
FB
07
08
03
FE
02
01
FD
01
02
01
FF
06
FF
FB
07
02
03
FF
02
00
FF
FB
00
02
00
F9
FE
FA
03
03
06
01
FF
FB
FF
05
F8
06
FA
05
F1
FB
01
F9
FD
FE
07
FF
01
03
FB
00
FD
FE
FF
FC
03
02
06
03
F7
FB
03
FE
FC
FC
05
FB
06
01
05
02
FB
01
01
02
01
06
01
F3
03
F8
03
FA
F8
02
FD
01
FF
08
03
FF
FB
07
FF
F8
FA
04
02
FA
F6
F3
FF
F1
FD
00
01
F9
FF
07
F3
F7
F7
FF
FE
EE
FA
FD
05
04
05
04
02
00
0A
FF
05
01
05
F3
FD
FB
FA
FA
FF
FC
FA
FC
FB
FA
03
FF
07
FD
05
04
05
F5
FD
03
00
00
FE
FC
FF
F9
01
00
01
03
FA
F8
05
F7
00
06
FE
04
FF
00
F5
FE
FF
F8
FC
F9
05
FF
07
FF
00
FC
06
FB
00
01
EE
FD
00
FF
F9
03
03
FC
FE
FF
FA
FD
F7
03
02
06
FC
00
F0
04
03
FF
FD
FA
FA
FF
09
04
07
03
02
FB
FF
FE
05
00
F9
FF
07
01
06
08
FC
01
FD
04
FA
FF
F1
01
03
FB
02
06
03
F3
F6
05
FD
02
F6
06
FD
FD
01
01
FD
04
FE
FB
02
01
01
FA
FF
02
01
F8
07
F5
04
00
03
F8
09
03
04
02
FA
FE
03
FD
03
FB
FA
05
F9
01
F1
FE
FC
03
FC
03
FD
F8
FC
06
FD
F9
01
F9
00
FB
FA
F8
FB
F9
01
08
F2
FE
FE
00
FD
FD
FA
05
01
03
FF
F9
FB
03
FC
03
FB
06
07
F9
F6
01
02
F6
FD
F6
08
02
FE
00
FF
FF
FE
02
02
FD
FE
00
04
FE
01
FE
00
09
FD
02
FF
FF
02
FC
03
08
06
08
02
02
05
FE
F9
FD
FF
FD
01
05
00
04
02
00
02
FD
01
FA
F8
FF
FA
FE
FA
05
FC
FF
FF
FC
01
00
FE
FF
04
01
FF
FF
FE
FE
02
FF
01
FF
01
08
03
01
05
FF
06
FA
01
03
F9
FD
FE
F6
03
FD
04
FF
F9
FF
FE
FB
08
04
FD
05
ED
FF
04
03
00
02
06
00
FE
F9
04
05
FF
06
03
FA
04
03
02
02
06
FE
FF
02
02
09
FD
FE
FD
FF
00
04
02
03
00
01
00
02
04
F1
04
02
FD
FD
06
01
FC
01
01
FD
00
FB
F6
F8
F2
F9
02
00
00
FC
F8
03
05
FA
0A
02
FD
FC
04
FD
00
04
FD
FC
FF
02
02
04
FC
01
00
FF
FE
02
06
F5
00
01
01
FC
F8
09
FF
FD
FF
08
02
FD
04
F8
FA
FF
02
00
00
FF
F4
03
FF
F9
FB
FB
04
F8
FE
FB
00
06
FF
02
02
F8
F9
03
05
FF
06
02
00
04
01
FF
FC
FD
06
01
04
FF
04
FE
FF
F8
08
00
02
01
F9
02
04
08
02
03
FD
00
01
FD
02
FF
FC
F3
08
04
05
02
06
03
F5
01
01
FF
F9
FB
04
05
FE
F3
F6
06
04
F1
FC
FF
07
F9
FD
06
01
04
02
04
05
FE
F3
F6
F8
FE
03
06
FB
FD
FF
FF
09
03
FF
FD
FA
00
F9
07
FA
01
06
F9
09
F8
F6
05
01
FD
03
01
F7
02
03
FB
09
03
FF
FD
FB
04
FE
FB
FE
03
02
F7
FE
FE
02
FA
F8
F3
FA
FE
FF
FF
F8
02
F8
F8
08
FF
FD
02
EF
04
04
FE
02
FC
04
03
FE
01
00
FF
01
07
FF
F8
09
01
00
FB
05
F6
FA
0C
00
06
F4
07
FF
00
FA
F8
02
04
07
F6
FF
FC
03
F2
FF
FB
FE
F7
02
02
F0
04
02
FB
02
FC
F8
F8
F4
F7
FF
04
03
03
F8
F7
06
F5
08
04
FB
FC
03
06
F8
05
01
00
03
00
F9
04
FF
04
00
02
FD
FA
06
EC
F8
07
FA
00
F6
0B
00
FE
FB
0B
FE
F3
09
FB
01
03
FF
FF
FD
FB
F8
00
FC
F7
F6
00
FF
F8
00
FA
FC
FC
05
04
00
FA
FD
08
02
FF
04
F9
FD
02
04
FC
FE
01
04
FB
F9
00
05
04
FB
F5
05
FF
FC
04
FE
07
02
07
01
00
FE
01
03
01
FB
01
00
00
F9
FD
02
F5
F4
F5
F9
02
0B
00
F5
03
FD
04
FF
F5
02
FB
FC
F9
00
02
F7
F9
F7
EE
09
F6
0C
0B
F9
07
F8
F4
01
FA
FC
FE
FC
FB
05
FC
F9
03
00
FB
01
F7
FB
FD
FF
FE
FA
FB
05
FF
03
FF
F8
F9
F7
F9
FC
FD
06
FA
FE
09
01
00
01
FD
F9
F4
0C
FC
FD
F9
FF
03
F5
F3
FF
FC
FD
FF
00
02
03
FB
F8
FB
FA
01
F7
F1
F9
08
09
01
03
07
00
FF
02
FA
FC
01
F9
0A
FD
FF
01
03
FB
03
05
F7
06
08
0A
F8
03
05
F3
01
F6
FF
FC
F9
FF
FF
01
01
02
00
04
02
07
FF
01
FB
FD
FC
FC
05
03
07
00
F8
FE
F9
04
F0
F0
0D
F7
00
FB
FB
01
FF
FA
04
FE
02
F7
FE
F7
F7
08
FF
F8
F6
FF
EE
F2
F6
07
03
F5
FC
F1
F3
08
04
02
F2
01
03
00
FB
07
F1
00
F7
F9
F6
F5
FB
F5
01
F8
F8
FD
FF
04
F9
FC
F7
FA
05
FC
F9
06
FE
FB
FE
FB
FE
08
09
F6
F7
F4
FD
FC
FE
F7
F5
FC
F5
F4
FC
FA
0B
F1
03
01
F4
FF
01
F8
F5
FF
02
F5
F2
02
04
F5
FB
FD
FB
FA
F1
EF
FA
0A
01
04
FE
F9
FE
EB
F1
FE
F2
FA
FD
FC
FD
FB
F6
01
F9
F2
03
02
FD
05
F8
00
02
FD
FD
0B
FC
F2
F3
F3
F7
09
0C
05
FD
00
0B
F9
E8
00
05
F5
F1
FC
F5
F7
FE
FB
02
03
F4
F6
FE
F7
F8
07
F9
03
02
F8
07
F3
F2
F6
F3
FE
FC
0C
F1
F3
FB
FC
FE
07
FA
F8
01
06
FB
F6
05
F3
F7
01
F4
ED
04
05
F8
F7
F7
00
EC
F0
F1
F1
FD
FD
FF
F3
FE
F3
FC
01
FB
FB
FE
FA
FD
FE
F8
00
F6
FB
F1
F7
F9
FE
02
F7
09
FB
FC
02
04
FE
FD
F9
FF
E5
08
F3
F7
F3
09
FB
0B
FE
0D
00
EF
06
07
0B
03
ED
F6
E8
FB
FA
FC
F5
00
06
F9
EE
F7
F2
F0
FA
09
FA
FB
FB
F5
F4
F7
01
FC
0D
05
04
FE
0C
FA
F5
00
00
04
FA
02
F0
06
F1
F8
FF
F1
F1
FC
F3
F3
0D
FA
FD
FD
F6
FC
F2
01
F9
F3
F2
05
FF
FA
FF
F9
F9
F9
F9
03
F5
07
FB
05
F9
EA
01
F3
02
F9
02
F1
F3
F7
09
07
F3
F8
F6
EF
03
08
F6
08
F4
F9
04
01
F8
01
F9
FC
F1
FD
06
F5
FE
03
05
F9
05
F4
06
F1
00
F4
FD
06
FD
F4
F3
FE
07
00
F8
00
02
FC
07
F1
06
FE
F9
09
03
F4
03
FA
01
09
FA
01
F4
EF
EE
FF
07
04
00
01
F1
04
FC
F8
07
03
F6
F1
00
F6
07
FD
F6
FB
0A
F1
FA
00
FA
F7
02
FC
0A
FB
F2
FD
FE
F3
F6
03
FF
F5
FC
F9
FA
FF
FC
07
02
05
F4
F3
01
05
F5
01
F9
FA
FD
F9
F4
06
FB
FA
FB
FB
08
FD
0A
FC
FE
FC
03
09
05
FF
F9
FE
F4
00
F7
F9
06
FC
FA
FD
10
ED
05
F7
00
F9
FE
03
F5
04
FF
FF
03
FF
02
EE
08
04
FC
04
FF
FD
04
07
07
00
F6
03
F6
F6
00
0E
01
FC
FF
FE
00
F6
01
05
FE
F8
01
FC
FF
F1
F4
FA
FE
05
F0
0A
06
EE
00
05
FB
01
03
F0
0B
F5
0A
FB
FA
05
FA
F6
02
FD
FA
F6
FF
F6
FC
FA
FA
EE
FE
00
00
F0
F9
06
01
FF
F8
02
04
F7
F4
06
FC
0B
FC
01
F8
F5
F2
FF
F5
07
F9
F8
F9
01
07
F2
F9
EF
0A
FB
FA
01
FE
F5
EF
FA
FB
FF
F2
05
FF
F6
F8
F7
01
F9
06
04
04
F8
03
FC
FE
01
02
F5
00
01
00
00
FA
FE
FC
FF
00
04
07
FA
04
FC
04
05
FC
00
FE
FF
FF
FD
02
FD
01
01
FF
FC
FE
00
FF
01
F7
08
FE
FB
FB
06
F8
04
00
05
FB
04
F4
FF
FB
08
00
FF
FB
FA
06
FE
FE
00
04
EF
F4
FF
03
FE
FD
02
02
FD
01
03
FE
04
FB
02
05
04
02
FF
FB
02
FC
05
04
08
FB
F6
FF
02
04
F4
F9
F5
FF
FB
FE
05
F9
FF
02
FF
00
04
07
FE
01
FC
FB
FC
01
FE
00
03
00
FD
02
05
02
02
00
F4
01
FD
05
04
06
02
05
07
F8
FE
F9
F9
FD
01
03
00
03
03
05
02
00
FA
0A
F5
F5
03
01
F3
04
F8
00
06
02
F8
FF
06
09
02
07
06
01
01
02
04
02
F8
FB
03
FC
05
FB
01
01
F9
FF
01
08
FC
FA
F8
FF
FA
01
FF
FE
08
02
04
05
00
03
01
FE
F7
FD
01
05
FD
FF
F9
F4
00
03
03
FE
04
FA
FF
FD
04
F4
FE
04
03
03
FF
02
F9
F6
07
02
FB
00
FF
FC
03
00
FD
07
FC
FD
FB
F9
00
02
FC
01
FE
F9
02
F9
06
04
02
FE
05
03
F0
06
FD
FF
FC
05
FB
07
04
05
FE
01
F8
01
04
FC
03
FB
F4
01
05
F8
F5
F8
F6
FF
FC
F3
F9
FE
02
04
F9
03
F2
F8
01
02
F0
07
F7
04
F8
E6
01
F8
01
05
F0
FD
02
02
05
F4
FC
FF
FB
F9
FF
F4
04
FB
F0
04
00
F3
05
01
06
00
F1
01
04
04
F7
F8
FD
F5
F9
04
EE
02
FC
FB
0C
01
FF
F6
01
05
04
09
F6
F8
F5
FB
05
07
FA
06
03
00
F5
02
F7
FD
F8
00
01
04
F4
F9
08
FB
04
04
00
05
FB
F4
07
F7
00
02
07
00
F4
FD
FB
FF
FE
F0
F6
FB
0A
FB
FE
FF
FC
02
00
05
02
F9
FE
FE
00
EF
02
03
01
FB
F3
02
EE
FE
F9
FE
F8
F4
F8
05
F4
F5
FE
FA
F5
06
FB
FD
05
00
05
01
05
F8
F4
FA
08
02
FE
01
00
FC
05
02
F9
FC
F7
08
F6
F6
00
04
08
FB
F6
FF
F8
F4
F0
00
FE
F7
FD
00
FE
01
05
F0
06
05
05
05
F9
F5
FD
00
F7
FE
F9
05
02
FF
03
01
00
F6
04
FF
FE
EF
06
FC
F4
07
01
01
01
FD
01
05
FF
F4
01
01
FD
03
FC
F3
FC
FB
01
F5
02
02
F6
04
FD
01
F9
01
F8
0A
02
F2
F8
0B
FB
F4
F7
FE
01
08
02
FE
F2
F8
FD
FF
08
F7
F4
FE
F5
0A
F6
FB
ED
F5
00
FB
F1
F5
02
FD
FC
F9
0B
04
01
05
02
F5
FB
06
04
F8
F5
00
F4
FC
05
06
F7
FF
F5
06
05
F7
FC
05
F5
05
F3
F1
00
FB
FE
01
F2
02
F6
01
01
F9
F9
F7
FC
04
FC
02
F7
03
F4
FE
01
04
FF
F8
01
FF
EF
F5
0C
F5
F4
00
01
FB
F2
FF
F8
F6
FC
E6
F9
FB
03
FE
FC
05
02
FB
01
FD
FD
FB
FC
F5
F9
F8
FD
F8
FB
09
F7
00
FA
04
FC
02
F9
FE
09
02
FF
F7
03
00
FE
FB
01
FB
F0
FB
F9
01
0F
FF
05
FF
0B
F6
09
04
07
F5
06
03
FD
F6
F6
01
02
FF
F7
07
FE
FB
F9
06
03
FF
05
F1
FE
01
00
00
FB
F6
06
F7
FF
03
01
04
F7
FD
F4
FD
FD
02
FA
08
03
FA
F2
01
FB
04
F6
F2
00
04
FF
F6
03
04
09
04
03
FC
FF
EB
04
F8
FB
F2
01
FB
F9
06
FB
F7
EC
FB
03
F8
F8
08
F3
F6
01
F9
F0
F8
01
05
FA
F8
F9
F2
F8
FF
F6
02
F5
06
EE
F4
08
F9
FE
F8
FD
FB
05
FE
00
01
F5
F9
FA
06
04
F7
02
FE
00
F7
03
FA
06
09
00
FE
02
FE
FF
FC
04
FD
00
01
FA
04
04
05
07
FD
06
FC
F6
F2
FD
FB
05
03
04
F9
FE
01
FF
0B
04
05
FE
FA
F9
FC
00
F7
05
FB
FC
FE
FB
FE
FB
00
07
FD
FF
FF
04
F8
01
F7
F5
02
04
FD
00
F9
FA
03
01
01
03
FF
F7
FF
F5
00
F1
FA
02
02
F8
FB
FC
FA
01
FE
04
04
FA
FC
0A
05
FD
FB
01
08
01
FD
FE
00
FD
01
02
02
06
FC
FB
FB
00
05
F4
F5
06
FD
03
F7
FD
01
FD
F6
F7
FF
F8
00
01
01
FF
FF
FC
01
F7
00
03
FA
F3
00
00
09
F8
FF
FC
FB
F6
FE
F4
FA
01
01
07
FE
FA
FD
00
FE
FC
FD
02
04
FB
03
F5
04
FB
FB
FD
01
FE
03
02
FD
FB
FF
03
F7
00
03
01
04
01
FD
03
02
01
00
00
FB
09
06
00
07
02
F5
FD
FB
FF
FA
FB
F8
FF
FE
FB
FE
FA
FA
00
05
F7
02
FE
06
FA
FE
00
FF
FD
F6
02
FB
02
08
04
FA
02
FA
FC
00
04
05
F8
01
FE
F6
01
04
06
00
01
00
F4
FD
01
FF
00
FD
04
F5
FC
FA
FE
08
F4
F7
FD
01
ED
07
09
F8
EE
FA
F1
F7
05
F7
FB
FB
00
00
FA
FE
FA
01
04
EB
EB
EF
EB
FB
F3
03
FE
10
FD
FC
F9
EF
0B
09
02
FA
F3
EF
F6
03
01
FD
F7
F8
FD
03
FD
FC
FE
F4
00
00
06
05
F8
F3
FA
00
FB
09
FE
F6
03
EF
FE
FA
FB
FB
FE
FA
F8
F8
03
F9
05
FA
04
F3
06
FB
F2
FB
F2
04
07
00
0A
F4
F1
EA
FF
05
FA
EF
F4
FD
FC
FD
FC
FC
FD
EF
F8
FA
F7
04
F3
F6
FE
FC
00
F1
05
FB
F5
06
FB
FE
FB
FD
F7
0B
01
06
05
E6
00
FE
F8
03
00
FF
FA
F1
FB
FD
07
FD
08
F5
07
FB
FE
02
07
F7
FB
F2
FC
04
01
F6
FD
05
F4
F7
F4
FA
FB
F5
F5
F4
02
FE
03
F8
04
F3
FA
F6
01
00
FE
FD
01
0A
F8
FC
FA
F6
06
FE
F4
FA
F0
F2
01
05
F3
FE
FA
F4
05
09
02
F9
FE
03
0B
F7
F0
07
F6
04
0A
FE
F9
F5
F9
F8
FA
F8
FA
05
FB
05
FB
04
FE
04
F6
F4
FB
F2
F8
02
02
FC
F3
F1
FA
06
01
08
F5
00
F8
00
F8
F5
02
FC
FE
E9
FB
F6
F6
F7
FE
0A
F4
FF
F2
F6
0A
03
F5
FC
FE
F7
06
FB
FD
00
FF
04
FE
FF
09
FF
06
09
FD
FB
09
F8
05
FC
EE
01
FB
00
FE
FC
02
FD
03
FB
F9
08
09
07
FD
FB
FB
06
FB
05
0B
F8
04
FB
EB
03
FE
03
FF
FB
01
FC
F9
F8
F6
FD
F6
F8
FD
FA
07
01
FA
FD
08
00
FE
06
FB
03
FC
FF
FB
08
F5
F6
02
09
00
02
04
07
00
F9
F9
02
F7
FC
FC
FF
FD
FF
F9
FE
FC
F0
08
FE
FD
03
0B
02
FA
FD
02
FC
FB
09
FE
FD
08
FF
02
F5
FD
FF
F9
FC
06
FB
00
FD
08
FD
02
01
F8
F9
03
FE
01
FC
FA
F8
01
FE
04
01
08
07
F5
08
01
07
FF
FA
0B
F8
FD
00
FA
F8
FD
F9
FB
08
F6
F8
FE
01
FB
FB
F9
FD
FC
FE
06
05
00
03
F6
FE
F2
FF
01
F9
00
02
FF
FD
FD
FD
FB
0B
FE
FA
EA
F9
FB
FB
F9
FD
F7
01
F9
FE
FA
F7
F7
F6
F8
F8
F7
FA
07
FA
03
F5
07
F4
01
F7
07
FA
00
03
FA
FF
00
06
F8
F6
F7
08
FD
07
F8
01
08
FE
FE
06
F9
F5
0A
FB
FC
FB
FE
FB
08
03
03
FE
FA
FE
04
F7
E5
FE
F5
01
04
03
F5
FE
FF
F9
00
FA
00
00
FE
04
07
06
09
02
09
07
00
FF
0A
00
FB
FC
FB
FD
03
FC
FF
FC
00
FD
05
FE
FA
01
00
FF
F9
FE
FA
08
03
04
02
F9
04
00
FB
FF
FF
01
F8
FF
07
01
FB
FF
FC
F5
F9
F8
FC
03
01
00
FD
00
04
FE
F8
01
06
03
FF
F3
F4
02
FC
F8
02
02
FE
F8
FD
05
00
FB
06
FF
F9
F5
FB
F8
01
FA
FC
03
FB
00
05
01
01
04
02
05
F4
03
03
FA
FF
05
06
02
0B
04
00
FA
01
02
F6
04
05
FE
0A
01
0A
FD
FF
09
FE
02
FB
FE
FB
04
08
FC
FE
01
02
06
00
FF
FE
02
F8
03
FB
FD
06
FF
FE
00
FF
01
04
EF
FC
07
FB
02
03
FE
FC
03
04
FA
01
04
05
FB
FF
FD
FA
FB
FF
FF
02
FB
03
FE
FA
00
FD
FF
F9
09
FA
FE
F8
00
02
00
01
FE
00
FD
FF
02
FC
FB
FD
FC
F2
FE
F7
F9
FF
FA
04
F8
04
00
FA
FF
FF
FC
FB
06
FC
00
05
00
F5
F9
FF
02
FF
00
F7
02
04
FE
FB
01
FF
F9
FF
FF
00
F9
FD
FA
07
FC
05
05
FC
FA
03
F6
EF
F9
F2
08
05
FE
F4
FA
FC
FA
FD
09
02
F5
F7
01
06
FE
FB
FD
01
02
FF
05
FC
08
EF
E9
F3
0A
F7
07
FB
FC
01
F9
F8
03
F9
F7
EF
FB
FE
09
F9
FA
FE
FA
02
F8
02
F4
FA
