0033
0035
fff8
ffd8
000b
0023
ffd2
0000
ffa0
005a
ff88
0055
0041
ffb4
001f
ffa1
ffff
ffc6
fffd
003f
ffb6
ffb9
0006
ffda
0008
002c
0000
0025
ffe2
0010
ffca
0010
fffe
001e
0071
0045
0003
000b
ff81
0068
fff2
ffe8
ffa2
ffab
0001
ff91
0022
ff90
ffd2
ffc6
0011
ff99
ff76
ff76
0095
0039
ffe5
0018
004e
ffcf
0049
002b
ffb0
ffbe
0024
ffee
004a
ffa2
0004
0041
000c
ff63
0051
0090
0004
ffde
003f
ff5b
ff8d
ffd6
0070
ffbe
006a
0073
007e
0045
ffe7
ffb9
004d
ff96
ff85
ffc5
000a
ff9c
ff82
ff83
ffe1
ffd4
fff2
fff0
ffd8
000c
ff78
ffc9
ffae
ffa2
0000
ff4c
ff69
0054
ffb3
0029
ff56
0001
ff5a
fff1
ff72
0067
fffa
005b
fffc
ff18
002b
000f
ffeb
000b
0060
0048
