04
06
FE
FE
0A
06
F8
FC
04
F2
07
01
06
03
00
02
01
10
FD
F3
02
06
FD
0C
04
FE
F0
F9
11
F6
FA
07
F4
02
06
F7
08
01
F3
0C
03
FA
F5
FF
F8
0B
05
01
03
02
02
FE
03
09
01
EF
09
EC
F9
01
F5
0A
02
06
F4
10
0A
04
10
06
F6
0A
02
0D
FA
03
06
FC
06
FF
06
01
01
F3
F9
03
FE
02
03
0D
0D
FE
07
F8
02
04
05
04
FF
07
F9
FE
0A
0C
FB
FD
0A
11
0D
FF
07
FB
FB
06
04
02
FD
FB
01
03
FE
04
05
FB
0A
02
09
08
F6
FF
00
FD
09
04
06
0D
03
FC
08
FF
04
F8
07
F5
FA
0E
FD
01
F7
F5
0B
FE
02
FB
F8
06
FA
03
FF
FE
FC
0B
10
EF
0C
FF
01
F9
FB
FA
FD
00
F4
08
FF
05
FF
FA
06
01
F3
08
FF
F9
0A
EB
06
F9
F3
02
05
F7
FF
05
FF
05
05
FA
FC
F4
00
0B
FA
FC
06
04
F6
F6
FB
02
02
03
F7
FD
F8
F4
02
0A
FD
F5
F9
00
F4
03
FB
FA
F3
F5
06
01
00
05
FA
FF
FA
F6
06
02
03
07
05
0D
02
0A
0D
F3
11
FD
02
0F
F1
FF
F6
02
05
FE
09
F7
0D
02
F8
FF
F5
12
F7
0B
FA
07
06
FF
06
FA
09
FF
FD
FC
0D
FD
03
0B
07
FA
F7
FF
F9
05
00
04
0A
FE
04
0A
08
FB
01
02
FE
03
F6
0F
02
01
FF
FD
FD
04
FC
04
F4
07
FB
00
FE
F6
00
F6
03
04
F4
08
02
F9
F9
FF
F1
FF
01
05
F6
08
04
05
03
FE
FF
00
04
F3
08
05
FF
03
05
04
00
FE
0C
00
11
0B
F3
06
FE
08
FB
05
04
03
0F
08
07
FC
FD
04
F6
F0
F9
0D
F5
F7
12
03
01
FB
FE
00
07
FC
02
00
0C
FC
FC
0A
01
05
FC
0C
06
FD
F4
00
05
F7
01
04
F9
02
00
04
FD
F3
07
05
03
02
10
F6
0B
03
F8
09
09
F8
FF
00
05
FA
02
03
04
FE
03
F8
0A
F9
03
01
FD
F7
00
FD
00
FC
FE
F5
F6
0E
F9
F9
0E
0D
F6
03
FD
05
F1
F6
FD
FC
0C
FC
00
FE
05
FE
02
04
EF
09
FE
08
03
FC
02
FC
16
F9
00
05
F6
08
FE
F9
03
01
ED
FF
06
FC
FD
07
0B
00
0E
02
FA
FE
04
00
FE
07
00
0A
F6
FE
FF
0D
07
03
0F
FE
F6
F0
06
F5
FF
F6
FB
06
FE
FD
04
04
F9
04
FE
FA
FC
00
FE
FB
0B
F5
FB
FC
01
00
01
02
04
F6
FF
FB
05
06
FD
05
06
03
FC
01
FD
06
0D
F0
FB
FB
FC
F9
01
09
06
FC
0F
FD
EF
05
0F
FC
FC
F6
F9
FF
05
FE
FA
01
FC
FE
08
01
01
F7
08
FD
FE
08
F2
FE
01
F5
05
0E
F7
09
FC
FE
FE
FB
F3
03
F3
02
03
FB
F9
03
07
FF
02
07
06
06
09
03
09
F6
04
F8
0A
FE
02
FF
FA
FF
03
0A
FC
F1
FD
06
FA
01
FC
F5
F0
FB
02
F5
F3
06
FA
FD
F9
F6
0A
03
00
10
08
05
F6
05
00
05
05
FD
FF
FF
FC
FD
04
03
0A
FA
05
F6
F6
FF
FB
06
00
06
F9
09
13
04
07
00
F8
05
04
04
01
03
00
F8
0F
07
04
FE
FF
F7
05
03
F7
02
FF
0C
0B
04
09
F7
F9
FD
F6
0C
FD
08
FF
02
06
0C
F9
08
0D
03
F3
FB
04
FA
07
04
04
09
FE
FE
06
FC
07
06
FC
02
FC
FC
02
02
FB
FA
F2
01
04
05
F0
04
FE
FF
FA
05
F3
F7
F7
FC
F3
08
F5
07
04
F6
FB
FC
04
01
FF
08
07
03
E5
FB
0B
F7
03
FB
03
03
0A
FC
01
06
F5
FC
06
04
06
03
F3
FF
06
01
00
01
FE
F9
05
0A
F8
00
02
07
0D
FC
00
FA
FA
F6
F9
00
01
01
07
F5
05
FF
FA
00
02
FE
08
08
09
FA
01
FF
F8
05
03
FD
02
07
FA
02
01
00
F8
0C
FC
06
F5
0A
07
F7
FE
05
09
0A
05
F9
FF
08
F7
FB
04
F7
FB
FF
00
00
FB
FE
0D
0C
05
03
F7
FC
F4
FD
07
07
FD
01
0A
F7
14
FA
FF
07
FB
FB
0B
00
F6
09
00
F9
09
FE
FC
09
00
FF
FC
08
01
FD
FE
09
01
FC
F6
F4
FC
07
FB
11
F7
04
FA
03
02
FA
FB
FA
FF
F3
00
FB
06
03
F7
01
07
00
02
05
FB
F1
06
02
FD
FE
0E
F3
06
FF
0A
05
01
06
01
F5
02
F5
03
03
F7
0C
04
F5
03
04
06
03
09
F6
F4
F9
FA
FB
04
00
FE
F9
09
05
F8
0F
05
FE
04
FB
F9
FD
07
F9
FC
F8
FE
04
FD
FD
00
F6
08
03
F6
09
F8
F9
FB
00
05
0A
00
04
00
FB
FA
F7
F5
05
F5
09
FD
FA
FC
01
09
F8
EF
04
FB
06
F5
00
F6
FF
01
00
FF
07
F6
FF
02
FD
FC
FB
0F
01
FA
09
FB
05
0A
06
FF
F9
0C
08
05
FE
FC
04
F4
FF
FF
0A
FF
EA
FD
08
13
00
05
F5
0A
08
F5
0C
F6
F7
F1
F2
F8
04
0A
09
FE
FC
04
F8
F7
0D
0B
0A
F0
F5
05
0D
FA
F1
04
04
00
FE
03
0D
FD
08
FC
04
FA
01
F4
FA
0E
00
FF
F1
02
0A
01
0C
03
02
09
F7
F9
01
F8
0C
00
02
FC
01
FE
0D
F9
07
FE
FE
F0
06
FF
FA
02
00
01
06
00
F9
FE
02
02
FF
0A
FA
F9
FE
04
01
0A
0B
FB
08
FF
FD
06
FB
FB
FE
00
00
05
FD
00
07
FE
FF
FA
FB
FD
FE
FE
07
01
FF
07
F3
FF
FC
06
FE
00
04
F2
FB
FE
F7
01
F4
0A
FC
F9
FE
05
00
FD
01
F8
02
FB
FC
02
F6
0B
F6
FF
FF
0B
FD
FE
FC
0C
F7
0D
F1
F7
FB
03
0B
FB
F8
0C
FF
02
02
F7
03
F7
FB
F8
08
FD
FF
03
03
FD
03
07
F2
09
FE
05
F8
0D
F3
FF
F5
0C
FB
07
0C
01
05
F8
05
FE
F3
FB
FD
F2
08
04
FA
F7
07
FE
F7
06
FD
03
F8
0A
00
F9
FE
04
F1
FA
F6
FB
FD
F7
09
FC
F6
FB
FD
FE
FE
0A
F7
FC
FB
FA
03
ED
FC
F2
FB
04
01
F9
FD
0D
F4
FF
FE
05
FD
FD
F9
0F
EA
0F
F0
03
F7
0A
06
FA
FC
02
03
F6
FD
F9
F5
09
F6
05
0B
02
0A
FB
09
04
F6
04
09
01
0E
F9
04
F4
FF
0B
00
F7
02
F7
02
01
04
08
FA
FC
13
EF
F1
FB
FD
FB
04
01
06
00
FF
FF
07
06
0B
00
FA
FD
F2
FB
FA
FE
FC
FD
04
FB
08
FE
05
0D
03
FC
02
06
0E
01
03
07
03
FD
FE
09
F9
FD
F8
F4
0A
FC
01
03
0D
08
F5
02
F5
04
01
FE
00
01
05
FB
F7
FE
FD
F9
F8
FD
08
09
05
FA
07
05
FB
07
FF
FB
F2
FD
06
FD
FE
08
F5
06
07
0D
0D
FE
08
08
FD
03
F4
0C
03
00
00
08
F8
07
02
12
FB
05
FE
02
FA
02
01
02
04
FE
FE
FD
05
FB
10
0E
07
08
00
FF
FB
04
F1
F2
FE
F8
FF
07
03
F3
FA
03
05
FD
03
FD
F8
02
04
05
0A
03
FF
01
01
F7
F6
EF
04
F8
08
01
06
01
01
06
F8
FA
07
01
06
F2
06
FA
02
FE
06
05
04
F5
04
FE
01
01
FD
0F
FB
F5
05
F3
0E
FA
04
F9
FF
FB
06
F8
03
FF
03
F7
01
01
00
06
09
F9
00
0B
FB
04
FD
04
07
FF
0B
F5
FF
F6
07
FA
0C
07
FE
FF
FE
04
05
00
0A
0B
04
F2
02
0D
FC
FA
ED
0C
0A
FF
FB
06
04
0A
05
05
03
F6
F4
04
FC
FE
FC
0B
FE
0D
FD
01
01
FF
09
01
00
F3
09
01
06
FF
06
F0
0B
FA
05
F0
07
06
FE
F7
05
FF
06
01
FD
0C
00
FE
03
F5
0E
F2
06
FC
00
F5
05
F4
05
03
09
F3
04
FF
F7
02
0E
ED
F6
01
FC
FB
FF
FF
0D
04
07
F6
01
FE
0C
F9
10
06
FC
FA
F8
0A
FE
00
06
06
FE
F3
06
0A
FB
FD
F2
10
05
01
FE
06
03
05
00
09
FC
F2
F8
02
03
FB
FD
0C
06
0E
F6
00
F6
01
00
FA
FA
F6
04
01
00
FE
01
FD
04
01
0F
F2
FF
F4
FC
04
03
08
06
FF
FA
FC
0C
0D
F7
06
04
FD
05
10
06
FB
00
04
02
0A
04
02
07
F8
FA
FB
FC
F4
F3
F8
FB
F4
0A
F3
08
09
FA
00
02
07
02
FA
08
FC
01
F9
F8
0E
FB
02
F7
F7
F5
FB
FF
F9
FE
01
02
02
FA
FD
04
F7
02
F5
F2
02
01
04
02
01
04
03
FC
01
05
00
F7
FA
F9
08
F4
07
F3
0B
F4
0A
01
F8
F4
0A
FC
F8
07
FB
F9
FB
F9
09
09
07
06
FC
04
F6
03
09
FA
0D
01
02
05
06
01
08
FE
09
01
FE
01
10
07
02
FD
FA
FF
FB
EF
FA
FC
F9
06
FA
03
03
F8
09
08
0A
01
00
F6
F6
F9
09
FA
FD
FC
FE
F8
F3
00
FA
02
FF
FF
03
0D
FB
00
FC
03
02
03
EF
F4
00
FA
06
02
F4
02
07
FF
F9
07
FA
F6
F8
F8
0C
F9
0A
F7
0C
F4
01
03
00
FE
FA
0B
FC
FC
F1
0A
FC
06
FB
F8
FD
F7
08
03
00
06
FE
FA
F3
08
F0
FF
FA
FC
F7
05
02
04
FF
00
F9
FA
FD
F8
04
06
FA
08
01
05
04
F9
07
05
0D
0F
F0
01
FA
0C
FF
09
08
01
04
06
08
FA
FC
0E
FA
F6
F8
0B
FE
F9
0C
FA
0C
FB
FF
F6
06
01
04
01
0D
FE
F9
03
05
08
F9
05
10
FE
FF
05
03
FC
03
02
FB
05
FA
0B
FC
F8
FD
FB
F3
02
FA
00
FD
03
F4
08
09
F6
09
01
FD
F4
FE
09
01
FF
00
FE
F9
07
04
0D
FF
0C
02
02
FE
F4
04
FA
FC
FD
FF
FE
00
02
0C
00
FF
FD
02
FC
0D
09
F6
02
FE
05
F8
04
02
0D
02
0C
12
FB
F9
03
FD
EC
F6
06
FE
04
07
04
FC
F9
04
00
FE
07
FF
F7
10
01
03
0C
FF
0C
F9
09
05
FA
F0
06
FB
03
FD
09
FB
06
09
01
F7
0A
01
00
0A
09
FB
09
F8
FD
F9
01
F4
01
03
F6
06
0E
FA
07
0A
F5
FB
0A
09
FD
05
F1
03
F6
09
08
04
10
00
FA
FA
FE
F6
F6
02
00
F3
03
F7
0B
02
09
06
02
01
F8
FC
01
F9
FC
0C
F3
FE
FC
F9
03
05
FF
F0
06
01
FD
03
FC
FC
03
06
FD
F1
FC
01
F9
FB
FE
FB
03
01
F4
00
F5
0C
FB
06
05
0E
FE
08
F7
0C
F7
17
F2
FC
FB
F6
06
04
01
06
06
FF
F5
07
FE
03
07
F6
FA
F9
F4
05
0A
03
FB
FC
02
F6
07
08
FC
F3
F4
08
F9
01
04
F9
07
F8
F2
03
07
FB
FB
0D
11
FE
08
07
FE
0C
FF
FA
0C
FE
F6
F6
FD
FE
F6
0E
F5
FE
04
F0
08
FE
0A
01
0F
09
FD
07
05
FB
FE
01
03
F6
FC
06
FC
0B
0A
FD
05
FF
F7
01
FA
04
02
04
FE
0B
0B
0D
04
FE
04
07
04
F7
09
FE
00
02
08
F0
0E
FC
04
EF
05
F7
04
02
00
08
03
02
F9
06
0B
07
01
F7
0B
F2
04
03
05
F8
05
F8
06
02
03
F5
FE
F9
F6
FE
08
F1
F8
FE
FE
F8
01
FC
0A
0F
08
F2
02
FC
0D
F7
0F
09
05
F4
00
15
FC
00
05
FC
F2
F9
09
04
FD
01
F6
0B
FE
00
FF
FC
04
05
F7
10
02
FA
FE
03
0B
F6
03
0D
03
05
FB
FD
FA
FF
02
FC
00
01
04
0C
01
F9
F7
F9
F9
F7
00
FD
07
08
FD
FD
FE
F7
FE
FC
FC
00
F9
F3
03
FD
FC
EB
05
F5
09
F8
10
FA
FD
FF
F6
04
09
09
F6
13
13
FA
01
11
FF
0D
F1
0C
FC
02
09
F4
0C
00
07
02
08
F7
07
15
02
05
FC
FB
08
08
F7
EF
0D
FB
F5
11
F9
02
03
09
FC
13
02
01
06
0B
F8
F3
0A
FD
06
F6
08
02
FE
F3
FF
FC
00
FE
0D
EA
07
FC
09
08
F6
FB
FA
FE
F3
02
03
03
04
FC
FD
0A
02
05
0A
FA
F0
FF
07
00
FD
11
F2
01
03
0E
0D
FC
07
05
F6
05
F5
0C
0A
FC
01
06
FB
FE
FA
07
FD
02
FB
F4
FA
FE
F5
09
08
08
FA
05
04
EE
0F
0A
FE
07
FC
FF
F7
07
F4
F9
FE
F8
FF
04
03
F7
F8
0A
04
F9
08
F2
F6
FE
FC
07
0E
FF
04
FE
FD
F6
F9
EE
FD
F0
07
01
FD
FC
FF
0D
F3
08
FB
F6
FD
FF
EF
01
FB
02
FD
FE
FC
0D
05
04
0E
F5
EF
05
FA
FF
03
10
F1
01
FC
07
08
05
02
F8
F6
01
F1
02
08
FC
06
08
FF
FD
FA
07
FF
09
F5
F3
F7
F8
F1
02
04
06
F8
11
07
F1
10
02
F8
0A
F9
F6
FC
06
FE
FD
FB
FD
05
F8
FC
00
F8
10
09
F6
0C
F8
F9
FD
FB
06
09
FC
0B
FB
FA
F4
FC
F6
02
F0
04
FD
F6
F4
03
0C
F8
0D
04
F5
F9
FC
F5
F9
FC
FA
FF
08
F6
03
09
FB
0E
F8
F7
05
F3
F6
05
07
FB
F1
01
FC
06
FF
09
F6
F7
FD
F6
FF
0E
05
FD
0D
0D
F1
F6
0A
FE
0D
EF
FE
FF
F8
F9
FA
0C
06
00
0D
07
F1
06
0C
F7
08
F6
F5
04
0C
02
F2
03
01
FD
02
F6
07
02
0F
03
07
0B
FA
01
04
F6
F9
08
F7
0A
F8
FE
FA
00
FB
FC
F4
FE
00
FF
EE
03
01
03
00
00
F5
F2
04
02
EC
FB
FC
00
F9
05
02
FD
01
FA
00
07
FB
03
01
FE
00
07
FD
05
F9
FC
0B
06
0C
03
F7
00
07
F9
02
FF
F7
FA
FF
01
03
05
03
F9
09
02
07
0D
FB
04
FE
03
F9
F7
02
FC
0E
05
FE
F9
F5
0A
F6
FF
F1
07
04
04
09
03
00
00
FA
FA
09
05
F5
FC
0B
FC
FE
08
F1
06
05
08
04
FD
F7
05
FF
FD
08
05
07
FD
02
03
04
FE
F6
01
F7
F4
00
FB
FD
FD
04
FD
05
04
02
0C
F6
EE
0B
F7
FA
07
05
FA
FB
FD
02
0A
04
06
EF
F7
00
F1
F9
08
FD
04
0A
07
F5
FB
0D
FE
0B
F0
FA
F9
F8
FA
F6
01
01
F9
0D
0C
F7
11
00
F9
12
F9
F6
04
0E
00
F7
FF
05
03
F7
F2
07
FC
13
06
FC
0D
00
FF
06
FE
FF
07
FB
0B
F6
FB
FB
FC
FE
05
F1
02
FB
FA
EF
05
05
01
F3
01
FA
FC
FF
04
F5
01
FE
00
F6
09
FB
F9
05
F6
01
03
FF
06
03
FE
FC
04
07
02
01
FC
0A
04
0B
03
FD
01
FF
F5
FF
03
FA
ED
04
09
09
06
03
FA
0C
02
05
0E
F7
F9
F7
FA
F6
FB
0B
03
06
05
02
F9
F8
09
FA
00
F6
FC
01
08
04
00
FC
FD
F8
FD
02
03
FB
00
02
02
01
06
F9
00
0A
06
02
F7
F8
0D
04
03
03
02
0D
F9
FF
FE
FE
FC
F5
FA
00
00
F1
03
02
F4
F9
02
0A
06
0C
05
F8
00
00
00
06
06
07
0A
09
0A
FE
02
13
03
03
02
F5
FA
0B
FE
04
02
F0
F7
FE
F5
04
FC
FB
05
02
02
03
04
01
01
FF
00
F7
F7
03
FD
FF
FF
04
FF
F8
02
F7
04
F6
FF
0B
0E
FA
06
FC
06
FF
05
01
09
F6
F4
06
02
05
FD
EE
03
08
03
FA
02
FE
00
FB
00
06
05
0D
FA
09
F9
0E
F7
03
05
00
00
0F
F4
FF
FB
09
F9
13
FF
FD
0D
01
FF
FE
F7
04
07
02
FC
F4
FB
F6
08
FC
FE
F1
FE
FC
F9
F9
00
04
FE
FD
15
FB
F9
F7
FE
F9
00
F5
F7
00
F5
01
05
0C
05
09
FD
FB
01
F1
03
09
FE
FE
FD
02
FB
16
06
FF
03
FE
07
FF
02
0A
06
F8
FF
09
FF
06
FD
03
03
04
10
ED
05
01
08
FD
FC
FF
FE
F4
FF
E8
10
07
07
04
FC
F5
F0
08
FB
F1
02
FF
FF
F5
00
06
02
04
FF
FE
03
F9
0A
05
FA
09
03
04
07
04
FE
0A
05
12
FD
FA
03
0F
01
FD
01
F7
F4
00
FC
01
01
01
FB
03
01
02
03
05
06
01
FD
FB
F5
F9
FD
0F
00
FA
FA
F9
02
F9
FF
F2
FF
01
05
06
07
FB
FD
F9
FB
05
06
EB
FA
03
FB
05
0A
F1
01
0C
01
FD
FC
F4
01
FB
01
0A
00
0D
F8
07
F9
03
04
07
08
02
FF
04
15
04
F8
07
F5
FF
0B
05
04
FE
06
F8
01
05
01
05
00
03
04
06
04
FA
FC
00
04
07
05
0B
0F
08
F4
05
06
FE
EC
FD
F3
F2
15
FE
06
00
F5
0B
03
06
01
F9
FE
FC
F7
02
FC
FA
0A
11
F0
FC
00
01
FE
FC
F5
01
07
F8
08
FA
07
07
F7
01
FD
F8
03
00
F5
03
F0
06
FC
F4
0B
06
EF
03
F7
05
00
08
F5
FE
F3
FD
04
07
04
FD
06
00
08
F6
0C
FB
04
F2
FE
FE
FC
09
03
FD
0B
02
F6
F6
04
FE
03
08
FB
F1
FF
08
04
0B
0E
FC
04
F7
FA
01
FD
FB
02
F9
FE
FB
08
FD
09
06
00
00
00
FD
06
FB
0A
03
FD
FF
FF
00
04
0A
FD
01
F9
FB
04
FD
F5
05
FA
06
FB
F9
FA
00
FB
01
FE
FF
05
FB
FF
09
F9
04
FC
0B
01
08
F9
05
FC
07
FD
09
FA
FA
FF
F2
06
07
03
00
09
FD
0A
00
06
FD
03
F0
FD
FF
F3
05
0A
FD
0A
03
FB
F7
0A
09
02
03
F6
FC
FC
0D
06
04
13
FF
FD
FF
FF
FA
F5
01
05
FF
00
FA
09
07
09
01
08
01
F9
F8
FF
F1
FE
0C
F8
01
01
F8
05
09
FF
FA
04
FE
FB
FE
FC
02
FE
01
02
F0
FA
05
F9
01
06
F9
06
FD
FA
03
EF
0E
00
06
FB
08
01
0B
FF
07
02
15
F4
F4
FD
FC
09
04
04
08
FF
0A
F4
02
F5
08
FD
FE
01
F9
FF
04
0D
08
F2
01
07
FA
03
05
F4
F3
F0
08
F5
F7
FF
FE
08
EE
FC
05
07
F9
FF
02
05
F7
0A
03
F9
03
00
F5
FD
FD
F8
00
F5
0A
FA
06
F5
F1
F6
F2
FB
FE
03
07
17
0F
F6
03
0A
F2
FC
08
04
FF
01
FA
FC
04
0C
F6
FE
FC
FB
FD
03
04
01
FE
00
0A
06
08
FD
FB
F5
FE
00
F8
06
04
F7
01
FE
01
08
09
F6
FA
FE
FD
03
0F
F6
03
02
03
FF
FE
03
08
02
FE
FE
F8
FE
FC
05
00
01
FF
01
FB
FB
F9
F4
FE
00
F5
01
00
04
F9
03
F8
FF
FC
FB
09
02
FF
00
06
03
00
F9
04
05
F1
0A
0A
F9
FD
00
FD
F7
13
04
FD
09
02
09
FD
FD
04
01
F4
FE
01
FF
0A
00
06
07
01
13
F5
0C
07
02
F7
05
03
02
F6
02
F5
0B
0A
07
06
FB
FB
FA
FF
01
04
EB
FA
04
F9
07
07
FA
FD
04
04
FA
05
00
03
FB
00
FC
F8
FB
FC
01
00
00
FD
FD
FE
FB
F9
F6
F5
08
FA
03
FF
08
F7
08
07
F3
F5
FA
03
00
FC
02
03
04
0D
04
FE
08
F5
02
08
F9
F6
07
01
F9
08
05
01
05
FC
00
0A
F4
08
FB
F3
08
00
FD
07
FD
05
09
01
13
F3
FF
0C
FD
FA
0B
FB
03
F9
FB
F2
0E
09
08
01
FA
04
FD
FF
FC
08
02
02
08
F8
03
08
F9
03
FE
01
F7
FA
08
FF
F8
07
F1
00
FC
0B
0C
F6
05
04
FD
07
F6
09
00
FA
00
08
FD
08
06
05
03
02
FE
FA
FA
04
FF
04
03
03
FD
02
05
FA
0E
07
05
03
00
01
FA
00
ED
00
01
F3
FD
0A
05
F7
F4
05
02
F8
FD
FE
F9
00
01
08
0E
09
01
FB
03
FD
F8
F1
03
FB
07
FD
00
FA
07
09
F8
F2
FF
05
00
05
07
FC
04
08
04
FA
09
F4
F6
00
EF
08
0C
FA
0A
00
FA
F9
02
0D
01
03
FA
03
FC
0F
06
00
07
06
F3
FE
04
FA
EF
0F
0E
00
04
FD
09
0B
01
04
0C
03
F8
F8
FF
F2
F8
0D
F8
05
0B
F4
07
06
01
F8
01
03
FC
FF
00
05
08
F8
FF
F1
FB
04
F9
02
02
FA
08
03
FE
02
F2
0C
04
03
FC
01
08
0B
03
03
07
13
FC
FC
00
FF
0E
FA
FD
FD
FE
F7
0B
EF
00
03
FA
F2
06
00
FD
FF
02
01
FF
FC
FA
FE
05
FB
00
06
F9
FD
04
00
02
08
06
FB
0A
FF
FA
0C
01
F3
F8
05
01
07
F8
03
08
02
02
F5
05
FC
FF
02
0D
FF
FF
0C
F4
03
FA
FF
06
FE
02
EB
FE
00
F5
03
F3
0E
FB
FC
FE
06
01
FA
02
FE
FB
F7
FB
FB
FA
07
FA
02
00
06
FA
FE
F6
0E
F6
05
F0
F9
FB
03
FB
FA
FC
01
F6
01
F1
01
00
FB
05
05
FC
00
01
FB
F6
06
FA
FD
FF
06
F5
FE
F6
03
00
05
01
F8
F8
FF
F3
FA
FC
FB
09
04
FC
03
09
02
08
0D
EF
FC
F6
FB
FB
FB
00
00
F7
12
05
F9
0D
FF
FE
04
F9
F2
05
04
00
02
FA
FF
04
FB
FC
05
F3
0A
02
F5
09
FF
FF
00
FB
05
09
00
0C
F8
FE
FE
F9
F9
0D
F9
06
FA
F7
F3
09
07
01
03
05
FF
00
02
0C
01
FE
EB
04
FC
00
FF
F9
FD
F9
07
06
FB
02
05
F9
F5
03
EF
FC
FB
FE
FC
FF
FC
09
04
01
F5
F8
FE
F6
FD
0B
FB
01
F9
07
FD
FD
03
05
0E
09
F0
FF
01
0A
00
02
0A
FE
FF
02
0A
F9
FC
08
F2
F8
02
0B
FC
FA
0A
00
0A
F9
FF
FD
01
FC
05
FF
0B
FD
FA
01
03
0E
F8
07
0E
04
04
03
06
F6
01
FB
FA
04
00
09
07
0B
01
00
08
FA
FC
09
02
F1
12
F1
FF
0D
FB
02
FA
0E
F9
F1
FD
04
01
01
FF
00
F1
FD
04
F7
F6
00
FE
FF
06
07
12
F6
0A
13
FD
F0
FE
FC
FD
07
0B
02
F9
F9
04
09
08
02
05
F9
F9
F0
0A
F7
F3
09
05
FC
FF
0D
01
02
03
F9
FE
04
00
0C
03
03
12
F8
04
05
FF
FB
FA
F3
FB
F7
00
FD
F5
0E
07
F6
03
F5
03
01
FA
FB
FC
FE
03
FF
F7
F8
FD
06
F6
F6
F5
F9
FB
02
0E
02
07
09
FE
03
02
FD
06
05
01
0C
F8
01
F9
02
0A
FF
F8
05
F6
FA
FE
FA
FE
FC
F4
0B
F6
F6
FC
01
FE
FF
FD
03
0B
04
F5
03
01
0C
01
FE
03
FD
F7
00
0C
FA
F4
07
F5
FF
FC
08
0B
07
FC
01
09
03
03
03
FE
08
FF
F4
12
FA
FF
FE
F8
11
F6
05
06
07
01
00
FC
FA
03
FF
FB
02
07
06
01
F7
FC
F6
01
FA
FC
00
03
07
F3
07
07
F8
05
FD
00
F7
F7
0A
01
F7
08
F3
01
02
0A
08
FF
07
0A
FD
00
F6
0D
FC
FB
01
03
F6
0A
07
06
04
05
FE
00
F8
08
04
02
03
00
FF
00
FF
FB
0C
0E
08
04
FD
FB
FE
F9
EF
FA
01
F7
FF
0B
09
F6
F2
02
01
FD
02
F9
F8
05
00
09
0F
01
04
00
05
FE
F9
ED
08
F9
05
01
01
03
03
0C
F9
FA
02
09
09
FD
FD
09
08
0A
00
05
FD
F6
06
01
03
00
FF
07
FE
FD
01
FF
FE
0B
FF
03
FC
F7
FB
FC
00
06
06
00
09
00
03
04
FD
03
FD
FE
FA
FF
07
F9
04
F6
F4
07
FB
FD
FB
FE
09
FD
FD
F7
FB
FA
0C
0C
F8
0B
06
05
F7
FF
FB
F5
FA
01
06
00
04
FE
FC
07
04
F3
06
FF
F7
09
F2
04
F6
F9
02
0C
FB
01
03
00
FF
07
FD
F9
F9
F8
03
04
FF
01
0A
FD
08
F9
05
FB
03
F9
F6
FF
EF
06
0D
F5
0C
05
FC
F6
05
FE
00
00
FD
FB
03
0B
08
02
09
01
F9
02
F6
FD
FC
04
08
FE
02
F9
06
0F
04
0D
0C
FA
FF
FD
05
F1
FA
0D
FA
08
09
FF
00
05
01
F5
F8
01
08
F8
FA
10
08
FC
FF
F3
FC
09
F5
03
03
04
02
FF
01
03
FB
05
0C
06
00
FB
03
0E
FA
02
05
07
FC
FD
02
FD
01
03
08
FE
04
FF
08
06
F7
08
FE
04
09
06
06
FE
06
FE
F5
03
07
00
07
05
02
FA
03
02
F9
F6
06
F9
FD
06
02
04
FE
FE
0B
02
F3
FD
F5
F8
11
01
01
03
FF
03
00
02
05
FB
FC
02
F2
FA
FF
00
0D
0A
FC
F9
06
06
FF
0A
01
F6
09
FB
0D
FD
06
05
FC
09
FE
04
05
01
EE
FE
F9
FD
FD
FB
0F
0F
F7
03
F8
00
07
04
00
FD
FE
0A
06
FB
01
08
F8
FF
01
FC
F5
0E
F4
03
06
FC
04
F7
05
FC
EF
FD
05
03
F9
F7
FA
F8
03
00
FF
F1
00
00
FA
FB
09
0E
F8
0F
12
FB
F6
02
FF
03
FC
08
FF
FA
F8
FB
07
07
FE
0A
01
FC
FE
08
F8
FF
FB
FE
FE
FF
06
FE
03
FF
F8
02
FE
02
04
0A
08
0A
FE
01
07
FE
F9
F8
FD
FB
03
F8
02
F5
09
00
FC
01
F5
FF
FC
F1
FF
FC
FD
FB
F7
01
FB
FF
F9
FC
0A
0E
07
FC
03
01
FF
05
FF
FD
F7
FE
0C
FC
FC
0A
F8
0B
0B
0C
09
FE
08
10
FB
04
FD
12
06
FE
00
03
F1
08
00
0C
F9
01
03
FF
FF
FC
00
0B
05
FD
F9
F7
00
F6
08
10
05
FC
07
07
F6
06
F6
F2
FC
FA
FE
06
03
F2
FE
FC
00
04
03
F6
FA
FB
05
06
0A
00
F4
0B
FE
F7
F7
F2
FD
F9
0A
05
09
0C
FB
02
F1
08
F5
FF
F9
FF
05
01
01
FF
03
01
FE
09
FD
FF
01
02
06
F7
0A
04
FE
02
04
F5
0B
FF
05
FD
06
0C
FF
FC
06
0A
04
04
F8
F6
05
FB
F8
FC
F8
F6
06
02
01
04
00
0B
0A
07
06
F4
F7
F9
FC
02
09
01
FB
07
FA
01
F9
02
0A
FA
02
0C
0A
F4
08
FA
FC
07
FE
F6
FD
07
FF
01
06
FC
03
FF
0C
02
03
F5
F4
02
00
FE
0A
FD
02
05
04
07
05
00
05
F7
FE
FD
0C
F7
06
08
F8
FD
06
FE
07
FD
FA
FE
FD
FF
02
FC
02
F1
04
02
08
F2
05
F5
FF
0A
FC
01
0E
03
F0
0C
12
F6
F1
04
F9
FF
02
FF
06
05
FB
FC
0B
03
0B
01
0B
F7
01
08
F9
09
03
06
FD
01
F6
F2
09
FB
EF
06
FC
05
03
04
03
08
FE
04
FD
04
FC
F7
FC
03
FE
FB
FD
00
07
01
F0
F9
F7
03
02
F8
FE
FD
FD
F6
F5
0C
05
FF
0B
09
01
0D
06
00
06
FF
F5
FF
F7
06
07
00
0F
01
01
FB
03
09
05
00
00
FD
00
0D
FF
FF
0A
02
F9
00
03
F4
F5
09
0C
02
FC
F5
08
04
FF
FD
04
0C
FB
FE
FD
F0
F5
07
FC
F8
0E
F7
04
0D
FA
07
00
0F
FB
FB
05
03
08
F0
08
F5
FB
00
F8
02
05
FA
09
05
01
06
F7
04
08
01
FB
FC
01
0C
0C
F9
0E
07
00
FC
04
F4
FB
04
00
00
05
FB
00
0D
FB
F5
0B
05
00
0A
FE
01
01
FE
FF
02
03
01
06
11
05
FD
00
0D
FB
05
06
F8
F9
0D
F1
FE
07
F3
F4
11
05
01
FE
F9
0E
FF
FD
05
08
07
FB
F9
01
F7
F7
0E
FB
F7
09
FE
0E
04
00
F7
00
07
FF
0A
0A
F6
0C
F7
04
FA
01
FD
02
08
F6
04
08
0A
F7
00
FA
03
00
02
04
03
06
01
06
00
08
10
06
05
FF
F7
03
08
07
FC
11
02
07
FA
05
FC
03
F7
FA
01
F6
08
0A
FF
0B
07
FE
F4
0A
FF
00
02
FB
F9
FD
06
08
05
0F
F6
F9
FD
FA
F9
FB
FF
04
F9
FF
F5
0B
03
0A
08
07
FC
FA
FC
06
F1
02
0E
F8
F6
03
01
02
08
00
FB
FF
04
02
FF
FD
03
00
03
01
F4
FC
01
F8
06
03
01
06
FD
F9
08
FA
03
04
0B
02
09
FE
0C
FC
02
01
0B
FA
F8
03
F2
05
08
0D
FB
0E
05
0C
F7
02
FB
02
F6
FD
04
F5
05
0A
01
09
09
FE
F5
09
04
FD
04
FA
FD
FC
01
08
09
0F
F1
F9
FE
FC
F7
F8
FD
01
FC
01
F3
0C
02
0B
09
03
F7
F7
FE
00
F1
02
11
FC
F2
FE
04
FE
08
FC
FA
00
07
FE
FE
00
FF
00
02
03
F6
01
FB
F7
06
02
FE
06
FE
F7
07
FB
07
02
06
00
0B
00
0C
FB
01
FE
0B
F5
FA
FE
FF
09
F5
FD
05
FE
F3
F9
F2
F7
FC
00
FE
02
04
FE
FB
03
02
F8
03
FD
00
02
01
FA
FF
F8
0F
FC
FA
04
FD
FB
F6
FA
FD
05
01
00
FA
FF
02
09
0A
F6
05
04
04
04
EF
FC
FE
FF
0C
00
03
03
00
F8
08
F5
EF
0C
F3
05
F6
02
09
07
FB
FB
0D
F6
04
03
FE
04
FA
FD
09
F7
FE
00
F4
0D
FF
FE
01
03
06
0B
FD
FA
09
F0
00
FB
07
00
0A
F9
FE
F9
FE
F4
FB
02
09
06
06
FB
FF
01
F9
00
F9
FC
FC
01
F6
FF
07
F8
FA
09
FE
0A
FC
0D
08
F8
01
FA
0E
0D
08
FA
0D
08
FE
00
0D
FA
06
F8
08
FA
FA
FD
06
0E
05
00
00
FE
F1
03
14
04
FD
01
00
FA
0C
F8
F4
02
F8
FA
0F
FF
F6
03
02
01
0E
01
F9
04
FF
FA
FB
0B
FB
FB
01
04
F6
FC
EE
FA
F9
04
FF
0A
F6
01
FD
FE
07
F7
08
FF
00
01
07
FF
09
0A
10
FB
FB
FC
F8
FF
02
05
00
06
F9
03
FE
FF
FD
04
F7
02
F4
03
07
F7
01
06
04
07
07
FC
02
05
FD
04
02
FA
FC
01
03
FF
F8
FD
0B
07
04
FF
FC
FB
F5
FD
05
07
F5
03
10
F7
13
03
08
05
F8
F9
0C
00
F4
09
FE
F8
0A
F6
00
0E
F9
02
FE
05
05
F8
00
07
FE
FF
FC
F5
04
0A
F9
0F
F8
03
F6
05
06
FC
FA
F7
09
FA
03
EE
FD
03
FB
02
0B
F7
F9
FD
04
01
F8
FF
01
FC
04
F7
F6
F9
F9
FF
02
00
02
FE
FC
F7
FF
F7
FD
05
FF
02
07
0B
FC
0A
09
F5
00
F7
05
02
FF
03
05
00
0C
F9
FE
06
04
09
FE
F9
F4
05
F9
FD
09
04
FC
02
07
07
FE
F3
06
FB
FA
04
FD
00
07
F7
04
0D
01
0E
F7
07
04
FD
F2
0A
FD
02
FA
FF
F3
0A
08
07
00
00
FB
02
02
F1
04
F6
09
F9
08
FD
FF
01
FC
01
F9
F8
07
F0
F7
08
07
F7
04
FB
FC
FF
03
04
F6
F6
FE
F5
F8
04
06
08
0D
FE
04
09
0A
05
10
F1
02
F7
F1
F9
FE
FF
FE
F3
10
01
FC
0A
05
FB
F9
FD
F7
04
0A
0B
01
F6
FE
02
FA
F9
00
FF
0C
08
FD
04
01
07
F7
FE
FE
04
FC
02
FF
FE
F2
F8
FD
09
FE
05
F8
FC
F2
04
FD
02
FB
00
05
0C
01
02
0C
F8
09
F4
06
01
07
02
01
07
FE
01
0C
F4
03
0D
FD
02
0A
F9
F7
FB
09
F5
F0
02
F9
00
F4
F9
01
0B
F6
FF
04
01
F9
00
FB
05
F8
FB
F6
F8
02
F5
00
FC
07
FC
09
FB
E4
FE
FF
07
00
00
04
11
17
F7
0A
0D
EA
FF
01
06
05
06
F4
00
0D
01
FB
04
02
F2
03
03
FE
FB
FE
07
0F
06
05
03
F6
FB
FD
07
02
03
08
F9
06
00
09
F8
0E
FB
07
07
01
01
03
F7
F9
F8
03
00
F6
FF
FC
F9
02
ED
FD
F5
04
05
F6
FF
FF
FB
07
FC
02
FC
04
00
0E
03
0E
0B
02
05
08
FD
00
F6
FE
FA
07
03
03
FA
08
FC
FC
05
09
08
FA
02
02
F9
03
F6
0F
00
F1
F9
0C
09
F5
F7
04
04
FD
F7
04
06
F8
FD
08
0C
0E
FE
F8
04
FD
FA
F2
04
04
05
FA
FD
F5
09
04
FE
FA
01
02
0A
F3
00
01
0F
05
F9
04
FB
02
0E
0A
0C
F8
F8
0B
FF
01
0A
05
07
09
09
06
08
02
02
F9
00
01
01
04
0C
01
FF
FE
FE
F5
ED
08
F2
F7
0B
F8
08
FB
F8
06
FD
FF
FE
F7
08
FF
01
F6
F8
06
06
0A
F7
08
05
F8
F8
08
03
F2
F8
FF
0B
01
05
00
05
00
FB
FD
07
FF
F4
FC
F6
06
FA
F8
05
0A
F4
FC
00
02
02
09
F6
FF
F5
02
F5
02
04
F9
08
06
01
FE
01
FF
FE
0C
01
04
0D
FF
FE
05
09
09
03
01
06
FD
09
04
08
FE
00
02
FC
00
03
00
02
FC
FD
F2
00
F4
F5
FA
F7
F0
08
F4
05
02
F9
07
02
07
03
F6
FD
FB
01
F0
03
0A
FC
05
F8
07
FC
08
01
02
09
FD
04
FA
07
00
FF
F8
03
F9
FB
03
05
03
02
FE
09
FC
03
02
03
FD
F7
FF
04
FC
04
00
FE
06
FF
02
05
FB
F7
FF
04
F3
FD
F7
08
01
01
F9
FA
F9
F5
03
07
FA
FF
FA
FD
F6
06
F1
03
F7
FD
FE
0A
06
03
FC
00
00
FD
06
F9
07
08
FE
06
07
05
08
F6
13
01
0A
11
F3
07
FC
09
FC
FF
04
FC
14
06
FF
FC
F9
0C
FB
FC
F0
0E
FF
F9
11
FE
05
00
FB
F9
13
FD
00
06
0C
FA
F7
07
FA
01
FF
09
08
FD
FA
03
05
FB
03
0B
FB
01
FA
08
F4
06
FE
0C
F1
00
FC
07
FE
FE
06
FE
F4
07
01
06
F9
FA
12
FC
FC
0B
FA
09
04
04
02
FA
02
06
F5
FD
03
07
F1
08
01
02
02
FA
F2
FB
0C
FA
01
FC
01
09
F5
01
F9
F8
F8
F9
FD
0D
03
04
F6
F5
07
FB
02
06
10
0E
F4
F7
07
07
F3
EA
0A
07
02
01
02
08
01
07
FB
05
F5
F7
F9
F9
09
F9
FD
FB
0C
00
FF
02
00
FD
06
F3
F5
01
FD
FE
03
FF
F7
08
FB
03
FE
0C
07
02
F8
F9
F8
FB
06
03
02
08
FB
01
F5
09
F6
07
FD
01
F8
09
07
FB
01
08
FD
02
01
FA
02
03
F7
04
05
FB
01
FD
09
07
00
09
FE
04
FC
03
F3
02
FF
FF
07
06
FE
FC
05
03
0D
FF
FA
05
FD
FD
0B
F7
FF
05
FA
F7
0B
FD
FE
08
02
FE
F7
04
03
FC
02
06
08
F9
FE
FC
07
06
FE
0C
FE
FF
F4
08
FE
FF
FC
FC
FA
F7
F5
0A
06
06
FE
00
FC
04
05
00
FC
F6
00
04
FA
00
08
FB
04
08
0A
08
FE
0A
07
FE
03
FA
0C
0A
01
FC
0B
FA
01
FC
12
FB
04
FD
04
01
00
03
FF
03
FC
FF
FA
08
F7
08
12
00
01
03
01
FC
04
F7
E9
00
FC
FA
07
FE
F8
FF
00
01
09
04
FA
FC
01
01
FE
07
FC
F7
07
FE
F9
F7
F6
FF
F9
06
07
07
07
F6
01
F5
03
F5
FE
FF
F6
05
FA
03
01
02
01
FF
09
04
05
0E
FB
FB
08
09
03
07
02
0B
FB
0F
00
06
03
07
04
FA
FC
04
06
06
01
FC
F1
00
F0
F2
03
F4
F5
02
FB
04
FE
FF
08
08
06
04
F2
FD
F6
FF
FB
02
06
FC
04
FC
0C
FD
FB
05
06
09
00
FE
F9
0B
FF
FD
02
07
F6
FC
07
01
00
04
F7
04
01
05
01
FF
FA
F5
FC
07
FF
0D
01
FE
02
FE
04
F7
FF
F8
05
04
FF
FC
02
03
02
01
04
FA
FA
FC
06
09
F9
0A
03
FE
00
05
FC
07
FC
FE
02
02
10
FD
FB
09
06
FD
03
FF
F4
FD
FE
04
FB
FF
F9
FF
06
FF
01
04
08
05
05
01
F8
F2
FC
FA
05
0A
F7
FB
02
FF
03
FF
08
04
FC
03
0B
09
F7
05
F9
FA
06
FC
F6
04
02
FE
01
08
FA
02
02
0A
04
FD
F6
FD
05
03
FD
09
02
00
02
05
0C
FD
FA
F2
08
FD
03
ED
F8
0A
F5
05
05
00
FC
01
04
FA
01
03
04
F3
07
F9
FA
FB
03
FE
FC
FD
05
FB
01
FF
FE
FB
F3
09
FD
FE
FB
0A
F5
0A
09
F1
F4
FF
04
FD
02
04
05
02
0E
02
F7
08
FF
FF
01
F6
F7
03
FF
F9
05
02
FD
02
01
01
09
F2
08
F9
F3
07
F6
F9
04
FA
07
0D
01
10
F7
FD
09
FC
F8
06
F6
04
00
F7
FA
07
0C
03
F5
04
0D
09
FB
06
09
01
00
0C
FF
08
ED
FA
FA
F5
09
FF
05
03
00
FA
F6
FE
03
F7
06
F9
F3
FA
02
02
09
09
F6
FF
F9
05
06
F8
08
0D
FC
04
05
00
FF
01
FF
04
00
F8
F9
FC
FF
0A
05
02
FD
00
FB
06
07
01
06
FF
04
FC
FD
F8
FF
F6
09
FD
F9
FB
FE
F9
08
07
F8
06
FE
FB
10
F3
01
F9
06
FB
0C
02
07
04
03
FF
05
00
F3
02
02
0A
F8
FC
09
FE
F3
0E
FB
F2
FE
F8
01
0D
08
00
F8
09
F6
FE
07
FE
08
06
09
03
05
FB
0B
FB
04
06
FF
05
0D
05
04
FA
FC
FE
FD
EC
FE
FC
FC
0B
04
08
05
FF
01
03
03
02
FB
F8
00
F6
0A
F7
FA
03
FF
FE
EB
06
F4
01
06
FE
FF
07
01
03
F8
06
07
00
F6
F8
00
FB
01
F5
F4
F8
0C
FC
F7
0A
07
F6
FF
F0
10
F8
13
F2
04
F1
F9
06
FF
FE
03
04
FC
FD
FD
05
FE
06
F9
F6
FB
F1
04
0A
FB
01
FE
FF
F6
00
FF
FD
FA
FC
01
03
03
05
FE
03
FA
F5
04
FF
02
FB
09
0F
03
0A
05
FC
10
FE
05
10
F4
FC
FB
00
FB
FC
0B
00
0A
07
FC
FD
FB
0A
F9
02
00
03
FD
FF
0B
02
00
FE
F9
FC
07
FA
05
07
04
FF
FD
04
00
01
02
09
06
FC
FC
0B
0B
FF
00
04
02
01
FA
08
0B
FA
F8
F1
05
02
F7
F9
FC
05
01
FC
04
FC
F9
FE
04
0A
F9
08
FF
FD
FE
08
F0
07
F8
FF
01
05
0D
FE
F9
04
06
01
05
F8
FA
07
F9
02
FC
03
01
F8
08
01
01
08
01
0C
04
06
FD
F6
F9
FA
0E
07
F8
F6
FC
03
FC
FE
FC
0D
FD
FF
13
05
FC
05
FB
F6
0D
01
F7
02
0A
F8
FB
0D
F4
07
00
0D
06
00
F3
FC
01
FE
00
0A
FA
02
FF
07
FD
01
0A
06
06
01
02
06
0D
F9
0A
FD
00
03
01
FE
FE
0A
FB
FA
FD
07
FF
01
0A
00
F9
FF
05
F7
FC
07
FB
03
0A
00
0B
00
FE
04
0B
FB
FD
FA
F8
10
07
00
FC
FE
0D
FD
01
00
FA
F6
06
F2
FC
03
F2
11
0C
FA
FD
0B
0D
FE
06
00
FA
0B
F6
0D
FA
03
07
F6
0D
01
F9
07
03
F1
03
F1
06
00
F7
09
09
FC
0A
FD
00
07
08
02
FB
FE
04
F7
03
F7
07
FF
05
F3
03
0C
F5
0A
05
F4
F8
F9
08
FC
FC
0A
FF
F1
03
F4
02
FA
06
FD
FA
FD
0E
F9
03
FE
03
F5
F4
08
00
F7
0D
15
F6
0B
0A
F7
F9
F7
02
01
06
00
00
FF
0A
02
FE
07
04
07
F8
FE
FD
02
FF
F5
0A
00
F9
FD
07
04
00
EE
01
F8
F6
FE
FD
FF
FF
FF
09
0D
08
05
FB
FE
09
F5
F4
0C
FC
0A
FD
FD
FC
0A
06
04
F6
01
03
0A
00
04
04
F5
09
F5
04
05
02
00
02
03
FF
02
0B
F4
01
0C
FC
06
0A
FB
F5
FA
0C
F8
F3
02
F8
FF
F4
F5
01
0D
F5
FC
06
06
FC
03
FF
01
00
FD
F6
00
FF
F4
FC
FA
04
F9
0D
FB
EA
FF
FB
06
FE
06
03
13
10
F7
0C
0D
EA
FE
04
07
02
04
F7
01
0C
03
FD
08
01
F3
FF
03
00
FD
00
02
0E
0A
07
05
F8
FF
01
06
FD
07
0D
FA
04
00
00
F6
07
04
05
07
0A
F9
FF
FD
F9
02
FC
F8
FA
FF
F7
FF
06
F2
F7
FE
02
0C
F2
07
FE
F9
06
F9
06
0D
08
FA
12
0B
00
00
08
FD
08
FB
01
F9
FC
F9
03
0B
07
00
07
06
F0
09
10
01
FF
00
06
F9
0B
F5
FE
06
F4
F3
0D
01
F7
FF
07
01
06
FB
01
04
FD
FD
FE
08
08
FB
F7
02
F9
FC
F4
F8
F9
02
FB
06
EF
04
FD
FC
05
F8
05
05
FA
0C
08
06
FA
FF
FE
FA
0B
00
05
0C
02
01
FF
0B
0C
02
01
08
F7
07
03
08
FC
FF
00
01
02
08
FD
02
FD
F9
F1
06
F4
F1
F5
F6
EB
0C
F4
08
07
FA
07
04
09
08
F6
FF
FF
FE
EC
04
09
FC
09
F8
01
FB
0B
06
FF
03
FE
07
FD
06
FE
01
F8
FD
FD
F7
05
03
01
FE
02
07
FB
07
06
08
FF
F3
00
FF
FC
00
FE
FF
08
FF
00
F3
01
00
F9
06
03
00
03
01
FB
03
0D
FE
08
0B
FF
FA
02
0B
05
02
05
02
04
08
05
08
01
04
04
FD
FF
FD
06
FE
F9
01
F1
FA
FD
FB
FE
FA
F5
05
F5
00
03
FE
08
03
04
00
F8
FD
FC
04
F3
06
09
FD
03
FA
02
F8
06
01
01
09
FC
06
F9
01
01
00
F6
04
F9
F7
05
02
08
06
FF
06
FC
04
02
FF
F7
FC
FB
09
FB
06
03
02
0A
FB
04
F5
00
FB
01
F4
05
06
09
03
FB
FF
07
01
04
05
FC
F2
FC
09
FF
FA
12
EE
09
03
11
0C
FB
03
09
F6
06
F8
0E
07
FA
04
07
F7
06
FF
06
FE
03
01
F5
F9
FC
F5
0D
04
04
F8
05
03
F0
0E
08
01
00
00
04
F3
07
F5
FE
F9
F5
FD
02
06
F3
F8
06
05
F8
03
F6
F8
F9
00
09
0C
05
FD
02
FA
F5
F8
F0
FF
F2
09
00
FD
01
00
0C
F1
07
00
F7
EF
07
FC
F5
FE
FA
0C
F6
01
FB
FD
FB
FA
05
02
F8
0B
01
F3
05
FC
FD
01
06
FB
00
04
14
FC
02
03
0A
02
FB
FF
02
F8
FF
05
FF
06
09
F4
04
01
05
06
01
08
01
FF
02
FE
F8
02
16
00
FA
F6
F9
02
FC
FA
F2
04
FA
FB
10
01
00
F6
FC
F7
07
04
EE
FE
01
F8
00
0F
FA
02
08
02
05
F7
F2
03
FA
01
0A
FE
07
FB
04
FE
0E
FC
F5
F8
FF
FC
FA
FE
F7
F8
FD
F8
10
09
06
0F
F8
FA
FF
01
08
00
0D
02
F8
06
03
09
09
05
FE
FC
FA
FA
04
08
01
FC
F9
07
F1
ED
FF
FC
F9
FC
F8
00
04
F9
01
0A
0B
05
00
FC
F5
01
FF
F8
0C
F5
F6
00
FA
FC
FB
06
02
07
FE
05
02
00
08
05
FB
0A
F0
F5
09
F9
04
06
F1
12
FD
05
FB
07
F8
F7
F5
F9
05
FB
FC
FE
0F
FA
F9
FF
05
03
F6
0E
FE
07
F0
09
F7
05
FD
F5
02
F8
08
03
FC
0F
06
FC
F3
08
F3
04
04
01
F4
05
05
09
07
06
F9
FA
FE
F2
FD
03
FA
02
FE
00
F5
04
03
06
11
0C
F4
01
FE
0C
F0
07
0C
03
FF
07
0B
FE
05
02
F8
EE
FA
0A
FA
F8
0E
FF
03
FB
F9
FB
04
FB
04
FD
0B
04
FB
04
07
03
FE
0A
0C
01
FE
FF
08
FA
00
06
01
00
FC
04
F3
01
07
0D
F6
0D
08
0D
F3
FF
F9
00
FE
FB
06
FE
03
02
02
0D
0B
03
F8
06
FD
00
07
03
FB
03
FE
09
09
0C
F1
FE
FE
FA
F7
FC
F9
FB
00
FF
F0
0B
02
0C
08
01
F6
F9
FF
01
F0
03
10
04
F0
02
0F
F8
08
FA
FC
FB
07
FF
FA
04
03
FE
FF
01
FC
02
F5
FB
03
FF
00
08
00
FE
06
03
02
07
03
02
06
FD
09
FD
FE
FC
04
F7
01
FF
00
FF
02
01
03
06
01
03
07
F7
04
FC
07
05
03
06
00
0A
FE
01
05
05
00
0C
07
06
F9
FE
07
F9
03
03
F9
08
0A
01
03
FF
F1
03
00
F6
F7
F9
F2
0F
FE
03
FF
FE
0E
01
03
04
F8
F2
02
F1
F6
01
F8
08
0B
F9
FB
09
09
01
0A
05
F8
0B
FA
0E
F8
02
03
FC
FF
FD
00
04
04
F5
FC
FA
04
00
FF
09
06
F7
04
FB
02
05
09
00
01
FF
03
07
06
08
F7
08
05
03
F6
00
08
F8
FC
03
FE
05
02
04
04
FA
FE
05
F3
0A
F0
FE
F8
02
F6
00
F1
06
03
04
F3
03
03
F6
01
17
F5
F8
FB
FD
F9
05
00
06
03
02
F7
02
02
0E
00
09
04
FB
F5
FB
0A
04
07
00
03
FF
04
08
04
F7
03
F8
0D
08
02
01
05
FB
0D
05
09
01
F5
F6
07
04
F5
FF
07
0A
0C
F8
05
F5
00
02
F4
03
F8
08
F8
08
09
06
04
08
00
0B
00
05
FE
04
F2
FB
FE
F0
06
0C
F6
07
03
F8
F5
03
03
FD
00
FA
F9
F9
06
0C
08
08
01
FB
01
F8
03
FD
0B
06
F9
02
F9
0D
0A
04
0A
07
FF
FB
FC
06
F6
00
0D
F6
03
04
F7
0B
0A
FD
F3
FA
04
03
FB
F3
08
06
00
00
F2
00
05
F1
0C
03
FD
05
FD
F6
0C
F0
04
02
05
06
09
FE
0C
F7
04
01
0C
FA
F8
00
FF
FA
05
04
00
F8
09
07
0D
FF
01
FE
06
03
04
06
FD
F7
03
05
02
FE
0C
F3
0B
FF
0B
09
FC
FF
03
F8
05
FD
07
07
FC
04
04
F7
06
FE
03
FC
FF
07
F5
FC
F8
F3
0C
FE
03
F8
02
01
F9
08
FD
00
FB
04
08
F3
06
FE
05
F6
F9
00
FB
03
F7
FC
04
05
F8
01
FB
FA
F5
04
07
04
04
F8
04
F9
F5
FC
F9
FE
F9
07
FD
FB
02
FC
05
F3
0C
00
F6
F4
04
F9
FA
F0
F6
06
00
00
04
FF
FA
01
FE
FD
FF
FB
FB
FC
02
FA
F3
FE
FA
FF
04
07
01
FA
FC
F7
00
01
FD
02
05
08
FD
05
02
09
11
EC
02
F9
00
04
FA
09
01
01
0E
01
F7
08
0E
02
05
F4
F2
09
01
FC
F7
08
FF
00
09
FC
07
FA
08
FC
02
08
FB
04
0B
F5
FE
0E
F8
0E
F6
02
04
FA
F4
05
F8
00
FF
01
F0
0A
04
0A
F2
FB
0C
10
F2
05
0B
0A
09
03
02
03
FB
00
08
04
00
F6
0E
07
FE
06
FD
04
0B
04
08
04
F8
01
FC
FE
05
06
FB
03
FD
04
FD
F8
00
FF
07
F8
F8
0B
F6
04
FA
FD
06
F7
FA
FA
F4
0B
04
05
EE
01
05
08
0D
F8
11
00
03
F6
01
03
F4
F7
FC
07
FF
02
F8
FF
09
01
F7
0C
00
F7
0A
F4
04
FB
FB
FC
09
FC
01
0A
FA
06
08
FD
F8
FC
F8
06
07
06
09
04
04
07
01
FC
01
FE
F9
F9
FD
F1
01
11
F7
02
03
02
F8
00
05
F9
FC
F8
00
FB
03
08
05
09
F8
FA
07
FC
FE
F8
06
07
FC
07
FA
08
0D
03
04
05
FC
F9
00
FA
F8
F7
0D
F8
FE
05
F8
FF
07
FE
F6
06
0A
FC
F8
FF
07
08
FA
03
F7
02
01
F3
05
07
F7
03
00
FE
03
F8
06
09
FD
02
02
04
11
FB
00
00
07
FA
FA
00
FD
04
08
00
05
05
0A
F8
FD
0B
FF
07
F4
FB
F4
F9
0A
05
06
03
FF
F3
F9
01
01
F8
03
F1
F9
F6
05
FF
02
0A
F8
FA
F9
0A
00
F9
02
0E
F3
0A
08
FA
F8
04
FE
FB
06
F7
FC
00
0B
06
03
FE
FB
F8
F6
01
02
04
05
05
06
FB
02
FE
FA
F7
0D
F9
FB
F7
F9
FF
03
05
F8
01
00
FA
07
FF
04
F7
0B
FE
0D
06
01
00
03
F4
05
00
F9
08
0A
F5
FE
F7
02
F0
04
01
05
05
F9
FE
0B
01
03
07
FB
EF
FB
07
FF
F7
13
EA
04
00
10
0D
FB
05
06
F5
07
F2
0F
08
F9
03
09
F9
05
FE
04
FF
06
FB
F2
F6
FE
F3
0B
09
07
F9
09
05
ED
12
0C
00
04
FD
FE
F4
04
EF
FD
FD
F4
FE
06
06
F7
F2
0B
04
F6
06
F5
F6
FC
FD
0A
11
03
02
FD
FB
F5
F7
EC
00
F0
09
FF
FC
FB
02
10
F2
F2
07
F6
02
02
FF
F4
02
03
FA
FC
04
F6
05
07
FB
FC
FF
07
FE
FD
07
FE
0A
0D
02
FF
F5
11
02
02
03
FB
04
FB
FE
01
07
F8
ED
FE
03
07
04
03
F9
09
05
F7
06
FA
F8
F5
F3
FE
FE
08
FE
01
F8
FD
FD
FA
0A
00
11
F4
F5
08
0B
F5
F7
05
01
FC
02
02
08
F9
01
F9
01
FF
FA
EF
FB
12
FC
FC
FA
07
08
01
04
09
FC
11
F4
FB
FA
F2
FD
F7
01
FB
FD
F4
FA
0B
FA
FA
08
00
00
07
03
FA
F9
0F
FE
FE
0A
02
05
0E
06
FB
FD
13
04
00
FC
F6
FA
FF
F9
FF
0F
F7
EC
02
06
0E
00
07
F7
04
00
F6
08
FE
F7
F4
F4
FD
FE
08
03
FB
FE
02
FE
F3
0B
07
0D
F6
F5
0D
12
F4
F6
FE
03
00
00
FC
0F
FB
00
FF
05
03
00
F3
02
0B
FE
FC
F7
02
0E
FF
0D
01
05
0A
FE
FE
01
08
02
F8
F3
03
FA
EF
05
00
06
FE
FB
FE
03
FE
FF
FF
FE
F9
03
FC
FB
05
FF
FA
06
03
00
00
09
0E
FE
FF
01
0D
09
02
FA
05
FE
FA
FE
07
02
0A
F6
08
04
01
06
01
0C
00
00
FF
FF
F7
00
17
FE
FD
FA
F8
03
00
FB
EA
06
FF
FA
10
FE
00
00
FC
F9
0E
04
F1
FF
01
F9
FC
0C
F5
FF
09
01
FE
FD
F2
FD
FA
FD
07
05
03
F7
FE
FC
02
0C
FE
01
FF
00
F6
01
FC
00
0C
FC
F1
08
F7
FC
00
03
05
F2
F3
05
F8
05
F6
01
F3
F6
FE
04
F9
00
FE
04
FD
05
08
FE
0C
0A
F8
FD
07
02
0D
F7
0A
06
F8
09
F9
01
FB
03
07
05
00
F6
0A
F8
F9
03
FF
0B
08
0A
F2
05
09
F8
02
F3
0B
08
01
FC
12
FE
02
0B
01
FC
F1
F8
F9
F9
05
FC
FF
04
0C
FE
02
FA
04
02
FE
FC
F1
08
FE
04
F6
F5
00
FD
ED
09
F8
05
F5
00
FB
FF
05
FA
FF
FF
FA
09
01
F9
02
02
FD
07
06
00
04
0A
0D
05
00
00
09
02
FF
F7
04
F8
FC
FD
09
02
04
F8
0A
04
0A
0C
F6
05
FD
03
F8
01
FF
03
16
00
04
F9
F8
06
F4
F9
E5
05
FE
FC
0C
00
00
FA
FA
FD
0C
04
F4
FB
09
FB
FD
0A
F6
FF
0B
05
02
FB
F5
01
FD
FB
0B
00
0B
F5
02
F9
04
06
F8
F5
04
0A
F3
F7
F2
02
FA
05
02
FE
FE
FE
06
0A
FC
FF
02
FE
F9
0B
F6
01
F5
FB
08
FE
01
07
F7
01
FF
F5
FE
FD
F9
0B
FC
03
FA
07
02
FA
05
05
0B
0F
F2
02
FF
0D
01
FD
09
F9
05
05
02
FA
F6
0F
F4
FF
FC
0D
0A
01
06
03
0A
01
FE
F9
05
01
FD
FF
12
FD
FB
00
F8
0F
FA
05
0F
02
04
02
03
FA
03
00
FD
06
01
0D
F6
02
08
06
FD
06
01
02
0D
FE
03
07
FD
FE
00
FB
02
04
FE
FB
FB
02
F9
05
0A
00
FA
00
01
FA
FD
08
FD
FF
07
F7
03
03
01
02
0F
06
02
FD
FB
0D
06
FD
02
07
02
F9
FA
04
FB
FC
0C
F8
FC
08
FB
13
09
00
FC
03
06
FF
05
00
FC
06
FB
06
F9
01
07
FB
0F
FF
00
09
03
F3
07
F2
00
FF
01
05
0A
01
07
FF
FE
0B
07
06
FA
02
F5
06
03
FE
03
03
F4
06
06
01
FC
07
F2
FE
01
F1
05
09
F9
01
FC
FD
F7
05
0A
00
FB
F8
05
FC
08
0B
FC
03
0B
F7
02
FF
01
F9
10
08
02
04
03
08
0D
01
06
10
FE
FC
F4
05
F8
FC
0F
F5
0C
07
F4
0F
03
07
F2
03
F8
02
06
FC
03
05
00
01
F1
FD
0C
F9
07
01
02
03
FE
F8
02
F2
0A
00
04
02
07
05
09
FB
09
08
12
FE
F7
01
09
FE
FD
FF
FB
FD
03
08
F5
04
FC
FA
08
04
06
0A
FE
F5
FC
08
07
FA
08
FB
F7
03
0D
0C
F6
04
FD
FE
09
FD
02
0A
FB
F7
05
06
F5
F0
FF
FC
FC
03
F4
02
07
F7
FE
08
08
04
01
0A
F6
0A
01
FB
0D
FA
01
F7
00
F0
FA
05
F8
F8
04
00
01
F8
06
04
FB
04
FB
F6
05
FC
00
06
01
06
FB
FE
FE
01
F9
F6
F5
FA
04
F9
F8
FD
0A
F7
01
08
03
07
F8
04
FF
0E
F7
05
00
FC
FA
01
FE
00
03
FC
FA
02
00
FC
F7
03
F4
05
07
08
EE
02
FA
07
0B
FE
FD
08
02
F2
0C
0C
F8
F9
02
FA
FA
06
00
07
0C
03
F6
03
FF
0E
FB
0E
01
02
04
00
0A
05
09
FD
FD
F5
F2
0B
FC
F0
0B
FD
08
FD
00
01
07
FE
07
FF
08
FE
F7
FA
0A
FC
FA
FD
02
07
08
F9
01
F6
02
03
FD
FC
F8
FD
08
02
F4
ED
05
FB
F1
FC
F8
08
F8
00
FD
FF
FD
FB
01
00
FB
06
FE
F7
04
FF
F9
03
01
FE
05
09
10
FC
FD
00
07
02
FF
FE
03
FB
FC
02
05
07
0C
EF
08
01
04
09
FC
0A
00
FF
01
FE
F8
02
17
FF
FE
F2
F5
08
FC
FB
EE
05
FD
FE
0E
FE
03
F8
FE
F7
0A
06
EF
00
06
F6
FD
0F
F4
07
07
03
03
F8
F2
03
FA
00
08
FF
02
FB
03
00
FF
03
09
09
FC
0A
0D
FE
F5
FF
FC
03
01
FF
03
03
07
FC
05
00
08
FF
F9
02
F7
FA
03
01
F7
FA
F2
05
08
01
F0
FE
F8
FE
FD
07
FB
FE
F5
00
F6
06
F6
04
06
F9
F8
FB
03
05
02
08
09
02
EA
FE
10
FD
04
FE
FE
F8
0C
02
FE
FD
F7
FD
0D
FC
03
02
F3
FD
08
FB
02
02
00
FA
0B
0A
F6
FE
07
05
0D
FE
03
F7
FE
F2
F9
06
00
04
F7
04
F6
FD
F3
04
ED
01
FA
02
FA
08
FA
FB
01
FC
FF
FA
08
00
FA
04
F6
08
FC
05
FE
01
05
0C
FE
04
FB
FC
F9
F9
FE
00
05
FA
FC
04
12
02
0A
F4
0D
03
05
14
ED
FC
F3
03
F9
0A
09
08
08
01
0B
FD
F4
10
FF
FE
E8
05
06
06
02
F3
09
FF
00
FD
0B
09
02
01
0B
01
F8
03
FA
05
02
04
09
F8
FF
0B
02
04
03
08
FF
FF
F8
05
F9
FB
08
01
04
09
04
0A
04
03
00
00
FB
FA
00
F4
07
0C
F9
0E
03
FC
FB
04
07
04
02
FC
FD
FF
11
02
03
0E
05
FE
03
FE
F6
F5
06
04
FE
FD
F6
0B
07
03
FF
03
08
FC
00
FD
F0
F5
04
F9
01
08
F4
01
0D
F7
FF
01
09
FE
F6
FF
0A
08
F4
06
F2
FB
05
F4
FD
05
F7
07
03
02
02
F2
0A
07
00
FC
FC
FD
0C
04
00
07
0D
F8
FC
FF
F3
F6
08
06
F9
0C
02
0A
04
04
FF
04
FD
F6
04
F8
05
06
FD
10
04
01
F8
08
02
0A
02
03
FC
04
0C
03
03
09
01
FC
01
FB
F4
F5
02
03
06
FA
F1
09
09
06
05
09
03
FE
FD
FE
E9
F9
0A
00
FC
0D
00
00
0B
FB
04
FB
04
FE
F9
03
09
05
F3
07
F3
FC
04
F9
00
02
FE
09
01
03
03
F8
06
0B
02
FB
FB
00
0B
07
FD
0E
09
FC
FC
00
F2
FA
02
03
F2
01
FD
03
07
08
F9
09
01
FD
06
04
FE
EF
0F
06
FC
04
03
00
0A
05
09
06
FF
08
01
FC
00
FD
01
FF
F8
0B
FD
F3
03
05
0D
FB
01
FE
FA
00
FB
05
01
FB
F6
FB
F9
09
01
0B
FB
03
09
02
00
00
0C
FB
F6
F8
03
08
FA
F8
FD
FF
03
00
F9
09
01
FC
00
06
02
02
03
FC
04
FD
02
F6
FE
06
FC
0F
FC
07
07
00
01
FD
FA
04
FD
08
F4
09
00
F9
F7
00
01
01
FC
02
00
08
02
FD
11
FA
00
06
F6
0E
F9
00
FD
FA
02
FF
F2
01
FE
07
EB
FC
FA
03
FA
06
EF
FF
FC
00
FF
FB
FB
08
00
04
F4
FB
FB
02
FF
0A
0A
FF
EC
F9
0D
F7
FA
08
08
06
FE
FE
0B
09
F2
F0
12
04
05
FD
F9
08
05
00
05
02
FA
F6
FD
0E
FB
FF
0E
01
0E
03
FE
FE
FC
FB
FD
02
FB
0C
FC
06
03
FE
0C
01
00
08
04
FE
FC
FF
F8
00
00
F8
04
09
F8
03
03
F7
01
FF
0C
FB
06
F8
02
F6
0B
03
01
08
09
FE
FB
03
FD
F5
0B
02
F6
04
FD
0B
FF
03
01
FE
0A
FA
FF
FE
FE
F9
05
F8
03
FE
F3
06
06
FA
F4
05
05
F9
FE
FC
FE
0A
FD
FD
F7
FF
FF
FA
FD
FE
F5
02
05
FA
01
F3
0A
FA
FF
02
07
00
04
FC
09
F9
11
F9
00
FA
FB
00
01
06
F0
0D
FC
0D
F0
04
F4
01
04
FE
0A
04
02
FF
FF
0F
0A
FE
F9
0C
F6
0A
07
08
F7
04
FD
0A
06
03
FB
FF
F9
F3
F7
02
F2
F5
00
F9
EF
0A
FD
09
12
06
F4
02
FF
0D
EE
0A
0B
01
F7
00
15
FD
02
FD
F7
F2
F6
08
01
FF
03
FE
05
FD
FA
FE
FC
01
03
F4
0F
03
FD
FD
01
06
FD
05
0C
05
03
F9
00
F9
03
01
04
FB
01
00
F9
FB
F9
FA
FE
FD
F3
F7
09
FC
F5
0B
06
FF
09
02
FE
F9
06
FD
01
03
04
03
0D
05
FE
01
11
02
05
01
F6
F4
07
F1
FB
0D
F3
F3
09
07
06
01
06
FC
FF
F9
00
0A
00
FD
F7
FC
FD
FB
07
01
FD
07
02
02
F5
0B
FC
02
F9
FE
0D
0D
F8
03
00
FD
00
00
FB
0A
FF
F8
05
06
05
03
F7
07
02
03
00
FB
FB
0F
FB
09
FF
07
0A
06
07
02
FE
0C
00
F8
09
01
FD
02
F4
09
F7
02
F0
00
FD
F6
07
06
FB
05
04
F0
FE
FF
03
F9
0A
F1
FD
F9
0B
04
09
0C
00
FE
F7
00
04
F4
01
06
F8
09
06
FC
00
06
03
01
FF
FC
FD
FC
04
04
02
FD
08
F7
F8
FC
FE
02
F5
05
F9
FD
FB
F8
02
FD
0C
F4
F8
FB
FE
FF
F7
00
F9
FD
00
00
02
FA
09
F8
06
FC
07
03
00
F9
0C
F0
0E
F5
FF
FC
FE
02
FE
05
02
02
FF
FA
05
EF
03
01
04
08
04
09
FA
07
09
F4
03
0C
03
08
0B
00
F8
F9
10
F6
F6
00
F5
02
FC
FD
03
0A
F4
FE
FC
F8
F9
FE
FB
05
FB
02
F8
FB
05
F7
FF
FC
03
F9
05
F7
EE
F7
FD
01
FE
02
FE
15
0B
F6
0F
0E
E9
FD
05
09
02
03
FB
04
FF
00
FD
01
02
F2
F8
02
05
FB
FD
06
10
01
01
FE
01
FB
06
FF
01
01
F7
01
FE
09
F0
FE
FE
03
03
02
0A
FF
F3
05
FE
05
FD
F9
15
FB
F3
0C
F8
07
FF
06
FE
00
FF
08
F6
F7
FD
04
F1
07
03
02
06
FD
F5
00
0F
F8
08
F5
02
07
F0
04
F9
FC
F6
FB
FC
0E
FF
05
FB
F9
03
FE
00
07
15
0C
F1
FA
07
05
F6
E8
08
09
06
FD
06
07
05
0B
FA
04
F5
FB
FC
FA
05
FD
00
F6
0A
FF
FD
07
FE
03
FD
FA
F2
05
FB
FC
FB
05
F0
04
F4
02
FF
FC
01
02
03
0A
0B
0E
F8
F8
10
FD
01
0D
00
10
03
0C
FE
03
0A
06
F7
FF
F8
01
FA
01
FF
03
F6
FF
ED
F2
0A
F9
FD
FE
FC
08
FB
03
FB
FE
FB
00
F7
04
00
01
F1
FC
0D
FB
F9
08
0A
09
F1
FE
13
0E
F0
F0
09
0B
02
03
FF
0E
FC
FB
06
03
FD
F8
F1
06
05
FD
04
FF
09
FB
FC
06
03
04
06
FB
FE
FF
08
FB
FB
F4
07
05
F8
F3
FC
06
01
01
01
FA
F8
FC
07
0B
FB
06
00
FC
FD
07
F4
06
F5
FB
02
06
0F
FD
F7
08
04
FE
03
FC
F8
05
FB
05
FC
02
01
F9
08
01
04
0A
03
09
03
07
FE
F4
FB
F8
0A
09
F7
F8
FC
06
02
FF
FF
0B
FF
01
0E
05
FD
05
FC
F4
0B
00
F5
04
09
FA
FC
0B
F7
07
01
0B
07
FD
F7
FF
01
00
FF
0B
FD
04
FF
0D
00
06
FD
FC
0F
01
FE
02
01
F3
FE
FC
FF
05
00
FD
01
10
F9
FE
08
FD
03
04
0C
FC
FF
F4
0D
F5
06
03
FD
08
07
FC
00
03
F7
FA
05
FB
F2
03
FB
0B
01
03
01
FC
09
FC
04
FE
01
F2
03
F4
FF
FB
F2
03
02
FE
F1
0C
07
FA
03
03
FA
0A
00
02
F8
00
01
FC
F7
FE
F8
FF
04
F7
F8
F9
0A
FC
FC
06
08
FE
04
F8
08
F6
10
F8
02
FC
F5
F7
01
FE
F6
05
F7
05
09
01
F4
08
07
00
0D
05
FE
F7
08
0B
03
04
04
07
0C
0B
06
08
07
05
08
01
FC
FD
0A
FC
FB
05
F3
F1
02
FD
09
F8
F6
07
FC
00
03
06
06
FF
F9
02
F1
00
05
05
FA
07
07
06
02
FE
00
F8
F8
FD
07
09
F9
02
F8
03
FB
01
FB
07
FB
F4
05
08
06
FE
FC
FD
06
01
01
FA
FC
01
FB
0A
01
0B
0F
FF
06
FA
06
04
09
0C
00
0A
0D
04
F8
F9
09
F7
03
FD
FC
06
02
0A
FE
FF
0A
05
FA
05
F6
FB
FD
02
F8
F8
F9
07
03
0B
F5
02
04
F5
FA
10
FA
F6
F2
F8
F1
10
FC
03
05
F7
00
FE
06
0A
F9
00
07
F5
ED
FD
02
03
0C
F6
FF
FF
12
03
FE
FF
FC
08
00
0A
FE
00
FC
F4
0B
00
02
03
FA
F7
08
01
FA
03
03
0A
0A
F4
0B
F7
FD
00
F9
05
FB
04
FD
F9
06
FF
04
06
05
F6
05
01
F6
0A
07
F9
01
FF
07
00
00
02
04
FC
00
00
08
FB
00
FE
05
F6
02
03
FB
FC
02
F0
F5
09
F3
F8
0D
0A
F4
06
FD
05
F6
F9
05
02
06
FC
FF
01
02
FB
07
FF
F1
08
FE
07
FF
02
F6
FC
12
00
04
07
F6
0B
00
FB
FE
FE
F3
00
04
FA
03
05
0B
FD
07
04
FA
FF
08
01
02
09
00
03
FC
FD
05
0C
08
03
FC
0C
06
06
09
09
02
02
FE
F7
06
FF
FA
01
FE
F9
05
12
FC
F7
03
03
F6
0A
02
F9
F6
F4
04
F3
FA
0B
FF
09
FB
F8
06
FC
FB
07
06
FF
F2
03
F8
0D
08
05
05
04
FD
F8
FF
06
FD
F8
0F
EE
F6
FF
F7
0B
04
02
F1
0D
0D
02
07
FD
FA
06
06
07
F8
01
04
F5
0B
04
FF
02
FD
EE
03
FB
00
00
06
0D
13
FE
0E
F3
03
FD
07
00
F9
06
FC
F9
03
02
F5
0E
FE
02
F8
04
F7
07
07
F8
08
02
05
00
00
0D
0B
FD
FB
0A
F8
08
02
05
FD
03
04
04
02
01
FB
F9
F8
FA
F3
FF
F8
FE
FE
FB
F2
05
FD
04
0C
06
FC
00
FE
0A
F3
03
07
00
F4
08
10
FC
01
02
FC
F4
01
06
FF
02
01
03
00
FF
FA
FD
FA
01
00
F7
0C
04
01
02
02
0A
FC
09
0B
01
FC
FD
02
FD
FD
05
03
01
04
04
06
FA
F7
FD
FD
F0
FF
F9
05
FB
FD
00
0C
05
04
0E
F5
EE
08
F8
FE
05
10
F5
03
FE
05
07
09
06
F9
F6
FE
EF
02
07
FE
0A
06
FD
FD
FD
0A
00
0A
F1
F7
F7
F7
F5
01
01
02
F6
0E
06
F3
11
01
F9
0B
F9
F3
00
07
00
F9
F9
03
09
F7
FB
00
F9
10
07
F6
0F
FA
FA
01
FB
06
09
F9
0C
FA
FC
F6
F9
F7
06
F0
08
FC
F9
F5
04
0D
FA
06
FF
00
FB
02
07
05
E9
F6
05
FC
07
04
F8
F8
FE
09
05
05
FE
00
FE
F9
05
F3
FA
F5
F9
02
FF
FE
FE
FA
02
F3
F5
FA
05
F9
06
FE
0C
F5
0D
03
F2
FD
00
03
06
F9
FE
01
06
0A
FF
05
FD
F8
04
02
F6
F6
0B
03
01
08
06
03
04
01
FE
0A
FD
04
F9
FA
03
02
04
08
FD
00
04
FF
12
F3
05
0F
FE
00
0A
00
00
F8
00
F5
0C
02
11
FF
02
FE
00
F4
0A
FA
F8
F2
03
FB
04
00
02
03
07
03
FE
0C
FF
00
03
F9
10
F6
05
FA
FD
01
01
F7
05
FD
02
F3
FA
F9
02
F7
06
F2
FE
FE
00
00
FB
FA
06
04
07
F2
FF
FD
0B
FF
0A
09
FF
F2
FC
0C
FC
F9
0A
03
00
FA
04
0C
04
F8
F2
11
02
02
FD
FC
08
03
FE
0C
01
FB
FD
FC
10
F8
FF
10
02
09
00
FC
FD
FE
FF
FA
04
FD
0C
FA
06
03
03
03
06
00
11
FA
FC
FF
FB
F8
04
03
FC
01
0A
F9
09
0A
FA
FE
07
04
03
08
FA
FF
FA
08
06
06
0E
03
05
02
F9
FC
F9
FD
F7
F8
FB
F3
0E
00
0A
03
FC
04
FE
00
FF
F6
FC
05
F7
00
FA
FB
01
0A
F6
F7
04
FD
FC
FD
FA
02
05
00
02
F2
01
03
FA
F9
FE
F7
02
FE
F8
FF
F4
0D
FD
FD
05
07
F8
07
F7
0B
F9
11
EF
FE
F6
F6
01
04
0E
FC
05
03
F9
08
FC
07
04
FD
00
FF
FF
00
01
0C
F4
FB
0A
F7
06
05
FA
F7
FB
05
FB
F1
03
FD
02
F4
F6
02
07
FE
00
06
07
FF
02
00
03
01
FE
F7
03
FE
F5
F9
FE
05
01
0C
FD
EC
FF
FD
09
01
04
07
0D
0C
F8
0A
09
EF
F8
06
08
02
02
FF
00
10
06
FD
07
FD
F5
05
01
FF
FC
00
04
10
07
08
04
F8
04
FF
05
F6
0C
07
FB
F7
F3
09
00
F4
FE
00
FC
FB
FF
09
01
03
02
FF
08
F8
07
07
FD
06
05
01
07
FE
FE
0B
02
0F
FF
F8
03
0E
00
01
FF
F4
FB
FC
FB
FB
00
FB
00
02
00
04
02
07
07
07
01
FA
F1
FB
FB
08
03
FB
FA
FB
00
F7
00
FD
04
02
07
06
0B
FA
02
FC
FD
04
02
F0
FA
05
FC
05
08
F2
05
06
06
FF
01
F5
FD
FC
FF
06
02
08
FD
09
FE
F7
07
FD
06
F9
FC
FD
FE
05
02
05
03
F2
06
FB
01
FC
FA
12
F6
F6
07
FD
03
05
FF
FF
F8
02
01
FB
F8
01
04
F4
06
01
09
09
FA
FC
05
08
00
0F
F5
02
04
F2
FE
FA
F8
F5
F7
05
09
FF
04
FD
F3
FE
FD
FF
06
10
10
F6
F5
08
04
F4
EA
0A
02
04
FE
02
09
01
0A
F6
03
F7
FA
FE
F9
09
F9
FD
F7
0D
05
FE
07
00
FC
03
FA
F4
04
09
F4
FD
F4
0B
F4
06
F9
07
04
F6
01
0A
FB
00
FF
01
FA
F7
09
01
F4
10
EC
07
FC
09
05
00
FF
0D
F6
02
F8
0F
FF
F9
08
01
F4
0B
08
FC
06
06
FB
F6
F5
FF
F6
0F
07
07
F8
0A
F8
F3
0A
0A
05
FA
FE
FC
F8
FD
F6
07
FC
F4
01
06
0B
F4
F2
04
01
F5
01
F3
F9
FA
FC
0E
11
01
03
FF
FE
F9
F9
EE
05
F6
07
00
FB
00
03
10
F7
F8
0A
01
FD
F9
03
F6
03
FE
05
FF
03
F2
FF
FE
F4
00
03
FF
FB
F6
FE
F4
05
FA
00
FB
FB
FB
05
FF
09
02
FD
01
00
03
FB
0B
07
07
08
0B
02
0A
FE
0E
02
08
0F
F1
00
F4
08
FD
06
09
FE
12
02
FE
09
FE
0C
F8
FE
EF
09
06
F4
07
F9
06
FE
F9
FD
10
FC
0A
07
07
01
F8
FC
04
F8
00
00
07
FF
04
02
05
FD
05
0A
01
FE
F3
05
FD
0A
03
03
FA
0B
F9
03
F6
05
05
FE
F4
00
FC
FB
06
0A
01
FF
FD
01
F1
0E
F6
05
F7
FB
FA
02
FE
07
01
0B
F9
FF
04
F7
00
0B
F9
FF
FF
00
FB
04
09
08
06
0D
F6
01
FB
0C
F8
04
0A
F5
01
02
FF
03
05
07
FD
02
F8
09
06
F9
06
F9
09
08
F8
FB
0D
FB
08
06
06
01
F4
F8
01
FC
FF
01
0B
06
0D
FA
08
F7
04
09
03
FC
F3
08
00
FB
02
03
F7
FF
FC
04
0B
FD
0A
FE
01
06
FF
07
FC
FD
08
FD
FB
09
01
0A
04
0B
F7
05
05
05
FF
FF
FA
00
0A
06
07
00
FA
04
FE
F8
08
F6
FB
05
01
00
F8
02
09
04
FE
01
F6
FD
FC
FB
FC
02
FC
09
08
FD
0E
04
FC
FE
08
04
FB
FE
FA
12
00
FE
09
02
04
03
01
04
FF
FB
FC
FB
04
FF
FA
01
02
F8
00
06
FD
11
03
02
FC
00
09
F9
FB
FB
02
06
FE
F4
FD
F5
FF
FF
14
02
05
0D
FE
06
FE
FB
0B
07
04
08
FC
04
F6
01
0F
FB
FB
02
F5
FB
00
FA
FE
01
EE
0A
FB
F4
F3
FF
F4
05
FA
FD
07
FF
03
02
07
08
03
F5
03
F7
EF
02
07
FE
F9
03
F5
05
0C
05
0B
0E
F7
0C
02
06
02
02
F9
05
FE
F5
0C
00
06
FC
F7
12
F7
06
03
0C
FF
FD
FE
FA
FE
01
FC
0A
0E
03
03
00
F9
F6
02
0B
F4
F3
F4
01
F9
06
06
FD
00
FF
04
07
FC
00
04
FE
FB
0C
F5
04
F6
FC
09
01
02
04
F6
02
FF
F4
FE
FD
F5
07
FB
03
F7
07
FE
FA
04
02
0A
0C
F7
02
FF
0D
FE
FA
09
F9
FF
05
05
FB
F6
0D
F3
FE
FD
0B
08
06
05
03
09
00
FD
FA
02
05
FC
FC
10
FC
FE
02
F8
0F
FA
06
0F
03
FE
03
01
FB
03
03
00
04
04
09
07
FF
F9
FE
00
01
05
EF
F4
FA
FD
02
0E
01
01
0B
FF
FA
09
F8
06
05
02
00
F9
FA
FB
FF
07
FC
F0
FF
FC
F8
F1
F9
F9
06
F7
07
F8
FD
F5
06
01
F6
F3
FE
00
FB
F8
FE
06
02
0F
03
02
04
E9
FB
0C
F6
F2
06
FE
04
0C
01
06
0A
F2
FC
0D
F9
0B
02
EF
09
00
FB
09
FB
04
02
FD
18
F3
FF
07
03
01
07
F9
FE
F9
F3
F2
0B
0C
06
02
05
00
F8
07
FD
FD
07
F9
07
F5
FF
F8
05
03
FD
03
FF
FC
0A
06
EF
07
FA
07
FF
10
FA
FA
FB
0D
FE
0A
09
06
06
F5
01
04
F4
00
FF
F9
03
03
FF
F6
06
03
FB
08
01
01
FE
03
04
F8
02
08
F7
FB
FE
02
F9
FA
FC
F9
FB
FA
F9
00
FF
04
F5
FB
FD
FA
00
F4
F7
F8
FF
05
02
02
FB
0B
F6
00
FD
00
FD
FA
FF
0D
F2
10
F3
05
F3
08
FC
FB
FA
05
07
05
F3
F4
FA
FA
01
11
FA
03
05
03
03
FA
FD
0B
01
00
00
F5
FB
F8
03
07
FD
FB
04
FA
FA
FA
F5
FD
FF
F4
09
FE
FF
F2
05
FA
FF
FC
FC
0B
01
F9
00
07
08
05
F7
06
FF
F3
04
0C
F7
F5
05
F1
FC
0F
08
01
09
00
09
06
FB
04
01
F5
01
01
F9
0E
FB
05
04
FD
18
F2
09
09
07
FB
05
00
F9
FB
FC
F6
0C
0D
06
06
FF
02
03
01
FE
07
07
F7
05
FE
00
01
FA
FF
FB
FF
FD
F5
01
02
F7
00
F5
F5
F9
05
09
F0
00
FA
03
0A
F6
FF
05
00
F5
11
0A
06
01
01
02
03
04
00
FD
0A
FA
FA
04
05
04
05
09
FF
0B
09
00
0B
01
02
FF
F8
EC
FF
09
F4
F0
0B
04
FD
F4
04
03
00
FC
07
FA
06
FB
01
07
0B
FF
F4
01
FE
02
F8
FE
FF
FA
00
FA
F4
07
01
00
0B
08
FE
01
09
F6
00
0F
02
F3
0D
F0
04
0F
02
07
F9
07
F6
F6
01
02
08
FB
FF
01
00
03
FF
FA
FA
02
02
FD
0E
13
0E
F5
0C
11
FA
E8
FE
F6
FC
0C
01
01
00
F3
04
09
09
03
02
FC
F5
F7
0E
F5
F7
05
06
F4
F8
04
FC
02
FD
F4
02
08
FD
08
01
08
0B
FB
FF
FE
FC
FB
FD
F8
FC
F4
03
FD
EF
0F
03
EE
FE
F1
06
FD
FF
F8
FE
F6
05
FD
FB
FF
F6
04
FE
FE
F4
FC
F9
FE
10
04
0A
10
FA
FA
05
05
0C
07
05
08
F7
08
01
06
05
05
FC
00
FE
FA
FA
02
F9
FC
F3
08
EF
EF
FF
FD
F5
FE
F4
05
08
FC
F9
00
07
07
FD
04
FE
04
F3
FB
14
F4
F6
02
FB
FB
FB
04
05
09
FC
FE
07
02
07
08
F7
08
F9
F6
0E
FE
03
01
F8
14
FC
04
05
04
FD
FE
F8
FB
01
FB
FC
FE
0E
FE
FF
FB
FD
FA
09
04
FC
F7
09
F3
FA
07
0D
00
05
02
00
0B
FA
FA
07
03
04
06
0B
03
F6
FD
15
FB
03
04
F1
FB
0B
F2
01
07
EC
FB
0C
FF
F6
02
F7
09
01
FB
06
04
08
FF
00
02
FC
EC
0A
F4
F7
07
FA
06
FE
03
F0
08
0E
01
0D
0D
F7
11
F9
05
FB
02
FD
FF
FF
F8
05
01
0B
FA
F6
05
00
05
01
08
02
06
03
FE
00
03
08
07
0B
02
06
FC
FF
F9
06
F8
09
F8
03
06
F5
05
07
FB
FF
FF
00
F4
FE
03
03
F5
0D
EF
08
F7
0F
02
F9
FD
07
F9
08
F8
04
FE
F1
0A
05
F4
0B
0A
F8
09
07
FB
ED
F5
FF
F6
07
FF
01
FC
0F
03
F7
0C
01
00
FF
FE
FC
F8
FD
F5
05
FD
F7
FF
00
02
FF
EF
07
01
EF
04
F9
F9
FC
FF
0D
0C
06
02
FE
F9
FE
F8
F4
06
F5
09
01
F3
00
06
0E
F8
09
FC
FF
02
FF
FA
04
09
FF
F7
00
F7
0F
0B
0A
10
F8
F9
FE
FF
09
03
0E
FF
01
06
08
0C
02
FF
F9
FF
03
FA
09
0D
02
FC
FD
08
F6
E8
FA
F5
F4
0B
F1
00
01
F0
08
06
0C
04
01
FF
F6
01
F9
FB
08
01
02
F3
FB
FB
01
00
00
00
F9
07
FC
04
05
09
F9
03
FA
F2
02
00
04
FD
FD
04
FC
FC
F7
09
00
F2
F6
F9
02
FA
FF
FC
0D
F5
05
00
06
06
FC
FA
03
16
03
FC
06
F5
01
0D
06
0A
F9
FA
FB
02
02
02
07
FD
00
09
0A
0B
F6
01
FE
FE
09
01
0D
12
06
F4
09
09
F9
EB
03
F2
F5
10
F8
04
FF
F2
0A
09
08
03
F9
05
F4
00
05
FA
03
09
0F
F0
03
F9
FA
01
FD
F6
01
03
F8
07
01
07
05
FD
FF
F9
FB
02
FF
FA
04
F2
02
FA
F2
0A
02
EE
FB
F8
04
02
02
F7
00
F1
02
FC
FE
F8
04
FA
FA
0E
03
05
F6
FE
02
03
07
FF
00
FA
F8
0E
02
F7
0D
F7
09
06
12
07
FC
03
10
FD
05
FF
12
08
FC
FF
03
F3
03
FB
04
FC
FD
05
FB
FF
02
FC
0B
05
02
FD
FA
00
F5
06
10
00
FF
03
04
F5
FB
F4
F3
FD
F8
FB
08
08
F6
F8
FC
02
02
01
F2
F5
FD
01
07
09
FF
F5
0A
FC
F9
FC
F4
FA
F8
02
0A
FF
0E
F5
07
EF
FA
07
02
07
FC
02
FD
F9
09
F8
0B
01
FA
02
FB
FD
FF
06
0B
F3
F9
0D
F8
07
03
FC
F1
F8
09
FE
F6
01
F8
04
F4
FE
08
06
FE
04
00
03
05
01
09
FB
0B
01
F3
04
FB
F7
FA
FE
03
FB
04
FC
F8
FE
F8
03
FF
09
0A
15
01
FD
0B
07
F5
F6
03
0A
00
FE
06
01
08
0E
F9
05
F7
F7
FD
FF
06
FE
FD
FF
0C
06
08
05
FA
07
FC
00
F2
0B
00
09
FF
06
FB
05
04
F7
F4
0A
02
02
F9
FD
FA
FF
07
FF
08
FA
FE
FC
F5
03
F7
FD
FD
F9
F9
01
F7
00
04
08
EE
FC
F8
03
05
05
F3
08
FE
08
06
F5
FE
07
FD
02
F8
FF
FC
05
09
0B
04
01
FA
FF
05
F8
F9
0A
0D
05
00
01
03
02
FE
EF
0D
00
06
F7
FC
05
02
07
FF
00
FB
FF
00
09
FE
FE
0C
FF
0B
01
FE
02
01
FB
F7
04
FC
0F
FC
01
06
FD
09
00
01
F8
0B
0B
FB
0A
F8
F8
F8
EF
09
04
F7
03
F8
F5
FC
F9
07
F9
FE
FA
FB
FC
0A
02
01
FF
07
F4
FD
05
07
F9
15
15
FC
09
09
01
07
F7
02
0A
05
FE
FA
01
05
FC
04
FC
0C
0C
F1
0C
03
05
FA
FC
05
01
FC
F9
09
07
FB
F7
F7
FB
06
F7
07
04
FF
01
03
04
0A
F3
01
01
05
FD
FE
08
06
04
00
04
05
08
FB
05
F7
FA
FB
02
F9
00
F5
02
0A
F6
FB
05
09
07
0E
08
F8
F9
0A
FE
02
0B
06
09
0F
09
01
02
11
02
FF
03
F5
FA
09
FF
00
08
F2
F5
01
F7
08
F8
FC
06
FF
00
FC
01
06
FB
FB
FD
F8
FA
04
FE
F5
FF
04
06
FE
01
00
06
F9
FB
0F
0F
EF
00
FB
09
FF
07
FC
0B
FE
F6
02
07
05
F8
F4
FE
08
FE
FB
02
04
01
FD
06
01
06
0E
00
04
FB
F6
07
0D
0E
00
03
0B
00
06
FA
0C
FD
F9
FD
FA
FA
04
0B
02
F6
FE
09
F6
04
05
FB
F6
FA
FF
F9
F7
01
FF
06
F3
FE
09
00
02
04
07
08
FF
02
FD
03
07
03
FA
02
01
F7
FC
FD
01
00
0A
FC
F6
00
F8
09
07
02
02
0F
0F
FB
00
FD
FA
FB
03
09
FD
03
00
F6
11
0A
F6
06
FE
F4
0B
F5
FF
FE
FE
02
0F
04
10
01
FB
03
FC
03
F4
08
00
03
FD
F4
0F
FC
FC
FF
FE
04
F3
02
FB
FE
FF
F8
05
05
F9
08
04
F0
07
F9
0A
FB
0A
F6
04
FA
11
FE
02
06
0B
FD
F5
08
FC
EF
0B
08
F6
09
05
FF
FD
FF
02
FE
08
01
00
FC
05
FA
FB
FE
0A
FE
F3
FF
FE
FD
F5
02
FF
FA
FB
01
02
07
00
F4
FA
FC
FB
00
F3
FA
F8
FF
09
07
FD
FD
0A
F8
00
FD
FC
04
FC
FF
0B
F4
11
F8
07
F8
0D
F8
F8
F2
09
FD
FC
F2
FF
00
FF
FE
0E
FB
FB
02
00
04
F8
00
03
FF
06
FD
F8
03
F7
02
08
05
06
FA
F6
FA
06
FD
05
01
F9
03
00
01
FE
03
03
F7
04
F8
03
03
03
09
07
02
03
F1
F8
FF
08
07
FF
F7
F8
04
FD
FE
07
07
FE
08
09
0A
F8
FF
03
FB
01
03
F4
00
08
F8
04
0F
F4
0E
FA
0A
00
01
EE
02
FD
FF
FB
04
F7
09
0B
06
FC
04
08
02
0A
02
02
0B
06
FE
01
00
F9
00
01
F5
04
0C
F2
01
02
F8
FD
FF
0B
FD
02
FC
FE
F6
09
0A
03
05
0E
FD
03
FC
02
FE
0F
01
F9
FE
F9
12
07
00
05
02
0A
FF
FF
03
F9
F8
06
F3
08
04
F2
10
0B
F8
F1
FF
05
00
FE
F6
04
0C
FA
02
F3
02
08
F3
06
FF
F9
04
03
F5
07
EC
07
FE
FD
07
08
FB
09
F8
06
02
10
FC
FD
F9
F0
FC
02
04
F3
02
FB
05
0A
09
F6
0A
FA
FB
08
FC
02
F4
0A
09
FC
FE
FE
03
0D
07
09
04
FD
05
07
00
04
FD
02
FD
FA
06
02
F0
07
0B
10
FD
02
00
FE
01
FF
08
00
FB
F3
FE
F5
0A
06
0C
01
05
06
08
03
01
07
F8
F3
F9
02
04
FD
F7
FC
FE
FE
FE
FE
06
04
FB
00
0A
03
FF
05
F6
07
FC
03
F5
00
07
FE
0E
FF
09
0D
FE
FA
FB
0A
F8
03
FC
01
03
00
FB
FE
07
08
FB
01
FB
F7
01
03
05
FD
08
FC
01
FC
05
F1
08
F8
FF
FA
06
09
FA
FC
08
02
07
07
F8
FC
08
F7
00
FF
FB
FD
FD
09
02
FE
FF
06
0B
06
04
FB
F8
F9
F9
08
06
FB
FA
05
FE
0B
FD
02
0A
F9
FE
0D
02
F9
0A
FC
F7
0B
FC
FB
08
00
FC
F9
09
FD
01
FF
0C
05
FF
F8
F7
03
FF
FC
0E
F6
00
FB
08
05
02
08
03
00
FB
06
0C
01
09
08
FE
F6
05
FA
01
01
FC
FC
00
FB
FA
00
FA
FE
03
08
03
F1
01
FF
FD
0C
03
05
0F
01
FB
11
08
FF
FB
02
FC
00
04
FB
01
FD
F7
03
05
03
00
02
0C
F4
01
0A
FA
FD
07
0A
F9
08
FC
F8
01
F7
F1
07
FC
FF
00
00
FF
05
FB
04
05
FA
01
FA
FD
0A
F2
00
FD
FB
02
00
F3
FC
FE
05
FC
FF
FB
FB
FB
FE
00
02
08
F8
FC
02
10
04
FD
05
FB
FC
0F
04
0B
F7
F6
09
FF
FD
08
09
03
09
08
09
06
FB
02
FB
FD
05
03
04
10
00
FF
04
FE
F7
EF
08
F2
FD
08
F7
07
F7
F4
07
01
02
FE
FD
0A
F7
03
FE
F7
01
03
0B
F5
0A
02
F9
F8
04
FD
F9
F7
FE
07
01
04
FE
04
FE
FE
F7
04
FC
F8
00
F4
06
F7
F8
01
08
F3
F9
02
01
FF
04
F4
FD
F4
05
06
F8
F8
FD
05
F3
00
F1
04
FD
00
00
FD
FF
FC
01
04
F8
00
FF
FA
FA
06
F0
02
FD
01
FD
06
00
07
FF
FD
FD
FD
01
F6
05
0A
FA
FD
03
04
04
FA
0A
03
0F
0D
F0
06
FF
0C
FE
04
05
FF
0D
02
0A
FA
F7
0B
F4
F6
EF
0D
01
FA
0D
FF
07
FC
FF
FD
0C
02
FF
FE
10
F8
FA
05
FB
0B
FA
05
0A
03
FC
02
01
F6
04
02
F9
00
FF
06
FC
F7
FC
F6
09
01
FD
F6
07
FF
F7
0A
05
F6
FF
F8
04
09
FA
05
03
FD
03
FF
08
01
FB
FA
0F
FF
0F
FE
F7
FF
08
F1
FF
08
F0
F0
0C
0E
FC
08
01
FF
07
FA
02
09
08
FF
FF
FC
FB
EC
05
FB
03
0C
F5
FE
FB
02
F8
03
0A
FD
01
0A
04
0E
F5
FE
FA
FA
FE
FF
F7
01
01
00
0A
09
FA
04
04
09
02
FA
F3
0A
05
07
FF
05
0A
04
07
03
F9
06
03
02
01
0C
00
08
F5
03
FE
FF
F6
FF
00
F9
06
0C
FE
0B
09
FA
F7
0C
FE
02
06
F6
FC
FD
0A
03
06
15
F8
FE
FD
FB
F7
FA
F8
FF
F5
00
F5
06
01
0F
05
02
00
FC
00
00
F4
FF
08
F8
F9
FD
FD
FA
07
FE
FE
05
01
FE
FD
FE
03
FD
07
02
F4
FA
01
FA
FA
02
FB
01
FC
FC
FF
F9
0C
01
07
02
07
FC
09
FC
08
FB
0F
F1
FA
00
F9
06
06
04
04
03
FF
FA
08
FF
06
06
FB
FF
FD
F7
05
09
00
F3
F9
03
F7
04
03
F9
F2
F7
05
F7
FA
09
FA
FF
FF
F3
02
04
01
05
0E
0C
FC
04
05
03
0C
FE
01
0B
FC
F9
F8
04
03
FB
0D
F6
00
05
F3
10
01
0B
FA
0A
09
02
0A
FD
FA
01
03
05
FC
FE
08
F9
11
06
01
05
FC
F4
06
F7
00
FE
06
06
0C
07
0A
FE
00
06
00
08
F7
0A
FA
05
07
01
0A
FB
00
FC
10
02
02
06
F7
00
FB
F6
05
06
FB
F8
F7
FA
FC
FD
0B
FA
FB
F8
00
F7
02
06
FD
FE
0A
F9
03
06
09
FE
14
0E
FD
04
07
03
07
FA
FC
04
08
FB
F9
00
06
FB
05
F6
08
04
EC
13
05
04
FA
07
04
FE
05
F7
FF
04
FE
FD
F8
00
08
F8
0C
05
F9
04
01
F6
09
EF
04
FB
FE
03
08
06
05
00
01
05
07
07
F9
03
05
08
0B
04
06
06
08
06
FC
00
0D
F7
FC
05
F9
FC
04
0E
F8
FA
01
00
F9
06
FC
FD
F9
FE
F8
F6
FB
07
07
0A
FF
03
0A
F4
04
0F
FF
F9
F5
FE
F8
0D
03
06
00
FE
02
05
04
09
FD
FD
01
F1
FE
FC
F8
0B
0D
FB
FE
05
08
08
FF
F5
03
03
04
09
FA
FE
0A
F2
0A
09
FB
FF
FA
F7
08
F6
FC
00
02
0D
0B
F2
0A
F5
00
00
FF
FF
F6
02
FF
05
F2
F6
03
FB
EC
03
FB
FC
F6
FF
FF
06
06
02
FA
FB
FF
02
01
FE
09
05
06
06
05
FD
0E
06
0B
02
FB
FE
09
04
FF
01
FC
F2
FB
F9
08
02
05
F7
03
04
01
06
FB
02
FD
FC
FE
FE
FC
02
0E
F8
03
F8
F3
07
F7
04
E9
FD
07
06
02
FD
01
FD
FF
FF
06
0B
EF
F8
04
FD
00
05
EE
02
0D
00
FC
FB
FA
01
F8
FE
0E
FC
10
F4
05
F5
F8
F8
03
01
F8
FC
FC
07
12
04
FA
07
00
FF
08
FC
FE
F4
01
07
FD
00
05
FA
0C
08
0A
0A
00
08
08
FF
01
F6
0E
00
FE
02
06
F3
0D
07
12
FB
01
04
02
FE
FF
05
05
FE
F8
FB
F7
03
00
0B
0A
09
02
0A
05
FB
05
F5
F3
F9
FB
01
04
02
F2
00
FD
03
01
02
01
FA
00
08
03
04
02
F5
06
01
F8
F6
F6
06
FC
0C
00
0F
09
00
01
F7
07
FF
F8
EF
0C
F6
FA
FB
FD
07
F2
02
02
FE
FE
FA
02
FC
F6
07
01
F1
0A
F2
03
FB
0A
FE
02
01
0F
FC
01
FB
0C
FE
F7
06
04
F5
08
08
FD
0A
0C
F5
FD
F9
05
FF
03
04
01
FB
09
FD
F7
08
12
00
FC
F8
F5
00
F8
F8
FA
FF
F8
FE
0A
06
FE
F0
01
FD
FC
04
F1
FA
00
F9
08
10
FC
04
04
FD
FF
F8
F0
09
F7
02
07
F7
04
00
0C
F9
00
06
FE
FD
0D
06
FC
FC
FE
F9
00
03
01
FF
00
F8
01
0D
F5
F7
03
02
FB
05
02
FB
F3
F8
0D
FB
FC
09
F7
FE
00
F5
05
FE
FD
05
0B
02
F8
06
00
06
0C
FD
08
07
F9
FE
FE
04
01
F5
0D
F2
03
02
F8
04
FB
09
EA
07
09
05
08
02
FF
0A
02
01
F9
04
05
F8
07
00
06
FF
02
FA
FD
01
FF
03
03
0A
08
05
0A
F6
05
FD
04
04
00
06
0A
F7
01
FC
04
F9
0D
F6
00
FE
FB
FF
10
FC
01
09
FE
F6
FB
FD
07
FF
0B
F1
FF
FB
04
07
FF
FD
FA
F9
01
F2
00
FE
FB
05
00
02
01
01
FB
01
01
FE
F3
F4
01
F3
04
03
0B
FE
0F
FF
F7
0A
FA
03
09
FD
FB
FC
FD
F6
0F
FE
F8
02
FD
0A
FE
F4
09
05
F0
02
FD
F7
01
FE
0A
09
04
0C
F5
FF
FE
01
F4
04
F7
03
F7
F7
F5
0A
10
FB
0E
00
01
04
03
F5
0C
04
FE
F8
09
F5
09
0A
01
0E
F7
F7
FB
F6
02
03
0C
F3
F8
FB
05
0B
F7
FD
EF
FC
08
F5
02
0E
05
FB
0E
12
FA
EF
FE
FA
FF
02
F5
FC
FC
ED
02
08
0D
FF
0C
06
F2
06
FE
F7
07
02
01
F3
02
F9
07
01
F9
F6
FD
01
FF
FE
0E
0A
FB
FE
02
FB
FE
FB
00
00
06
02
F4
FB
F2
08
FD
F7
F5
F9
FC
FA
EE
02
07
F5
F4
02
0B
05
05
06
02
FC
0C
FD
02
09
FA
FC
FF
F7
08
0A
FC
FC
FE
00
F8
04
0C
FB
F9
FA
05
F5
00
08
FC
04
04
F2
01
06
FB
FE
14
0C
FA
02
FC
0C
06
FD
02
06
05
F5
F8
02
FC
F8
0F
F4
F6
07
F5
12
08
02
F8
06
10
FF
07
01
FA
08
FD
04
F8
00
02
F7
0F
03
FD
07
04
F2
08
F6
02
FF
04
05
0C
05
0C
00
FE
05
09
07
FA
05
06
06
FD
09
FE
F5
06
06
00
F7
09
F8
03
09
FF
0A
F7
FB
03
F4
00
07
07
FA
F9
FD
03
07
FC
01
F0
FC
06
FC
FB
0E
08
FD
0D
0D
F5
F0
05
FB
01
FF
FE
01
FA
F5
FD
01
06
FC
0B
0C
F9
03
00
F7
07
FE
FF
FE
06
05
FE
FD
FE
FA
FB
F7
06
03
0D
09
FE
04
02
FE
FE
FB
FA
FA
FE
FE
FC
F9
F7
07
06
F6
F9
FA
02
F8
F2
FB
FE
FA
FE
FA
00
FE
08
05
00
F6
08
F4
FB
07
0C
FD
07
02
FF
07
FE
FB
07
05
03
04
0B
FE
F8
FE
11
F9
FF
05
F3
FC
07
F0
FE
0A
EE
FA
0B
01
F6
02
F9
0A
FF
F9
04
03
07
FC
00
01
FF
EF
0A
F6
F3
07
FD
08
FE
03
F3
09
11
FE
0D
0E
F3
0E
FC
04
FC
01
F8
00
03
FA
04
04
0B
F9
FB
05
FF
03
01
07
03
05
03
01
FD
03
07
0A
0A
03
FE
06
01
FA
09
01
FA
0A
FE
01
F8
FF
FB
02
05
F8
03
04
F7
07
05
F5
02
00
07
00
09
FC
02
FB
0C
05
04
05
0C
00
FB
FD
FF
F8
06
00
FC
03
FE
08
01
03
07
03
03
01
00
02
FB
FD
02
FB
0A
FE
FC
05
02
FD
F3
FD
F8
01
FE
F9
05
06
FF
FA
F7
FF
03
FD
F9
FB
FE
00
02
FE
00
F8
0A
FB
02
02
01
FF
00
F9
0C
FA
10
F6
03
F7
05
02
FC
F9
06
05
FB
ED
FD
07
01
03
FC
FB
F4
FC
09
09
01
02
FD
FC
F9
06
FA
03
F5
F6
02
FF
0A
FE
F8
09
FD
F9
FD
02
F9
02
FD
0E
F8
09
04
F5
04
02
00
0B
01
03
FF
02
03
F9
01
F8
05
04
F7
F8
FA
09
04
07
05
04
03
06
06
01
06
02
FD
F5
05
02
FB
04
04
FB
FE
06
FA
08
02
06
0B
FD
FE
04
03
02
FE
06
FD
05
FC
11
04
F6
02
F9
03
F5
04
05
09
0A
F9
00
02
FF
02
01
FF
F5
FB
0C
FE
F7
0F
F0
0A
02
10
08
F8
02
0F
F6
07
FD
10
07
F9
05
06
F2
07
03
05
FE
03
00
F7
F9
FC
F6
0F
04
03
F8
01
01
F2
0A
0D
01
FB
01
06
F4
06
F4
FE
FB
F4
FB
06
05
F3
F5
01
00
F8
01
F5
FA
F6
FF
0A
0D
05
F8
05
FB
F8
F7
F1
FE
F6
0B
01
FF
06
FC
09
F2
04
04
FC
F7
08
FA
03
03
F7
0A
F7
FE
F8
04
00
00
03
FB
FB
08
04
EE
07
F9
00
FC
11
FB
F6
FB
0A
FC
0B
09
03
06
F4
01
04
F8
FC
01
F6
03
06
FD
F5
05
01
F8
04
02
03
FC
0A
06
F6
06
09
F8
FF
F7
FD
FB
FE
FD
FB
FA
F7
F8
01
FD
06
F2
02
FA
F9
01
F2
FA
F9
FC
05
06
04
FC
07
F6
00
FF
01
FF
F6
FB
0D
EE
08
F9
06
F6
02
03
F9
04
FE
F9
05
F5
FE
F9
04
FD
04
05
FD
0B
F9
FA
0F
F1
FF
08
05
FD
FE
F6
FC
FB
05
FF
EE
F8
FE
FB
EF
03
00
09
03
06
F6
FD
FE
03
0A
F2
F7
00
F3
F3
FC
FA
01
F8
12
07
FC
05
F0
F3
04
F6
F7
04
0C
0F
06
F7
07
0A
EF
F1
0E
00
10
03
F6
09
FE
05
FD
FE
FE
FB
FC
0D
FB
FB
FA
00
09
04
F9
01
FC
F2
F3
02
03
01
07
F8
FE
FB
02
03
FC
02
04
FD
01
FE
09
04
02
06
FE
05
FF
06
05
02
06
08
03
09
FE
02
08
00
0A
FC
FA
05
0D
05
03
FD
F3
FE
FC
F5
FA
FA
F4
08
FC
04
FF
FD
10
07
05
02
F6
F3
FA
F9
FF
01
F8
01
06
F9
02
02
02
02
03
07
00
09
F8
0A
FB
FF
03
00
F4
FA
01
00
04
01
F6
00
05
02
FE
05
FB
F6
00
02
02
06
07
FE
04
FD
FD
00
05
FF
07
FF
04
05
05
01
F7
03
FB
01
05
FC
04
FF
FD
06
05
F5
04
FA
0E
FC
0E
FB
00
F7
0B
01
05
04
0A
01
F5
06
00
F2
0A
03
F7
02
FE
09
F7
FF
01
FA
0D
FB
FD
FD
01
FE
FF
FF
00
FE
F8
09
05
F8
F8
FF
04
F7
FD
FC
F9
07
FD
FA
F8
01
F8
FC
FD
FA
F7
05
09
FA
06
F4
08
F6
FD
00
06
01
FE
FF
08
F7
12
FB
05
F8
08
05
00
FE
06
F5
FF
13
03
FB
05
F3
FE
0D
04
04
FC
FF
F7
00
02
FB
0C
FA
05
04
0B
05
FC
FD
04
FF
06
01
12
12
06
F9
0B
01
FF
ED
03
F9
FB
09
FC
03
FD
F5
0B
07
09
00
00
FF
F2
FD
0F
F7
F9
07
08
F2
FC
FF
F7
FE
FA
F5
04
06
F9
02
FE
07
08
FD
F6
FA
F6
FD
00
FD
FC
F0
07
F7
F2
08
FF
F2
FA
F7
0A
FB
09
F4
02
EE
0B
FF
F9
FE
F6
F9
FF
FD
F8
01
06
FA
06
03
01
0F
FA
F1
07
F7
FC
06
03
FE
F2
02
00
0B
FC
09
F0
FB
01
F3
FA
09
01
FD
0B
10
F1
F5
09
FE
07
F5
F7
FF
FD
F7
F6
05
04
02
0A
0B
F6
0D
01
FB
11
F7
F9
03
0A
FA
F7
04
01
FE
FF
F6
08
FF
10
03
FF
0B
00
FD
0A
FA
FB
04
FD
0F
F2
FE
FF
00
FB
FC
F3
FE
FB
FD
E9
03
03
02
FE
00
FC
00
F8
FF
F6
0C
FE
02
FE
FC
FE
FF
06
00
FC
F8
FD
03
FC
01
01
00
F9
07
04
0A
FA
09
01
04
04
FB
07
05
05
F4
0C
04
FD
F7
11
FA
FF
02
06
02
09
09
FA
06
FC
06
F8
09
00
08
11
02
09
01
00
01
FD
F2
EA
0A
FD
F8
0B
FE
FE
FF
FF
02
0C
02
01
FC
0A
00
FA
03
FD
FE
01
04
FF
FE
F9
FC
FE
FC
03
0A
00
FA
FC
FB
F7
06
03
04
00
0E
FF
09
F5
FE
FF
FD
FA
FA
FF
F4
04
0D
FE
0C
06
00
F3
0B
FE
FF
FF
F8
FF
02
07
03
05
0F
F3
FA
02
F8
F4
F8
F9
02
FD
03
F5
06
0B
0C
06
07
F6
FB
FF
FF
F0
FC
0D
FA
FA
04
02
F3
04
00
FC
02
01
01
FA
05
08
01
00
04
F4
FD
02
F9
FE
06
FB
03
FB
FF
FD
FD
09
0A
04
00
02
01
0F
FA
02
FE
07
F4
FC
03
FF
F9
03
06
FC
05
04
04
06
F7
01
FE
0C
05
08
0D
FC
FF
03
00
08
0A
05
06
06
05
FF
08
06
FC
F9
FF
FB
00
04
01
01
02
F3
02
FC
F3
FB
F6
EF
0F
F6
FF
FE
F8
09
FE
04
03
F9
FB
01
FB
EC
FF
05
08
08
F7
00
04
0B
FD
08
09
F1
07
FB
0B
FF
06
F8
01
02
FA
01
06
05
F6
FE
01
FF
00
FC
08
05
F7
00
00
FC
03
03
01
08
FC
04
09
FA
FA
03
FE
F5
F3
FE
04
07
00
FA
FC
F4
F9
04
07
06
F5
F5
03
F8
03
F5
FD
F2
F8
04
04
FE
FE
FB
00
F5
FD
08
01
07
08
FF
0B
0A
06
10
EB
0F
01
FB
0A
F3
02
FB
02
08
FF
00
FE
0E
01
FA
F9
F4
12
06
09
F7
02
04
FF
07
F7
0B
01
03
F8
0C
05
FF
0E
02
F9
F4
07
F8
08
FD
04
06
F9
00
08
03
FF
FD
03
F5
05
F7
0F
0A
FF
FB
F5
05
FC
F9
FD
03
FF
07
FC
04
06
FC
05
00
09
FE
00
00
03
04
08
FD
08
F8
FB
08
01
09
FB
F8
07
0A
08
07
FE
F8
03
F8
F6
FB
FF
FF
FE
01
05
FC
FD
0D
08
05
01
FD
F6
F6
F6
07
FE
F3
F9
03
00
06
09
FC
03
04
03
03
00
FD
0A
FA
FB
0A
00
F1
02
00
FA
FE
05
F3
01
06
02
FE
02
FA
F6
FF
00
04
06
03
FD
FD
02
FA
09
03
FF
0B
05
01
06
FC
FE
FB
00
F6
00
00
F7
09
0F
F6
03
08
F7
FB
03
07
F9
04
F4
00
F5
07
09
05
0C
02
FC
FD
FF
FB
FA
07
03
F3
05
FB
0D
01
05
06
FF
04
FA
FF
02
FD
FB
08
F5
01
FE
F7
05
05
FC
F0
06
06
FE
FF
F9
FE
08
03
FF
F6
FE
02
F7
FE
FF
F9
03
02
F6
04
F7
07
FB
04
06
0C
FE
07
F7
09
F6
11
F8
FF
FD
FC
08
FC
FD
FC
02
F5
F7
FB
09
00
07
F3
F9
F8
F4
06
01
05
FA
F5
FF
F5
03
F9
FF
F8
F8
00
06
03
02
FD
00
F8
F9
01
02
06
FF
02
10
09
09
0F
EF
0E
01
01
11
F2
FE
F4
02
02
04
08
01
0D
03
FF
FB
F6
10
04
03
F3
04
03
FE
07
F3
08
FE
FD
F7
0B
03
04
0A
04
FF
F8
01
FD
04
FF
02
0A
F8
00
0C
04
03
00
06
FD
02
F5
0C
F8
06
0C
0A
00
07
07
02
03
02
0A
00
F5
FD
FB
F7
07
0A
FF
FA
FD
03
F3
06
01
FD
F6
FA
F8
FA
FA
08
03
08
F9
FD
05
FE
03
07
06
06
FD
00
FC
08
08
03
FF
05
FF
F9
FE
04
FD
FF
0B
F4
FA
03
F9
0E
0B
01
00
08
0A
01
01
FA
FE
00
02
06
F9
FF
05
F5
12
09
FB
08
F9
F3
0C
F4
FE
FF
04
05
0F
FE
0E
FC
FC
06
FF
02
F3
07
0B
F6
01
05
01
FC
0F
FB
01
F6
03
FC
13
02
02
0E
FC
FA
FC
FA
05
06
0A
F8
FB
FD
FE
0A
FF
FC
F1
FE
00
F7
01
02
01
02
FC
0D
00
F7
F7
FB
F9
07
F1
F7
FD
F2
08
02
0D
00
0B
FA
FC
03
F1
00
0A
02
00
F7
00
FC
14
02
FF
05
F7
0B
FD
00
09
07
F2
00
06
F9
02
FF
06
00
05
0A
F1
00
FA
0A
FF
FC
FA
FE
F7
FC
F1
0C
0C
FD
0A
FA
06
01
00
02
06
FF
04
04
0D
F7
02
FC
F7
FF
02
05
FC
05
FD
03
FB
03
F2
06
FA
04
F4
06
06
FA
02
07
00
05
09
F9
01
0C
FD
01
00
F9
FC
FF
05
00
FB
00
08
0A
08
04
FC
FA
F8
FC
05
07
F9
FF
0B
FA
0C
FB
09
0A
F6
FA
0F
07
F5
08
FE
FA
0A
F8
02
0C
01
FD
F9
08
04
FC
FB
0D
FF
FE
F7
F6
06
05
F8
0F
F2
05
FC
06
FF
F8
03
FC
05
05
00
00
06
06
00
01
01
F7
FD
F6
05
0A
F4
0A
00
01
FE
00
FE
05
FB
03
FF
05
0F
01
FD
05
08
FD
07
FD
FD
FC
04
06
02
FE
FB
02
0D
FD
01
07
06
05
00
00
F5
F4
00
FD
0B
0E
F8
01
06
FC
02
FE
06
04
F7
FE
11
0B
F1
05
F7
FB
09
F7
FD
07
00
00
00
0A
FE
FA
04
0F
01
FD
F3
00
09
03
FC
0D
00
02
00
02
F1
02
0B
08
01
05
04
FE
0E
02
FF
0B
F7
FB
00
F6
04
04
01
FE
FC
FE
F8
00
0F
FC
FD
FC
01
FA
00
07
00
00
01
F3
FE
09
01
F5
13
10
01
02
FF
0B
04
FE
FD
07
02
F5
F6
FF
FC
FD
0D
F9
FA
07
F6
11
09
01
FD
04
0B
F9
02
FD
F9
04
FE
02
F9
FF
FE
F8
0F
02
F9
09
01
F5
0C
F0
03
FC
01
00
0A
09
08
05
FD
05
0B
04
F7
03
FA
07
08
05
07
05
01
03
04
FC
03
03
F9
FE
FD
F5
06
0D
F8
F9
FF
00
F6
02
06
F7
F8
F8
03
F6
FE
0A
FE
03
02
F7
06
FE
03
03
0F
06
F9
03
FE
0C
0B
FF
03
06
FF
F9
FD
04
FE
F9
0E
F3
FF
03
F4
0F
06
02
F4
06
0B
01
03
FB
FE
08
00
02
F7
02
06
F5
0E
03
FE
05
FF
F3
07
F5
01
00
03
08
0E
02
0D
F8
02
03
07
03
F9
04
07
01
FF
FF
0C
01
04
FC
05
EF
0A
F8
0C
09
FE
08
FD
0D
FC
F4
05
08
07
06
07
FF
F5
FA
0E
F5
F8
02
F5
05
05
FF
08
03
F3
0A
FE
F2
F4
FD
F5
0D
FD
00
FC
F6
09
FD
08
00
02
EE
00
EE
F2
FE
F4
05
03
FB
FA
10
10
FF
09
0A
F3
09
FF
0D
FE
05
02
FD
FF
FF
FE
FF
03
F5
F8
04
00
FF
F9
0D
0A
F9
06
FA
FE
FF
00
04
03
00
FF
FD
08
0B
F8
02
08
12
02
FE
04
F8
02
08
07
09
FC
FC
00
08
05
04
03
03
00
09
0A
0A
F6
01
FF
00
07
05
04
0D
02
F7
00
05
F7
EE
03
F1
F1
11
F8
07
00
F6
08
04
04
03
F4
05
FA
01
F8
FD
06
05
10
F1
07
FB
00
00
FD
FB
FF
01
F9
08
FE
04
00
FD
01
FB
FC
06
00
FB
04
F7
01
FF
F8
07
03
EE
FF
FE
FE
03
03
F8
FF
F6
09
FE
F7
FF
FC
F2
01
00
02
F8
04
FC
0A
0A
06
10
F4
F4
07
F5
FF
09
0C
F9
FF
00
01
07
05
04
F3
F9
FE
F5
FF
0C
03
03
06
08
FA
F3
06
FD
04
F9
F6
FC
F7
F2
01
05
04
FA
0C
03
F4
0B
FE
F6
08
FC
F7
FC
09
03
FA
FC
01
05
F6
FA
01
FF
0F
09
FB
0A
FD
FD
FE
FC
02
02
FA
09
FA
FA
F5
01
FC
FE
F4
01
FE
F9
F2
02
09
F8
F5
07
06
08
07
06
05
FE
05
FA
05
03
F8
FE
FE
F5
03
0D
FE
F9
02
04
F6
03
0A
F6
F8
F6
05
F5
FB
08
FF
06
F7
F4
06
04
FC
FC
0C
0A
FA
06
FD
06
09
00
FC
03
FE
F4
FE
FC
00
F7
0E
F5
F6
00
F6
07
02
03
F9
0F
0F
FC
02
03
FA
03
02
04
FA
02
FF
F7
0C
06
F9
04
00
F3
04
F7
04
00
01
05
0E
06
0D
FE
FF
FE
05
02
F9
04
FC
FA
0B
09
FB
02
09
0F
0A
FD
05
FB
00
06
04
06
FD
FF
02
07
02
05
04
03
0A
08
07
07
FA
FF
04
FE
04
06
08
0A
04
FA
FC
FC
FD
F4
02
F2
F2
10
FB
05
F8
F8
0F
01
02
FC
F3
FE
FB
FE
F9
01
FC
09
12
F1
09
02
05
FB
FE
01
FC
03
F4
0A
FA
04
01
FC
00
FF
F6
08
01
FA
03
F0
06
FE
F6
03
02
F3
03
04
FE
07
07
F8
FD
F6
F2
07
04
08
FB
11
01
09
F6
FF
FE
00
F3
FA
01
F5
06
0E
02
0B
09
FF
F2
0E
05
FF
03
F6
00
FD
01
07
06
13
F0
F9
FF
FD
F5
F6
F8
04
FA
00
F5
08
05
0E
05
06
F7
F4
FB
FF
F1
01
13
F9
F1
FD
02
F9
08
01
FA
04
04
FB
FF
04
00
FD
05
05
F3
FC
FC
FA
01
06
FC
05
FA
F9
02
FA
09
02
08
00
0A
02
0F
FB
02
FB
0D
F3
F5
00
00
01
05
09
04
FC
0C
FF
07
F2
09
FC
05
04
01
05
FD
02
00
F4
02
0A
05
FB
07
F9
F9
01
05
F5
F5
01
FD
FC
FC
FD
05
07
00
06
04
FD
FB
FC
FB
0A
FD
F9
FA
F7
07
FB
02
F9
0A
FB
03
FB
F2
FD
FC
0A
02
FC
FF
0A
12
FB
04
06
F2
05
01
01
05
07
FA
FE
09
00
FA
03
03
F4
03
FD
FC
FC
F9
0A
0B
01
03
FD
F8
FB
FB
07
03
FE
06
F4
02
F9
05
01
06
F9
05
05
03
00
05
F8
F9
FC
05
06
FC
0C
02
FE
02
FF
FE
01
FD
01
FE
02
0F
FA
FA
04
07
FD
00
00
F6
FD
04
07
FC
FE
FD
FF
03
FB
FF
00
0B
06
06
FF
FA
F1
F9
FE
05
09
F6
FC
05
FB
06
FE
0A
01
FA
03
09
09
F4
02
FD
F9
03
FC
F6
03
FE
FE
04
0B
FE
FF
00
09
02
FC
F2
FD
05
0A
FA
0A
FE
04
01
04
07
FA
FD
F7
FF
F7
FF
0A
FF
06
F9
FB
07
03
06
06
FE
F5
FB
0C
03
F8
0E
F7
FF
06
10
0C
FA
07
0A
FA
08
FC
0F
0C
FC
FB
05
FB
FC
F7
04
FA
FE
02
F7
00
02
F7
08
0A
06
FF
FE
02
F0
0A
0D
FE
03
FD
02
F5
01
F1
F5
01
F6
FA
0B
06
F8
F8
03
03
FF
03
F2
F6
00
FE
05
0C
FE
FE
02
FF
F9
FC
F1
F9
F5
02
05
FE
02
FA
09
F2
03
FB
FC
F9
0A
F0
00
FF
07
02
F8
00
02
FF
FE
FD
FE
F7
F9
01
FB
F9
0C
EB
05
FD
0A
06
00
00
08
F9
04
F3
0D
02
FC
02
0A
F9
0A
06
05
05
0D
F6
FD
F6
FD
FA
04
04
02
F8
0D
FE
F4
0B
13
03
FC
00
FA
FB
FF
F9
FC
FF
F5
FB
0A
07
F9
F5
05
03
FE
02
FA
FB
FB
FB
05
0F
00
00
FE
FC
F8
F7
EE
09
F8
04
02
FC
FE
03
08
F7
04
FA
F7
F6
FE
FD
F1
0A
01
00
FB
FC
05
04
08
06
FB
FC
FC
07
03
01
08
03
FF
0C
04
07
04
09
0C
FE
FE
FD
11
09
04
F9
FF
FC
F9
F4
08
F9
FC
FF
02
01
05
02
04
0B
03
01
F6
FD
F7
01
0F
00
04
FD
FC
FD
FC
F9
ED
05
FF
00
08
04
F8
01
FD
00
08
06
F1
F8
06
FC
01
0A
F3
00
09
04
FA
FF
F1
F9
F9
FF
0A
08
07
F8
06
F8
09
F8
02
FA
00
02
01
FC
02
09
08
FC
00
01
F9
03
03
02
01
0C
FC
01
00
01
F6
0A
FB
01
F6
07
0B
F7
02
09
05
09
05
FA
FC
03
F5
FE
FE
FA
FC
FD
02
03
F8
FC
0C
0B
06
02
FA
FC
F5
FE
07
05
F8
FA
08
F9
10
FD
02
03
FB
00
0E
01
F8
08
FC
F7
08
FE
F7
09
FF
FE
FC
0A
FC
FC
00
09
00
FD
F8
F5
01
07
FC
0C
F8
FF
FD
05
06
FA
02
FF
F8
06
02
04
F7
09
03
FB
01
FD
FE
03
01
00
FD
0C
00
FE
FB
03
EE
09
FF
08
F3
08
05
FE
04
03
00
06
02
F4
02
0A
F5
FB
03
FA
F9
01
03
04
05
01
FD
0A
03
07
F7
05
FB
05
05
05
08
F9
05
FD
05
F2
FA
0A
F8
FB
10
FF
FD
02
FE
FA
05
FE
FC
02
07
FE
FA
0B
03
04
FA
0B
06
FF
F4
F7
FF
00
FD
09
F6
02
FE
00
08
08
F8
FF
02
F9
FA
08
F9
F7
09
F3
01
08
FF
05
F7
00
FB
F7
FD
02
04
FC
F8
01
FE
03
FF
03
F8
01
01
F9
06
0F
0C
F6
0D
10
F7
F0
05
FB
04
FD
06
01
01
FA
F8
0B
08
03
05
05
F8
00
0E
F7
01
FD
FE
FF
FC
02
F3
07
00
F7
06
FF
01
04
05
07
0C
00
FB
01
02
F7
F8
FF
F7
FC
FE
FF
F7
07
00
F6
FD
F4
07
FE
F8
FA
FF
FC
05
F9
F8
F2
05
FF
F5
F9
02
04
FA
03
05
FA
FF
FB
03
03
F7
06
00
FB
03
00
FE
05
FC
01
05
07
10
FD
F9
FF
0B
FC
01
FD
FA
FB
04
06
02
04
02
F9
09
FC
05
0A
02
07
00
01
FD
F4
FC
FF
11
0B
F9
FA
F9
05
FA
FA
FB
05
FD
04
0D
08
F8
FE
FC
FA
08
02
F3
00
08
FE
02
0E
F6
04
04
0A
02
FA
F2
05
FE
02
00
07
02
01
04
02
F2
FB
0B
11
F2
09
0C
06
05
03
01
03
F8
FD
05
01
04
FB
0E
0A
02
05
F9
07
0A
02
08
01
F8
00
FE
00
06
0B
F5
01
FA
04
F8
F7
FF
01
01
FA
F6
0A
F6
06
FA
FD
03
F6
FB
FD
F4
0A
07
03
EA
FF
05
04
0E
F7
0F
FF
09
F7
FF
03
F5
F8
01
05
FD
FE
F6
FD
08
01
F9
0C
01
F8
0A
F8
04
FC
03
FC
0A
FD
04
0B
FA
04
08
FC
F9
00
07
F5
04
FE
01
F6
0E
FE
04
04
FA
00
09
FE
04
05
FE
F1
FE
05
03
F8
0E
ED
04
FA
0E
0C
F8
FF
FE
F7
07
F5
03
01
F6
06
05
FC
06
02
00
01
02
FE
EE
F6
FE
F2
06
03
07
FB
0C
06
F5
10
FD
01
06
FF
00
F7
02
F1
08
FA
F5
00
FF
07
FA
F1
0A
05
EF
03
FD
F7
FD
00
0B
0B
0A
05
F8
FB
FB
FC
F3
03
F4
09
FA
F8
F7
06
0D
F7
F6
04
07
0E
FD
02
0C
FC
04
F9
06
00
FB
04
FF
04
00
02
0F
F7
00
07
FB
06
09
F6
FF
F7
00
F6
F2
FE
01
08
ED
00
FD
0A
FC
FE
FE
00
F8
00
FE
02
F8
04
F2
F5
02
F4
FF
F8
08
06
05
FD
E6
F7
FC
01
04
FF
0C
13
10
F2
06
07
EA
F4
0A
04
04
00
F4
01
08
06
F5
05
FF
F2
05
FD
02
F6
00
02
15
02
04
03
FA
F6
02
FF
FB
04
06
F7
FE
F6
08
04
03
F2
FF
0C
FB
05
06
F2
F8
F8
07
05
FB
0A
00
F8
FF
FA
FA
FD
FF
FF
FC
04
0C
FD
FE
01
FE
F6
FC
01
FC
FD
04
10
FA
09
04
F6
05
FB
07
05
FF
02
03
03
01
F9
FF
00
08
0C
FB
F7
FD
03
FE
F9
0A
05
F8
01
0E
07
FB
F8
FF
F9
00
FE
FA
02
04
FD
02
10
02
08
FA
0A
09
F9
F2
08
02
04
FA
04
F8
07
04
09
F3
FE
05
0C
EA
0D
00
0A
F9
05
F9
04
FD
00
09
06
02
F8
0F
0C
05
08
F6
12
FE
0A
08
06
F9
08
FB
03
04
09
F5
02
F9
FD
F7
FD
F2
F8
05
F5
F4
08
F9
0B
04
05
F8
FB
F9
04
EE
10
0A
06
EC
FF
13
FE
07
00
0A
FB
F7
FF
05
05
F8
F1
07
05
FE
FF
FA
05
03
FC
07
09
FB
FA
03
01
02
00
0A
FD
0A
FA
FF
03
FE
04
09
F8
FB
00
F7
07
F5
FA
08
FD
F4
F5
04
F7
FC
05
FC
04
02
00
FF
06
09
F9
00
03
02
08
0D
FD
F9
F2
14
FA
03
00
F5
05
FF
F7
FE
0E
F4
F2
02
04
FD
08
08
F9
04
04
F8
04
01
F8
F9
F7
05
F8
06
F9
FE
F8
F6
FD
F5
0D
FC
16
FB
F5
10
0F
F0
F9
09
01
FD
FD
FF
0A
F8
01
FD
FF
03
FB
F1
01
0D
FA
01
FF
0A
0A
00
02
07
FA
0E
FB
FE
03
FF
FE
00
F8
0B
06
00
EB
04
00
FD
09
03
F5
F9
F5
09
0B
FC
FE
00
FD
FA
01
00
FA
F3
F6
08
FB
06
01
F7
02
FD
EB
FE
0A
F6
FF
0C
14
F5
0C
06
FA
06
F8
02
0A
00
FE
FF
04
04
F2
09
F6
FF
0B
F3
00
FD
09
FA
04
12
04
05
07
02
09
01
FE
FB
F8
FE
FD
03
04
03
01
05
05
FF
09
FB
08
0A
FF
FE
0E
09
05
FA
04
FE
0D
01
0E
F9
09
05
00
09
09
FD
06
FC
02
FA
03
F4
FE
00
F6
08
0D
FA
05
05
F6
F7
07
06
FD
03
F5
FF
F6
09
08
03
0E
02
FA
FB
FF
FB
F9
06
04
F2
05
FB
0B
01
07
07
05
01
FA
FB
04
F9
FD
0B
F5
01
FE
F7
06
06
00
F2
03
03
01
02
F9
00
03
05
FD
F3
FB
02
F8
01
FF
FC
04
00
F7
04
F6
07
FD
08
03
0E
FD
08
F9
0A
FA
12
F8
FC
00
07
01
F9
F0
0D
F9
FE
FA
FB
0A
F0
02
00
FB
FC
F9
05
FD
F8
07
02
ED
0A
F1
02
FA
0B
FB
FF
00
0F
FC
04
FD
07
FD
F4
06
03
F5
07
0C
FB
0C
0C
F5
FB
FC
03
FE
04
03
02
FC
0B
00
F7
08
10
01
FA
F8
F6
00
F7
F9
FD
FF
F5
FC
07
03
00
EE
00
FB
F8
03
F2
FA
FF
F8
06
0E
01
05
02
FA
01
F8
F6
08
F7
00
06
F4
04
00
0B
FB
0E
FE
F7
F0
07
F5
F8
00
FE
04
01
F9
01
02
FA
FE
FE
02
F4
00
FC
F8
08
F6
F7
02
FF
02
FF
06
08
F9
00
FC
0D
07
06
F9
0B
04
FF
FC
03
03
09
F6
04
FC
00
FF
02
0E
07
00
06
FD
F1
02
19
00
FA
F9
FC
FE
FF
F8
F6
08
F8
F8
12
06
FB
FB
00
FE
0B
01
F2
01
03
F6
00
10
F7
01
02
04
FD
FE
EE
FD
F8
FE
06
00
FB
00
06
00
06
00
07
F8
F7
08
F1
FD
F4
07
FD
FC
04
0B
FC
FF
01
F9
F8
FF
FB
FD
00
0C
F0
03
FE
00
04
09
04
00
F8
FD
F1
04
FD
FF
0B
03
FB
0B
08
06
08
0C
F2
FF
F2
FC
FE
04
05
02
F8
0E
F9
F9
0A
09
04
00
FB
F4
03
00
FD
01
FD
FF
06
03
05
F9
F5
09
05
FA
08
FA
FE
01
FB
08
0E
FB
07
FD
01
F7
FA
F0
0B
F7
09
FC
FE
F8
08
0D
FE
F0
09
0A
0A
FE
09
02
07
00
07
03
02
EB
F9
FA
F0
08
08
FE
04
FD
FE
F0
07
04
FD
FD
F8
F9
FF
05
05
07
0D
F7
FC
02
FD
03
F8
07
0B
05
04
00
05
0F
08
00
0A
FC
F6
F8
FE
F4
02
0D
FA
01
00
F6
04
08
03
01
06
00
FF
FC
F9
05
FA
FF
06
F2
FC
09
F4
09
0C
F8
08
F9
F8
09
EF
0A
03
02
FD
0A
03
10
00
01
05
09
FA
ED
04
F9
04
08
06
FF
0B
03
09
F7
04
F8
04
FB
F9
03
F4
07
06
FB
0C
06
FC
F7
02
FD
FE
04
FF
F9
FC
04
0A
08
05
FC
F9
FE
FA
FE
FE
04
04
FB
01
F6
09
05
06
0E
06
FB
FC
FD
07
F4
02
0D
FE
FE
06
04
03
06
FF
F5
F6
06
04
FA
F9
08
04
01
FC
F7
00
FF
F7
07
FF
02
05
FF
FE
0B
FD
01
03
05
01
05
02
09
FA
01
FE
08
FE
FE
00
FD
03
0B
0A
FC
01
06
FE
09
00
08
05
FA
FE
FA
FF
06
02
00
F6
F9
02
F7
03
03
FB
F6
FE
FA
F9
F5
05
00
FF
00
FD
04
FE
08
0A
0B
04
FD
00
01
08
05
FD
FE
03
00
FB
FA
03
FF
04
08
F9
F9
06
FA
13
0B
00
01
03
09
02
05
F8
FB
00
00
05
FC
02
02
F9
14
06
FD
06
FB
F1
0E
F4
FA
FC
03
06
0F
FE
06
FE
FD
08
FC
07
F7
0A
04
FE
F9
00
F5
00
FF
FD
F2
FD
FC
FD
0B
05
06
0D
FA
F5
09
02
07
06
05
03
F4
04
04
07
00
08
F5
FD
00
FB
F6
06
FC
FE
FC
06
EC
F2
01
FC
FF
FA
F3
03
04
F9
F7
04
06
02
02
0B
FC
0B
F4
F9
15
F1
F7
02
04
F9
F9
01
03
07
FA
F7
08
FF
0C
02
F5
0C
FB
F8
0B
FB
FF
07
FB
15
F8
01
05
00
FD
FB
F4
FE
FE
FA
F5
01
08
FE
0B
FE
FC
F7
03
F1
09
F9
02
05
00
FA
06
04
FF
09
FB
F3
FD
FD
FC
FB
0E
F0
FE
FB
09
04
FB
FD
FE
F7
06
F8
07
06
F9
06
0C
FF
00
FE
FD
04
0D
F6
F6
F8
F9
F1
06
06
05
FB
11
04
F0
0B
07
FB
01
FE
F9
FA
03
FE
02
FC
F7
FE
FF
01
FD
F6
0C
01
F6
05
FA
FE
F9
FA
06
0B
01
03
FC
FA
FA
FC
F8
02
F4
02
01
F4
F7
06
0A
FC
FD
04
07
FD
07
02
02
05
02
09
F9
04
F3
FD
FE
F3
08
03
FA
0B
01
F1
FD
FD
07
FC
0B
F8
F8
FB
0E
02
09
08
06
FD
F7
02
03
F3
08
0A
F9
04
02
05
FF
03
03
01
05
FB
FC
FF
FF
01
01
FD
09
00
F6
07
08
FC
F8
FC
00
FE
F9
F7
05
02
FF
F6
F8
FE
FF
FA
00
FF
F9
03
04
01
09
F3
08
F9
04
FD
03
00
02
FF
09
FC
0F
F9
FF
FB
F9
FA
03
07
F6
05
01
12
00
01
F7
01
05
05
0E
05
FE
F8
FF
0F
08
FE
05
05
08
0A
10
0A
FC
01
04
02
06
03
06
06
FB
FC
F9
F7
FC
F2
03
F4
EF
10
F7
06
06
FB
06
00
00
01
F1
04
01
04
F9
01
0A
04
0A
F5
FF
F5
FB
FD
FE
FF
FE
04
F9
01
FB
04
F9
02
FC
F2
01
08
05
FC
01
F9
06
FC
FC
00
00
F7
FC
01
03
01
0D
F6
06
F3
FB
05
03
01
05
0A
04
F9
F1
01
FE
04
FC
F5
FA
F4
0A
0D
F9
01
05
FC
F3
04
F6
F8
F7
F9
FB
FE
00
05
02
05
F1
F3
02
FB
FF
03
02
0C
F9
0C
FD
FB
0B
03
0A
0B
F1
FB
FF
05
00
FC
0F
FB
FB
05
01
FA
FC
08
F4
FE
0A
08
FC
FE
09
01
07
FA
FC
FD
03
F7
07
08
07
FE
FC
02
05
08
FB
0A
0D
00
01
08
0D
F7
FE
FC
FA
06
FB
0A
ED
04
FE
09
FA
05
FE
FF
03
FF
FF
05
F7
FB
01
F9
01
05
0B
00
00
08
F8
08
0A
FD
FC
F7
09
01
02
00
FE
05
F2
F6
FF
0B
F8
ED
FF
0C
09
04
02
F9
0B
05
F8
0B
F6
F1
F6
F3
F6
FD
10
01
F6
00
02
F8
FC
08
07
0F
FF
F4
04
0E
FA
F8
01
04
FA
FD
FF
03
01
0A
F9
07
FD
FF
FA
FB
0C
03
01
F6
03
0D
09
08
FE
01
0A
F8
F7
04
FF
01
04
07
FD
08
0A
07
F5
F8
FB
F9
08
04
06
07
02
04
00
03
10
FF
FF
07
FC
FE
04
01
00
F9
F8
04
06
08
F7
FF
FD
FC
F5
04
F6
F1
F1
FC
EC
0D
F5
06
08
F9
00
FD
08
05
FC
03
07
FC
EA
FD
0C
FC
04
F9
F8
FF
0D
01
FF
05
F9
05
06
01
FF
05
F2
FD
FE
F8
04
04
00
F8
03
09
FE
01
05
0B
0B
F8
02
F6
FF
F6
01
FD
07
FD
09
F5
FC
F8
09
F4
06
FE
08
FE
FA
FE
0E
01
03
07
FD
F9
FA
04
03
FB
12
F0
07
00
09
07
02
FE
08
F7
02
F7
0C
06
FC
06
FE
F9
04
FD
FC
00
00
FF
F4
F8
FC
F3
0E
06
09
F9
08
FB
F2
08
05
00
FE
FD
FF
F5
FF
FA
06
FB
F9
03
00
0B
F5
F9
06
04
F6
04
F2
F6
F9
FE
0C
0C
FE
03
00
FD
F6
FE
F2
00
F5
04
FF
FC
FF
02
0F
F4
FD
06
FD
FF
01
02
FD
EE
FE
FE
04
05
FC
FD
F9
FC
05
06
0B
F6
FD
06
F9
06
FE
FA
F2
F1
0A
FF
FE
FD
F8
05
F1
F7
00
07
F8
FF
FD
0C
FD
0C
0A
F0
07
FF
F9
06
FA
FB
F9
FB
09
FB
07
FC
F9
FF
FA
F7
F6
0D
08
11
07
FA
07
0C
F8
F6
0A
02
01
FA
01
05
FF
0B
FE
FD
FC
FE
F8
09
01
01
07
FC
05
0C
06
05
F8
01
FC
04
F9
0F
0A
FD
FE
F5
06
F8
06
FC
FB
0B
F4
00
04
FC
00
FF
02
F8
F8
09
03
F1
0A
F0
FD
FB
0C
05
F8
00
09
FA
08
FC
06
02
F7
02
07
FC
05
05
FA
06
07
F9
F6
F9
04
F9
03
07
06
FF
0A
05
F6
0B
0A
01
03
FB
FB
FD
FC
F0
01
01
F3
FA
0A
05
FF
EE
05
FD
F7
00
F9
F9
00
FA
08
0E
07
06
FA
FE
01
FB
F1
02
F7
01
02
F6
FC
03
0C
FB
0B
08
FD
00
05
FA
FE
0D
FF
F7
08
F3
03
10
02
0A
F8
04
FC
F8
00
04
08
02
FF
04
02
03
02
FD
FB
FE
00
02
08
12
09
F9
03
0B
F8
E7
FF
F7
FB
0A
FC
03
FD
F5
05
06
08
02
02
FF
F7
F7
05
F3
FE
03
04
F7
FD
06
FB
FF
02
F9
FE
03
01
08
01
05
08
FF
F8
FC
FC
FB
FC
F8
FA
FA
05
FC
F5
0B
04
EF
FC
F4
09
F9
02
F6
01
F6
F6
00
01
FE
01
09
F7
03
02
04
FB
07
F6
F7
00
F1
07
0C
FB
09
01
FE
F9
07
06
03
FF
FA
04
01
10
05
FE
0A
02
F7
00
00
F7
F3
07
0A
03
02
FE
04
0E
04
05
0E
00
FC
F9
01
F1
F7
0B
FA
06
09
F8
03
04
03
FC
01
FE
01
FF
01
09
04
FC
02
F2
FA
09
FA
FF
05
00
03
00
00
FE
F6
0A
08
03
F9
FE
06
0A
01
03
0A
10
FA
F9
02
09
FB
F9
F3
0A
F3
FF
FF
03
00
FA
FE
05
FE
00
FF
FD
FB
F5
03
FF
F5
0E
EF
FF
FC
08
06
01
04
08
FB
02
F6
0F
03
00
01
09
FB
07
02
01
05
09
F9
FF
F6
02
FB
05
07
06
FC
0B
FC
F4
08
13
02
FF
FB
F9
FC
F8
F6
FC
02
F7
FA
0C
09
F9
F3
05
03
00
03
F6
FC
FF
FB
07
0F
FD
02
01
01
F7
FC
EE
06
F7
00
05
FC
FD
01
0D
F7
0A
FE
FE
00
01
FF
04
08
F6
F6
00
F5
0F
06
03
0C
FB
FF
F9
FD
09
03
08
FE
F8
02
01
08
02
FE
F6
04
02
FB
03
08
05
F7
00
0D
F7
EE
F9
FB
F6
07
F9
02
07
F7
00
05
0A
05
01
00
FC
00
FC
FC
0B
FA
FD
FA
F6
FA
03
07
FD
FF
00
09
FF
01
06
09
FC
FF
FE
F5
06
FC
FE
FD
FC
0B
F8
03
FA
0D
FE
F5
FD
F4
03
F8
F9
FF
0B
FB
02
01
F5
EF
0A
02
F3
F4
FC
01
F6
06
01
FE
FD
FB
03
08
FD
06
04
FB
03
06
01
03
FC
F7
0D
01
10
FF
F7
06
05
F7
FC
06
F3
F6
FF
07
FA
08
03
F5
07
02
03
0A
FF
02
FF
00
00
F4
01
FB
08
03
F9
F5
F4
0B
F8
04
F9
02
04
08
05
04
03
FC
FB
F8
02
07
F0
FF
04
FC
02
08
F2
08
07
04
06
FA
F9
07
FF
00
05
FF
0B
FB
04
03
FE
04
F7
FC
FA
06
F4
FB
F1
02
F6
05
02
FB
06
00
01
FF
01
02
06
FD
F9
09
F3
02
FF
01
04
06
FB
07
FD
FB
F7
F8
F9
FB
FD
04
F7
FF
03
06
02
F8
02
02
0C
0C
EC
00
FD
09
FE
07
09
05
FE
01
10
F7
F4
0C
F3
FA
F3
0A
05
03
01
FA
0B
F9
01
FE
00
08
00
F8
12
FC
FD
01
FB
0F
FB
05
0E
00
FD
06
FD
F9
04
FE
FD
00
02
05
07
FA
F7
FE
FA
F0
FF
02
05
FD
FD
FA
0B
0A
08
0F
F4
EF
06
FE
00
03
12
F4
04
04
0B
0D
01
08
FA
F5
02
F2
08
0E
FF
03
08
FC
F9
F6
0B
F9
07
FA
F2
FA
F7
F1
05
04
06
F9
09
06
EF
11
04
FA
0C
FB
FB
F9
0B
F9
F6
FA
FE
03
FB
FC
FA
FC
0E
08
F6
0D
F7
F7
FC
FC
05
08
FA
07
FF
FC
F2
FC
F6
FD
EE
08
00
FC
FA
FD
0B
F3
06
FF
08
04
F9
07
04
05
F6
0D
FD
FF
F7
FF
FE
FC
06
FE
FC
06
01
F8
F9
00
F4
02
05
07
EC
03
FF
03
09
02
FC
03
FA
F4
08
07
F8
01
FC
FA
FD
03
F9
06
0A
01
FD
05
02
0A
FE
0C
00
02
03
02
05
00
05
FD
FF
F0
FA
09
F7
F1
0B
FE
05
FD
01
FF
FE
FC
04
00
06
FF
FB
01
0E
00
F8
FD
09
FF
03
F9
01
FF
02
02
F9
00
FC
FF
FA
FE
FC
FB
FA
FA
F2
0C
09
03
00
FF
FB
00
03
FA
FC
FA
FF
04
F7
02
02
FF
04
09
03
06
01
0C
09
00
00
FB
0E
07
05
FB
07
FA
04
02
12
FB
06
FE
0C
00
FF
08
01
04
F9
FF
F6
01
FC
06
16
04
FE
05
00
01
03
FA
E9
02
FF
FC
0A
FE
F6
04
FD
00
0F
01
FD
00
00
01
FE
05
FA
F5
0A
02
F8
F9
F6
00
FF
06
05
0D
08
FA
FB
F8
0A
06
F5
F4
0B
FB
F7
03
F8
F6
FB
FA
06
06
05
03
FA
05
F5
FD
0A
FD
0A
FD
FF
00
03
FE
0B
00
04
02
FE
FC
0A
03
02
FC
FE
01
FC
F2
FB
04
00
FE
01
00
07
FD
FF
05
08
00
03
F8
F9
FD
0C
FA
01
F6
F6
FF
EE
02
F9
04
FE
00
05
08
02
FC
01
05
02
03
F2
F6
04
F7
04
04
F3
06
04
02
FA
07
F8
FC
FC
F4
0D
F5
04
F8
0D
F7
00
F4
FC
F5
05
FE
FB
FB
09
07
FA
08
05
F5
FB
F7
03
01
F8
06
FB
FC
03
F8
FF
06
FF
04
00
08
0F
FD
FA
FB
0B
FB
02
00
00
F8
0C
0F
08
04
05
F8
0A
F8
02
09
04
06
FE
FE
FD
F7
FC
04
13
0E
FA
FE
FE
03
00
F7
FE
04
FA
01
10
0A
F1
FD
FE
FA
07
00
FA
02
06
00
05
0E
FE
FF
01
0A
FE
F7
EC
07
03
0B
FD
0D
FF
05
03
02
F9
02
06
03
FF
01
FD
01
09
05
03
07
F8
FC
FC
F6
03
04
FA
F8
F8
00
F6
02
02
00
F8
00
FF
00
FE
09
FB
FB
06
F8
04
FE
07
05
10
0C
04
02
06
04
10
FF
07
0D
FE
FF
F6
06
FB
FF
0C
F7
0B
08
FB
10
03
06
FB
FF
FC
06
06
FA
05
05
FD
05
F8
FE
0D
F9
10
06
06
04
FA
F7
0A
F5
FD
03
01
04
04
03
06
FF
FF
0E
00
08
F8
06
04
02
05
08
07
FA
08
00
0C
EF
0D
FC
05
08
01
08
FB
06
FF
F5
01
09
03
FD
0B
FE
FA
FE
07
F5
F6
01
FD
FD
02
02
08
02
00
06
06
F7
F9
FD
FB
09
FE
FC
F4
F5
0C
FE
06
FB
07
F6
FE
FA
F7
FB
F7
0A
05
F8
FF
0E
0E
F9
03
02
F3
07
FA
08
02
09
FF
FC
06
02
F8
03
02
F4
FF
FA
02
FB
F2
0A
0A
FB
03
FE
FF
FE
FF
02
04
FC
0E
F8
00
F9
06
F1
0A
FB
0C
00
06
FB
08
00
FA
04
FD
F9
FA
FC
FB
FD
0C
EB
FE
FC
01
09
FB
02
00
F4
02
F6
09
09
03
03
0C
05
06
04
03
01
0B
F7
FC
F3
F8
F3
0B
09
08
FA
0E
FF
EE
0A
0D
02
FB
FE
FF
F8
09
FA
06
FE
F5
FC
06
05
F6
FB
0A
03
FF
00
FC
02
FA
FB
06
0E
03
00
F8
FF
F5
FD
EF
FF
F7
06
FA
FF
F0
09
08
FC
